<unk>	0
<s>	0
</s>	0
▁t	-0
▁。	-1
he	-2
▁.	-3
▁は	-4
▁a	-5
▁i	-6
▁い	-7
▁w	-8
▁た	-9
▁s	-10
▁the	-11
▁に	-12
▁の	-13
▁を	-14
ou	-15
re	-16
▁m	-17
in	-18
▁て	-19
▁h	-20
▁な	-21
on	-22
▁b	-23
▁c	-24
▁to	-25
▁で	-26
▁彼	-27
▁し	-28
▁が	-29
er	-30
▁f	-31
▁る	-32
▁す	-33
▁he	-34
at	-35
▁d	-36
en	-37
or	-38
an	-39
is	-40
▁っ	-41
▁p	-42
▁か	-43
▁y	-44
▁o	-45
ed	-46
▁l	-47
os	-48
ing	-49
as	-50
ap	-51
▁you	-52
▁th	-53
ll	-54
es	-55
▁と	-56
▁&	-57
▁ま	-58
ar	-59
▁in	-60
▁is	-61
▁n	-62
▁g	-63
▁だ	-64
▁私	-65
▁of	-66
it	-67
▁、	-68
apos	-69
▁あ	-70
▁こ	-71
ot	-72
▁そ	-73
▁も	-74
om	-75
ve	-76
▁,	-77
▁く	-78
▁be	-79
le	-80
ay	-81
▁e	-82
▁an	-83
▁う	-84
▁よ	-85
ic	-86
▁we	-87
ow	-88
▁ら	-89
▁ha	-90
▁?	-91
et	-92
▁it	-93
ld	-94
▁その	-95
▁彼女	-96
▁on	-97
▁for	-98
us	-99
▁was	-100
ent	-101
im	-102
▁st	-103
▁re	-104
oo	-105
ver	-106
▁she	-107
ke	-108
al	-109
▁r	-110
ion	-111
▁that	-112
▁me	-113
▁こと	-114
▁his	-115
▁ん	-116
▁wh	-117
ch	-118
▁my	-119
gh	-120
id	-121
▁do	-122
▁wit	-123
▁with	-124
▁this	-125
ad	-126
▁お	-127
ter	-128
▁have	-129
ill	-130
ce	-131
▁not	-132
▁as	-133
her	-134
▁さ	-135
out	-136
▁する	-137
▁at	-138
▁u	-139
▁li	-140
ly	-141
ut	-142
am	-143
▁人	-144
▁き	-145
▁この	-146
ct	-147
▁su	-148
▁and	-149
ir	-150
▁れ	-151
▁are	-152
▁her	-153
▁sh	-154
▁せ	-155
▁り	-156
ght	-157
▁ne	-158
ain	-159
▁つ	-160
ould	-161
▁can	-162
qu	-163
▁j	-164
ri	-165
▁se	-166
ome	-167
▁かっ	-168
se	-169
▁will	-170
▁your	-171
▁ば	-172
▁行	-173
op	-174
▁から	-175
▁k	-176
▁ど	-177
▁him	-178
▁よう	-179
all	-180
▁go	-181
ea	-182
▁わ	-183
▁1	-184
▁一	-185
st	-186
▁時	-187
▁見	-188
ook	-189
ur	-190
▁so	-191
ul	-192
one	-193
very	-194
▁what	-195
ore	-196
▁ab	-197
▁fr	-198
our	-199
▁ch	-200
▁言	-201
▁tr	-202
▁たち	-203
ake	-204
oun	-205
▁whe	-206
▁wor	-207
ge	-208
▁日	-209
▁up	-210
▁大	-211
なた	-212
▁there	-213
▁あなた	-214
ess	-215
ation	-216
▁by	-217
▁man	-218
▁出	-219
il	-220
▁や	-221
▁pr	-222
▁has	-223
▁all	-224
▁今	-225
est	-226
▁何	-227
▁ex	-228
▁had	-229
▁no	-230
▁de	-231
▁out	-232
ard	-233
▁from	-234
ong	-235
▁they	-236
▁sp	-237
▁君	-238
ight	-239
ood	-240
ust	-241
▁en	-242
ck	-243
th	-244
un	-245
▁自	-246
ind	-247
▁com	-248
ant	-249
▁don	-250
fe	-251
and	-252
▁al	-253
▁け	-254
▁ろ	-255
▁tim	-256
ers	-257
▁pl	-258
▁con	-259
ate	-260
ud	-261
▁会	-262
▁思	-263
▁それ	-264
▁when	-265
red	-266
▁get	-267
▁like	-268
ble	-269
end	-270
ast	-271
ame	-272
▁v	-273
ish	-274
▁un	-275
ase	-276
quot	-277
▁家	-278
art	-279
ear	-280
▁でき	-281
▁see	-282
ice	-283
ak	-284
ist	-285
ort	-286
▁だっ	-287
▁us	-288
▁am	-289
▁ほ	-290
ol	-291
▁中	-292
▁本	-293
▁事	-294
ry	-295
▁へ	-296
▁手	-297
▁知	-298
ive	-299
res	-300
▁time	-301
▁good	-302
if	-303
▁but	-304
▁about	-305
▁話	-306
now	-307
▁fe	-308
▁もの	-309
▁our	-310
ays	-311
▁int	-312
▁were	-313
pp	-314
day	-315
▁sa	-316
▁af	-317
▁!	-318
▁fa	-319
▁けれ	-320
cc	-321
▁new	-322
▁te	-323
ig	-324
▁生	-325
are	-326
▁どう	-327
▁let	-328
▁look	-329
▁very	-330
▁did	-331
▁まで	-332
other	-333
▁than	-334
▁cl	-335
▁too	-336
▁work	-337
▁ple	-338
▁should	-339
▁how	-340
ep	-341
▁co	-342
▁any	-343
▁ar	-344
▁car	-345
ather	-346
▁気	-347
▁stud	-348
▁if	-349
▁know	-350
▁ため	-351
▁off	-352
ity	-353
ie	-354
▁ag	-355
▁ro	-356
mp	-357
▁ね	-358
ound	-359
▁br	-360
▁自分	-361
lf	-362
▁ad	-363
▁くだ	-364
▁仕	-365
ink	-366
▁くださ	-367
▁2	-368
▁学	-369
ure	-370
▁bo	-371
▁or	-372
▁pro	-373
▁every	-374
▁み	-375
▁られ	-376
▁been	-377
ine	-378
▁しょ	-379
▁少	-380
▁来	-381
▁なさ	-382
▁one	-383
▁some	-384
▁好	-385
▁金	-386
▁くれ	-387
んな	-388
ount	-389
▁who	-390
▁year	-391
▁我	-392
ost	-393
hing	-394
▁please	-395
um	-396
ect	-397
ild	-398
ool	-399
ree	-400
▁could	-401
▁車	-402
row	-403
っと	-404
der	-405
▁qu	-406
▁ア	-407
▁pe	-408
▁仕事	-409
▁入	-410
alk	-411
el	-412
▁年	-413
▁@	-414
▁いつ	-415
▁peop	-416
-@	-417
ade	-418
ass	-419
▁@-@	-420
▁long	-421
▁want	-422
▁would	-423
▁people	-424
▁最	-425
▁間	-426
▁more	-427
▁誰	-428
ite	-429
ous	-430
▁ke	-431
▁book	-432
▁comp	-433
▁上	-434
hed	-435
own	-436
▁le	-437
▁after	-438
▁ba	-439
▁got	-440
▁hel	-441
▁read	-442
ult	-443
ough	-444
▁exp	-445
▁新	-446
ven	-447
ther	-448
▁here	-449
▁take	-450
▁持	-451
itt	-452
▁sch	-453
▁make	-454
▁子	-455
▁must	-456
▁全	-457
▁必	-458
▁方	-459
▁tw	-460
▁我々	-461
ning	-462
▁bus	-463
▁コ	-464
▁好き	-465
▁help	-466
▁made	-467
ren	-468
▁jo	-469
▁day	-470
▁may	-471
▁many	-472
▁そう	-473
▁come	-474
▁べ	-475
age	-476
ved	-477
▁ず	-478
▁dr	-479
▁とて	-480
self	-481
▁acc	-482
▁way	-483
▁school	-484
▁下	-485
▁前	-486
▁達	-487
ick	-488
▁とても	-489
▁じ	-490
▁多	-491
▁これ	-492
▁食	-493
oss	-494
▁より	-495
▁well	-496
▁不	-497
oney	-498
▁eng	-499
▁tom	-500
▁分	-501
▁wr	-502
▁old	-503
▁went	-504
▁ジ	-505
ment	-506
ving	-507
▁bet	-508
▁money	-509
▁すぐ	-510
▁電	-511
eak	-512
uch	-513
▁10	-514
▁bu	-515
reat	-516
▁now	-517
▁down	-518
▁ち	-519
▁much	-520
▁3	-521
▁聞	-522
app	-523
ose	-524
ves	-525
▁よく	-526
▁home	-527
▁part	-528
▁ス	-529
▁あの	-530
▁bec	-531
▁tea	-532
▁先	-533
▁目	-534
ies	-535
▁sm	-536
▁さん	-537
▁もう	-538
▁ご	-539
▁問	-540
▁日本	-541
▁時間	-542
▁hard	-543
▁over	-544
▁think	-545
od	-546
ance	-547
apan	-548
▁dis	-549
▁wat	-550
▁japan	-551
▁部	-552
ally	-553
▁speak	-554
▁む	-555
▁app	-556
ought	-557
pt	-558
▁者	-559
ide	-560
use	-561
▁しま	-562
▁does	-563
ac	-564
ark	-565
▁問題	-566
▁child	-567
ag	-568
▁小	-569
▁読	-570
ート	-571
ary	-572
▁gr	-573
▁engl	-574
▁last	-575
▁their	-576
▁other	-577
▁取	-578
▁教	-579
▁無	-580
urn	-581
▁ここ	-582
fore	-583
ue	-584
▁ド	-585
ress	-586
ways	-587
▁res	-588
▁say	-589
▁into	-590
▁パ	-591
▁明	-592
ise	-593
▁room	-594
▁always	-595
▁「	-596
▁」	-597
▁成	-598
ouse	-599
▁play	-600
▁before	-601
▁父	-602
▁的	-603
▁考	-604
▁英	-605
▁買	-606
ave	-607
▁life	-608
▁again	-609
▁とき	-610
▁子供	-611
ried	-612
▁バ	-613
ove	-614
▁aw	-615
▁la	-616
▁だけ	-617
▁ear	-618
▁two	-619
▁such	-620
▁english	-621
ms	-622
▁結	-623
▁書	-624
▁男	-625
ang	-626
▁mat	-627
▁call	-628
▁going	-629
▁house	-630
▁father	-631
▁同	-632
▁決	-633
orrow	-634
wn	-635
▁ひ	-636
▁テ	-637
▁国	-638
▁立	-639
ach	-640
ict	-641
▁考え	-642
▁dif	-643
ci	-644
▁僕	-645
▁通	-646
▁bl	-647
▁英語	-648
▁came	-649
▁nothing	-650
▁地	-651
ory	-652
▁部屋	-653
▁fri	-654
▁put	-655
▁happ	-656
▁better	-657
▁高	-658
▁keep	-659
▁soon	-660
▁起	-661
▁遅	-662
able	-663
▁just	-664
ft	-665
▁悪	-666
▁fl	-667
▁新し	-668
▁train	-669
▁心	-670
▁運	-671
ire	-672
▁tell	-673
▁them	-674
▁mother	-675
▁意	-676
▁必要	-677
ated	-678
ence	-679
▁count	-680
▁right	-681
▁today	-682
▁カ	-683
▁いけ	-684
▁今日	-685
▁学校	-686
ings	-687
▁lea	-688
▁pre	-689
▁str	-690
▁said	-691
▁friend	-692
▁ト	-693
▁母	-694
▁op	-695
▁boy	-696
▁pol	-697
▁meet	-698
▁rain	-699
ty	-700
▁以	-701
irst	-702
ff	-703
▁もら	-704
▁下さ	-705
ause	-706
▁後	-707
▁良	-708
▁雨	-709
ich	-710
▁po	-711
ents	-712
▁att	-713
▁imp	-714
ts	-715
▁cr	-716
▁先生	-717
▁ask	-718
▁fin	-719
▁best	-720
▁hand	-721
▁pers	-722
▁took	-723
ro	-724
▁勉	-725
▁計	-726
▁勉強	-727
omet	-728
▁back	-729
xt	-730
▁作	-731
▁外	-732
▁楽	-733
▁関	-734
ere	-735
▁食べ	-736
▁away	-737
▁walk	-738
▁never	-739
ng	-740
▁正	-741
▁若	-742
not	-743
ond	-744
▁なん	-745
▁ten	-746
▁feel	-747
▁first	-748
▁study	-749
▁young	-750
mb	-751
▁試	-752
ten	-753
ittle	-754
▁plan	-755
▁teac	-756
▁great	-757
▁where	-758
▁little	-759
▁乗	-760
▁感	-761
ied	-762
▁わか	-763
▁care	-764
▁next	-765
▁only	-766
▁cannot	-767
▁tomorrow	-768
▁女	-769
らい	-770
ful	-771
▁電話	-772
ek	-773
▁5	-774
▁世	-775
▁予	-776
▁昨	-777
▁飲	-778
ころ	-779
▁成功	-780
▁run	-781
▁そんな	-782
▁使	-783
▁病	-784
イン	-785
ile	-786
man	-787
▁wa	-788
ange	-789
▁mor	-790
▁need	-791
▁フ	-792
▁名	-793
▁帰	-794
▁終	-795
ット	-796
▁少し	-797
▁sun	-798
▁won	-799
thing	-800
▁show	-801
▁talk	-802
▁morning	-803
▁without	-804
▁友	-805
▁月	-806
▁着	-807
▁長	-808
▁音	-809
かり	-810
orm	-811
▁sw	-812
▁どこ	-813
▁計画	-814
akes	-815
ited	-816
▁ところ	-817
ition	-818
▁kind	-819
▁years	-820
▁ク	-821
▁合	-822
▁歩	-823
▁理	-824
▁道	-825
ign	-826
▁fam	-827
▁often	-828
▁somet	-829
▁three	-830
▁teacher	-831
act	-832
▁ac	-833
▁そこ	-834
ting	-835
▁eas	-836
▁left	-837
▁week	-838
▁under	-839
▁because	-840
iz	-841
oy	-842
▁受	-843
▁実	-844
▁機	-845
▁死	-846
ール	-847
aut	-848
▁mo	-849
▁bel	-850
▁rec	-851
▁give	-852
ds	-853
▁空	-854
ュー	-855
リカ	-856
bod	-857
▁ほど	-858
▁楽し	-859
body	-860
erest	-861
▁beaut	-862
▁二	-863
▁住	-864
ily	-865
iss	-866
▁fo	-867
▁見え	-868
▁act	-869
▁医	-870
▁変	-871
▁待	-872
▁水	-873
ock	-874
▁id	-875
▁大き	-876
▁手紙	-877
▁gir	-878
▁mon	-879
▁live	-880
▁mind	-881
▁turn	-882
▁person	-883
▁proble	-884
ip	-885
ok	-886
▁メ	-887
まり	-888
ace	-889
▁sc	-890
▁すべ	-891
▁明日	-892
ness	-893
▁adv	-894
▁beg	-895
▁war	-896
▁yes	-897
▁matter	-898
▁interest	-899
ky	-900
▁次	-901
▁歌	-902
▁注	-903
▁語	-904
ック	-905
hes	-906
▁遅れ	-907
▁cat	-908
▁cle	-909
▁far	-910
▁per	-911
▁diff	-912
▁news	-913
cl	-914
▁タ	-915
▁回	-916
▁天	-917
▁失	-918
▁始	-919
▁忘	-920
▁美	-921
▁連	-922
して	-923
ffe	-924
メリカ	-925
▁すべて	-926
ident	-927
▁didn	-928
▁pres	-929
▁チ	-930
▁発	-931
▁近	-932
くさ	-933
スト	-934
ラン	-935
ese	-936
▁ジョ	-937
▁忘れ	-938
ctor	-939
ious	-940
iver	-941
▁lot	-942
▁why	-943
▁くらい	-944
▁girl	-945
▁late	-946
▁once	-947
▁pass	-948
▁アメリカ	-949
▁children	-950
▁信	-951
▁幸	-952
▁度	-953
▁引	-954
▁当	-955
▁物	-956
▁解	-957
▁降	-958
ans	-959
igh	-960
▁起こ	-961
▁des	-962
▁rep	-963
aking	-964
▁hour	-965
▁night	-966
▁両	-967
▁働	-968
▁数	-969
▁早	-970
▁経	-971
▁走	-972
ope	-973
ull	-974
▁gl	-975
▁多く	-976
▁教え	-977
くさん	-978
ible	-979
ired	-980
▁thr	-981
▁cont	-982
▁even	-983
▁find	-984
▁たくさん	-985
▁being	-986
▁party	-987
▁these	-988
▁which	-989
▁meeting	-990
▁6	-991
▁助	-992
▁対	-993
▁息	-994
▁警	-995
▁風	-996
ちら	-997
ティ	-998
led	-999
eric	-1000
ject	-1001
▁dog	-1002
▁min	-1003
▁saw	-1004
icult	-1005
▁gave	-1006
▁stay	-1007
▁wind	-1008
terday	-1009
▁americ	-1010
▁around	-1011
▁letter	-1012
▁yesterday	-1013
んど	-1014
リー	-1015
air	-1016
ank	-1017
get	-1018
ted	-1019
▁いた	-1020
▁かか	-1021
▁受け	-1022
ical	-1023
iful	-1024
ions	-1025
▁leave	-1026
▁enough	-1027
▁through	-1028
▁difficult	-1029
▁ペ	-1030
▁ロ	-1031
▁・	-1032
▁切	-1033
▁有	-1034
▁開	-1035
らし	-1036
ens	-1037
▁ほと	-1038
▁出発	-1039
▁air	-1040
▁mar	-1041
▁met	-1042
▁rem	-1043
▁もっと	-1044
ished	-1045
▁days	-1046
▁start	-1047
▁station	-1048
▁beautiful	-1049
au	-1050
ub	-1051
▁ニ	-1052
▁ビ	-1053
▁休	-1054
▁列	-1055
▁向	-1056
▁急	-1057
▁親	-1058
▁赤	-1059
mer	-1060
vel	-1061
▁ちょ	-1062
▁入れ	-1063
▁注意	-1064
▁che	-1065
▁job	-1066
iness	-1067
▁watch	-1068
▁compan	-1069
▁students	-1070
▁something	-1071
▁え	-1072
▁ぶ	-1073
▁ケ	-1074
▁マ	-1075
▁駅	-1076
もり	-1077
ター	-1078
▁ey	-1079
▁lo	-1080
▁ob	-1081
▁ph	-1082
▁医者	-1083
▁本当	-1084
alth	-1085
aren	-1086
▁bre	-1087
▁own	-1088
▁vis	-1089
▁char	-1090
▁door	-1091
▁each	-1092
▁books	-1093
▁class	-1094
▁doctor	-1095
oke	-1096
▁ho	-1097
▁すぎ	-1098
▁パー	-1099
ince	-1100
▁bad	-1101
▁buy	-1102
▁sur	-1103
▁used	-1104
▁ほとんど	-1105
▁japanese	-1106
▁健	-1107
▁反	-1108
▁口	-1109
▁訪	-1110
▁重	-1111
った	-1112
aid	-1113
cle	-1114
▁mr	-1115
▁少年	-1116
▁病気	-1117
ward	-1118
▁eat	-1119
▁mus	-1120
▁reg	-1121
▁set	-1122
▁son	-1123
▁つもり	-1124
▁ever	-1125
▁wait	-1126
▁drink	-1127
▁heard	-1128
by	-1129
▁ボ	-1130
▁寝	-1131
▁店	-1132
▁戦	-1133
▁毎	-1134
▁現	-1135
▁飛	-1136
ail	-1137
als	-1138
anc	-1139
ath	-1140
▁gu	-1141
▁うち	-1142
▁バス	-1143
▁一番	-1144
▁出来	-1145
▁分か	-1146
▁列車	-1147
▁間違	-1148
less	-1149
ccess	-1150
▁cons	-1151
▁exam	-1152
▁supp	-1153
▁found	-1154
▁water	-1155
▁world	-1156
▁company	-1157
▁success	-1158
▁weather	-1159
te	-1160
▁4	-1161
▁エ	-1162
▁サ	-1163
▁シ	-1164
▁公	-1165
▁怒	-1166
▁所	-1167
▁朝	-1168
▁犬	-1169
▁非	-1170
▁顔	-1171
つけ	-1172
ack	-1173
ner	-1174
ork	-1175
▁sl	-1176
▁いく	-1177
▁しか	-1178
▁どの	-1179
▁トム	-1180
▁取り	-1181
▁昨日	-1182
ceed	-1183
▁あまり	-1184
▁ニュー	-1185
▁open	-1186
▁belie	-1187
▁paren	-1188
▁seems	-1189
▁short	-1190
▁times	-1191
▁brother	-1192
▁country	-1193
▁looking	-1194
▁problem	-1195
av	-1196
▁ピ	-1197
▁ホ	-1198
▁説	-1199
▁過	-1200
▁違	-1201
ンド	-1202
uct	-1203
▁コー	-1204
▁生活	-1205
▁美し	-1206
▁ang	-1207
▁dri	-1208
▁few	-1209
▁ser	-1210
ister	-1211
▁high	-1212
▁stre	-1213
▁since	-1214
▁police	-1215
▁another	-1216
▁parents	-1217
▁動	-1218
▁十	-1219
▁強	-1220
les	-1221
▁なら	-1222
▁大変	-1223
▁fact	-1224
▁five	-1225
▁sing	-1226
▁told	-1227
▁business	-1228
pr	-1229
▁海	-1230
▁週	-1231
▁難	-1232
lic	-1233
▁ほう	-1234
▁大学	-1235
▁息子	-1236
▁来る	-1237
ティー	-1238
leep	-1239
llow	-1240
▁inv	-1241
▁lar	-1242
▁city	-1243
▁comm	-1244
ations	-1245
▁coffe	-1246
▁light	-1247
▁while	-1248
▁他	-1249
▁利	-1250
▁場	-1251
▁夜	-1252
▁熱	-1253
▁相	-1254
▁真	-1255
▁野	-1256
かけ	-1257
持ち	-1258
ert	-1259
ian	-1260
▁かけ	-1261
▁つけ	-1262
▁会社	-1263
▁同じ	-1264
▁ill	-1265
▁ind	-1266
▁ran	-1267
▁rel	-1268
▁ret	-1269
▁spe	-1270
▁easy	-1271
▁hear	-1272
▁miss	-1273
▁most	-1274
▁pain	-1275
▁quest	-1276
▁coffee	-1277
▁things	-1278
▁friends	-1279
iv	-1280
ix	-1281
▁努	-1282
▁平	-1283
▁木	-1284
▁続	-1285
▁調	-1286
の子	-1287
ーム	-1288
oth	-1289
▁時計	-1290
▁big	-1291
▁dec	-1292
▁ref	-1293
▁suc	-1294
▁sum	-1295
▁use	-1296
aught	-1297
feren	-1298
▁fail	-1299
▁tele	-1300
▁true	-1301
▁asked	-1302
▁happy	-1303
▁music	-1304
▁stand	-1305
▁パーティー	-1306
▁health	-1307
▁against	-1308
▁succeed	-1309
og	-1310
▁主	-1311
▁安	-1312
▁得	-1313
▁懸	-1314
▁政	-1315
▁文	-1316
▁旅	-1317
▁東	-1318
▁うま	-1319
▁たい	-1320
▁って	-1321
▁クラ	-1322
▁テレ	-1323
▁一生	-1324
▁世界	-1325
▁両親	-1326
▁事故	-1327
▁人間	-1328
▁始め	-1329
▁学生	-1330
▁必ず	-1331
▁懸命	-1332
▁結婚	-1333
▁通り	-1334
orts	-1335
osed	-1336
▁beh	-1337
▁ent	-1338
▁hot	-1339
▁hur	-1340
▁sat	-1341
▁cold	-1342
▁comes	-1343
▁minut	-1344
▁month	-1345
▁having	-1346
00	-1347
▁オ	-1348
▁性	-1349
▁提	-1350
▁残	-1351
ヒー	-1352
ars	-1353
int	-1354
oup	-1355
▁まだ	-1356
▁人々	-1357
▁助け	-1358
▁努力	-1359
▁音楽	-1360
ense	-1361
ered	-1362
form	-1363
▁eff	-1364
▁its	-1365
▁pay	-1366
▁try	-1367
▁win	-1368
▁wom	-1369
▁いただ	-1370
▁dist	-1371
▁fore	-1372
▁less	-1373
▁コーヒー	-1374
▁doesn	-1375
▁those	-1376
▁wrong	-1377
▁really	-1378
▁street	-1379
▁anything	-1380
ab	-1381
▁支	-1382
▁申	-1383
▁町	-1384
▁笑	-1385
▁約	-1386
▁興	-1387
▁面	-1388
opp	-1389
▁ap	-1390
▁また	-1391
▁健康	-1392
▁終わ	-1393
▁関係	-1394
▁100	-1395
▁bir	-1396
▁dep	-1397
▁inc	-1398
▁isn	-1399
▁テレビ	-1400
▁arri	-1401
▁coll	-1402
▁love	-1403
▁seen	-1404
▁still	-1405
▁thought	-1406
hn	-1407
▁ぬ	-1408
▁ラ	-1409
▁万	-1410
▁与	-1411
▁交	-1412
▁川	-1413
▁愛	-1414
▁直	-1415
▁落	-1416
▁遠	-1417
▁選	-1418
ber	-1419
enc	-1420
eri	-1421
ons	-1422
▁あげ	-1423
▁小説	-1424
▁意見	-1425
▁手伝	-1426
▁生き	-1427
aper	-1428
ates	-1429
ised	-1430
read	-1431
ular	-1432
▁cor	-1433
▁ジョン	-1434
▁fish	-1435
▁john	-1436
▁mist	-1437
▁resp	-1438
▁story	-1439
ossible	-1440
▁happen	-1441
▁sister	-1442
az	-1443
ph	-1444
▁7	-1445
▁キ	-1446
▁ブ	-1447
▁呼	-1448
▁太	-1449
▁山	-1450
▁建	-1451
▁満	-1452
▁頭	-1453
ell	-1454
uth	-1455
▁gi	-1456
▁すれ	-1457
▁与え	-1458
▁全く	-1459
▁十分	-1460
▁非常	-1461
ries	-1462
▁ele	-1463
▁ins	-1464
▁どちら	-1465
▁なんて	-1466
▁決して	-1467
▁busy	-1468
▁face	-1469
▁full	-1470
▁game	-1471
▁idea	-1472
▁lost	-1473
▁name	-1474
▁sure	-1475
▁town	-1476
▁break	-1477
▁place	-1478
▁tried	-1479
▁change	-1480
▁couldn	-1481
gg	-1482
sw	-1483
up	-1484
▁イ	-1485
▁デ	-1486
▁古	-1487
▁市	-1488
▁役	-1489
▁忙	-1490
▁泳	-1491
▁流	-1492
▁老	-1493
ーク	-1494
▁一人	-1495
▁以上	-1496
▁生徒	-1497
▁親切	-1498
▁言葉	-1499
ross	-1500
▁cut	-1501
▁sec	-1502
▁answ	-1503
▁baby	-1504
▁done	-1505
▁gone	-1506
▁park	-1507
▁river	-1508
▁sleep	-1509
▁small	-1510
▁surpr	-1511
▁looked	-1512
▁window	-1513
▁ぼ	-1514
▁代	-1515
▁勝	-1516
▁座	-1517
▁映	-1518
▁歳	-1519
▁消	-1520
▁疲	-1521
▁花	-1522
▁記	-1523
▁財	-1524
▁足	-1525
▁進	-1526
kyo	-1527
ord	-1528
▁もし	-1529
▁ドア	-1530
▁忙し	-1531
▁疲れ	-1532
▁abs	-1533
▁add	-1534
▁adm	-1535
▁bed	-1536
▁hun	-1537
▁lau	-1538
▁sub	-1539
▁unt	-1540
▁大きな	-1541
▁doll	-1542
▁eyes	-1543
▁free	-1544
▁rest	-1545
▁same	-1546
▁build	-1547
▁quite	-1548
▁thank	-1549
▁tired	-1550
▁tokyo	-1551
▁across	-1552
▁others	-1553
▁getting	-1554
▁accident	-1555
▁differen	-1556
▁everyone	-1557
▁yourself	-1558
▁ぐ	-1559
▁困	-1560
▁料	-1561
▁特	-1562
▁窓	-1563
▁限	-1564
ife	-1565
med	-1566
ret	-1567
▁だれ	-1568
▁思い	-1569
▁映画	-1570
▁試験	-1571
▁警察	-1572
ランス	-1573
cept	-1574
ever	-1575
▁hon	-1576
▁sit	-1577
▁disc	-1578
▁expl	-1579
▁food	-1580
▁four	-1581
▁goes	-1582
▁hope	-1583
▁pict	-1584
▁hours	-1585
▁large	-1586
▁until	-1587
▁bought	-1588
▁myself	-1589
▁america	-1590
▁himself	-1591
▁ふ	-1592
▁ベ	-1593
▁レ	-1594
▁体	-1595
▁命	-1596
▁用	-1597
▁要	-1598
▁辞	-1599
▁速	-1600
▁驚	-1601
ング	-1602
ージ	-1603
ーン	-1604
amp	-1605
ced	-1606
▁しれ	-1607
▁ひど	-1608
▁コン	-1609
▁ドル	-1610
▁反対	-1611
▁試合	-1612
▁運転	-1613
ared	-1614
ased	-1615
ient	-1616
ream	-1617
▁gen	-1618
▁men	-1619
▁pat	-1620
stand	-1621
▁able	-1622
▁dark	-1623
▁kept	-1624
▁swim	-1625
▁then	-1626
ention	-1627
▁earth	-1628
▁lives	-1629
▁called	-1630
▁follow	-1631
▁import	-1632
▁office	-1633
▁return	-1634
▁account	-1635
▁reading	-1636
▁everything	-1637
▁め	-1638
▁ポ	-1639
▁優	-1640
▁初	-1641
▁別	-1642
▁力	-1643
▁危	-1644
▁喜	-1645
▁法	-1646
joy	-1647
▁kn	-1648
▁まま	-1649
▁上手	-1650
▁友達	-1651
▁天気	-1652
▁小さ	-1653
▁東京	-1654
▁申し	-1655
▁約束	-1656
▁起き	-1657
▁難し	-1658
mber	-1659
▁nat	-1660
▁pop	-1661
▁pur	-1662
▁sol	-1663
▁ter	-1664
▁どんな	-1665
▁ばかり	-1666
ision	-1667
▁head	-1668
▁near	-1669
▁ちょっと	-1670
▁フランス	-1671
▁early	-1672
▁enjoy	-1673
▁inter	-1674
▁novel	-1675
▁store	-1676
▁write	-1677
▁expect	-1678
▁family	-1679
▁forget	-1680
▁wonder	-1681
▁minutes	-1682
▁finished	-1683
▁9	-1684
▁兄	-1685
▁内	-1686
▁台	-1687
▁泣	-1688
▁深	-1689
▁留	-1690
▁貸	-1691
▁返	-1692
っぱ	-1693
ント	-1694
ize	-1695
ned	-1696
oud	-1697
▁名前	-1698
▁太陽	-1699
▁失敗	-1700
▁見せ	-1701
ains	-1702
orry	-1703
▁end	-1704
▁lik	-1705
▁tri	-1706
▁ずっと	-1707
▁bank	-1708
▁cond	-1709
▁fall	-1710
▁prom	-1711
▁snow	-1712
▁wife	-1713
iction	-1714
▁visit	-1715
ination	-1716
▁caught	-1717
▁summer	-1718
▁ミ	-1719
▁付	-1720
▁余	-1721
▁元	-1722
▁夏	-1723
▁従	-1724
▁暗	-1725
▁期	-1726
▁求	-1727
▁許	-1728
▁銀	-1729
▁魚	-1730
めて	-1731
イト	-1732
een	-1733
ors	-1734
uck	-1735
▁19	-1736
▁いか	-1737
▁はず	-1738
▁ひと	-1739
▁わけ	-1740
▁友人	-1741
▁興味	-1742
っかり	-1743
ball	-1744
▁med	-1745
▁mil	-1746
▁num	-1747
▁sal	-1748
▁ton	-1749
ually	-1750
uring	-1751
▁bill	-1752
▁fire	-1753
▁list	-1754
▁opin	-1755
▁post	-1756
▁trou	-1757
▁word	-1758
▁carry	-1759
▁dress	-1760
▁sorry	-1761
▁trave	-1762
▁words	-1763
osition	-1764
▁sunday	-1765
▁believe	-1766
▁question	-1767
▁speaking	-1768
ru	-1769
▁ダ	-1770
▁夫	-1771
▁散	-1772
▁眠	-1773
▁確	-1774
▁社	-1775
▁覚	-1776
▁逃	-1777
▁遊	-1778
▁願	-1779
かし	-1780
とう	-1781
わせ	-1782
ップ	-1783
ーキ	-1784
▁ed	-1785
▁im	-1786
▁ty	-1787
▁あら	-1788
▁すば	-1789
▁わた	-1790
▁ペン	-1791
▁少女	-1792
▁引き	-1793
▁求め	-1794
▁週間	-1795
▁野球	-1796
▁食事	-1797
ater	-1798
enty	-1799
ided	-1800
ital	-1801
road	-1802
ults	-1803
vers	-1804
▁age	-1805
▁emp	-1806
▁見つけ	-1807
ained	-1808
ented	-1809
ustom	-1810
▁base	-1811
▁case	-1812
▁fast	-1813
▁angry	-1814
▁death	-1815
▁knows	-1816
▁thing	-1817
▁forward	-1818
▁picture	-1819
▁understand	-1820
aw	-1821
ax	-1822
ib	-1823
▁ゆ	-1824
▁プ	-1825
▁似	-1826
▁尊	-1827
▁絵	-1828
▁賛	-1829
▁閉	-1830
▁鳥	-1831
いに	-1832
hip	-1833
oes	-1834
▁sk	-1835
▁あり	-1836
▁じゃ	-1837
▁たら	-1838
▁人生	-1839
▁出席	-1840
▁外国	-1841
▁女性	-1842
▁心配	-1843
▁意味	-1844
▁時代	-1845
▁決め	-1846
▁理由	-1847
▁知ら	-1848
▁落ち	-1849
▁連れ	-1850
▁電車	-1851
cess	-1852
▁afr	-1853
▁ass	-1854
▁del	-1855
▁det	-1856
▁din	-1857
▁law	-1858
▁出かけ	-1859
▁both	-1860
▁desk	-1861
▁flow	-1862
▁hold	-1863
▁mark	-1864
▁nice	-1865
▁poor	-1866
▁alone	-1867
▁begin	-1868
▁gener	-1869
▁quick	-1870
▁uncle	-1871
▁advice	-1872
▁attend	-1873
▁coming	-1874
▁during	-1875
▁turned	-1876
▁talking	-1877
▁countries	-1878
ia	-1879
oc	-1880
▁ガ	-1881
▁伝	-1882
▁借	-1883
▁叔	-1884
▁夕	-1885
▁夢	-1886
▁戻	-1887
▁指	-1888
▁昔	-1889
▁欠	-1890
▁欲	-1891
▁演	-1892
▁火	-1893
▁置	-1894
▁苦	-1895
▁茶	-1896
▁誤	-1897
▁責	-1898
▁質	-1899
▁身	-1900
▁都	-1901
に合	-1902
aff	-1903
ety	-1904
fer	-1905
ics	-1906
its	-1907
ual	-1908
▁ある	-1909
▁なが	-1910
▁なぜ	-1911
▁やめ	-1912
▁ビル	-1913
▁事実	-1914
▁幸せ	-1915
▁旅行	-1916
▁日曜	-1917
▁欲し	-1918
▁正直	-1919
▁終え	-1920
▁銀行	-1921
▁開け	-1922
eace	-1923
ined	-1924
oice	-1925
ured	-1926
ures	-1927
work	-1928
▁art	-1929
▁bur	-1930
▁fut	-1931
▁pub	-1932
▁six	-1933
▁tou	-1934
▁こんな	-1935
▁みんな	-1936
▁間に合	-1937
illed	-1938
▁cook	-1939
▁lear	-1940
▁mine	-1941
▁sign	-1942
▁song	-1943
▁stop	-1944
▁wish	-1945
▁writ	-1946
▁いただけ	-1947
▁looks	-1948
▁makes	-1949
▁paper	-1950
▁peace	-1951
▁phone	-1952
▁sight	-1953
▁truth	-1954
▁white	-1955
▁abroad	-1956
▁answer	-1957
▁future	-1958
▁honest	-1959
▁inform	-1960
▁number	-1961
▁travel	-1962
▁decided	-1963
▁diction	-1964
▁opinion	-1965
▁building	-1966
lt	-1967
▁;	-1968
▁び	-1969
▁吸	-1970
▁声	-1971
▁妻	-1972
▁嫌	-1973
▁守	-1974
▁客	-1975
▁払	-1976
▁断	-1977
▁点	-1978
▁猫	-1979
▁痛	-1980
▁皆	-1981
▁研	-1982
▁神	-1983
▁習	-1984
きり	-1985
まれ	-1986
わり	-1987
ニス	-1988
レス	-1989
上げ	-1990
ash	-1991
avy	-1992
ege	-1993
ple	-1994
▁とも	-1995
▁マイ	-1996
▁予約	-1997
▁元気	-1998
▁危険	-1999
▁提案	-2000
▁料理	-2001
▁毎日	-2002
▁研究	-2003
▁立て	-2004
▁結果	-2005
▁続け	-2006
▁辞書	-2007
ched	-2008
▁ext	-2009
▁par	-2010
▁sky	-2011
▁val	-2012
▁女の子	-2013
clock	-2014
ember	-2015
ility	-2016
ready	-2017
▁boys	-2018
▁conc	-2019
▁fell	-2020
▁fine	-2021
▁lead	-2022
▁rich	-2023
▁temp	-2024
▁すばらし	-2025
▁clean	-2026
▁laugh	-2027
▁ready	-2028
▁shall	-2029
▁woman	-2030
▁dinner	-2031
▁public	-2032
▁strong	-2033
▁already	-2034
▁college	-2035
▁playing	-2036
▁student	-2037
▁whether	-2038
▁baseball	-2039
▁possible	-2040
em	-2041
▁8	-2042
▁セ	-2043
▁価	-2044
▁円	-2045
▁割	-2046
▁可	-2047
▁宿	-2048
▁恐	-2049
▁授	-2050
▁昼	-2051
▁暮	-2052
▁服	-2053
▁様	-2054
▁横	-2055
▁番	-2056
▁白	-2057
▁突	-2058
▁背	-2059
▁送	-2060
▁集	-2061
▁青	-2062
くり	-2063
こえ	-2064
しろ	-2065
ん坊	-2066
テル	-2067
リス	-2068
ープ	-2069
bed	-2070
ech	-2071
nis	-2072
rew	-2073
▁11	-2074
▁あた	-2075
▁かな	-2076
▁くる	-2077
▁ぼく	-2078
▁イン	-2079
▁メア	-2080
▁他人	-2081
▁全て	-2082
▁家族	-2083
▁持ち	-2084
▁授業	-2085
▁新聞	-2086
▁最近	-2087
▁有名	-2088
▁正し	-2089
▁訪れ	-2090
▁話し	-2091
▁説明	-2092
▁賛成	-2093
▁飛行	-2094
ったく	-2095
ヨーク	-2096
cted	-2097
ween	-2098
▁box	-2099
▁exc	-2100
▁hum	-2101
▁mom	-2102
▁opp	-2103
▁red	-2104
▁tak	-2105
▁yen	-2106
▁ながら	-2107
▁テニス	-2108
▁気持ち	-2109
▁生まれ	-2110
▁聞こえ	-2111
anger	-2112
▁clim	-2113
▁cour	-2114
▁deep	-2115
▁felt	-2116
▁gard	-2117
▁mary	-2118
▁mean	-2119
▁prop	-2120
▁says	-2121
▁sick	-2122
▁tall	-2123
▁ニュース	-2124
▁メアリー	-2125
▁agree	-2126
▁began	-2127
▁catch	-2128
▁heart	-2129
▁heavy	-2130
▁known	-2131
▁order	-2132
▁reser	-2133
▁table	-2134
▁became	-2135
▁making	-2136
▁nobody	-2137
▁taking	-2138
▁tennis	-2139
▁ニューヨーク	-2140
▁between	-2141
▁foreign	-2142
▁tonight	-2143
▁different	-2144
▁important	-2145
▁ゴ	-2146
▁仲	-2147
▁便	-2148
▁写	-2149
▁午	-2150
▁収	-2151
▁周	-2152
▁忠	-2153
▁打	-2154
▁望	-2155
▁机	-2156
▁秘	-2157
▁答	-2158
▁箱	-2159
▁絶	-2160
▁表	-2161
▁詩	-2162
▁貧	-2163
▁資	-2164
▁雪	-2165
▁靴	-2166
▁頼	-2167
▁館	-2168
ャン	-2169
ーツ	-2170
000	-2171
adi	-2172
den	-2173
era	-2174
ial	-2175
icy	-2176
oon	-2177
orn	-2178
osp	-2179
▁30	-2180
▁el	-2181
▁tv	-2182
▁ころ	-2183
▁一緒	-2184
▁予定	-2185
▁今年	-2186
▁動物	-2187
▁戦争	-2188
▁政治	-2189
▁最も	-2190
▁熱心	-2191
▁理解	-2192
▁限り	-2193
ages	-2194
amed	-2195
cial	-2196
outh	-2197
ters	-2198
▁bit	-2199
▁fun	-2200
▁mid	-2201
▁mov	-2202
▁swe	-2203
▁tax	-2204
▁vac	-2205
▁yet	-2206
▁いくら	-2207
▁けれど	-2208
▁ちょう	-2209
▁わたし	-2210
▁ケーキ	-2211
▁知らせ	-2212
▁赤ん坊	-2213
ached	-2214
ently	-2215
▁dead	-2216
▁deal	-2217
▁wasn	-2218
▁york	-2219
▁まったく	-2220
▁along	-2221
▁dream	-2222
▁lived	-2223
▁sense	-2224
▁shoes	-2225
▁garden	-2226
▁seeing	-2227
▁speech	-2228
▁evening	-2229
▁married	-2230
▁present	-2231
▁strange	-2232
▁remember	-2233
▁studying	-2234
▁president	-2235
▁dictionary	-2236
pl	-2237
▁\	-2238
▁ネ	-2239
▁三	-2240
▁完	-2241
▁寒	-2242
▁尽	-2243
▁慣	-2244
▁扱	-2245
▁投	-2246
▁洗	-2247
▁独	-2248
▁登	-2249
▁耳	-2250
▁規	-2251
▁離	-2252
▁頃	-2253
ゃん	-2254
ろし	-2255
われ	-2256
バコ	-2257
ane	-2258
ief	-2259
iew	-2260
▁12	-2261
▁やす	-2262
▁らし	-2263
▁われ	-2264
▁今朝	-2265
▁公園	-2266
▁平和	-2267
▁散歩	-2268
▁方法	-2269
▁最初	-2270
▁満足	-2271
▁経験	-2272
▁自由	-2273
▁責任	-2274
▁質問	-2275
▁近く	-2276
▁過ぎ	-2277
▁違い	-2278
▁風邪	-2279
っきり	-2280
っくり	-2281
ンドン	-2282
ears	-2283
lete	-2284
unch	-2285
▁aff	-2286
▁bri	-2287
▁ken	-2288
▁ste	-2289
▁もらえ	-2290
▁タバコ	-2291
▁間違い	-2292
affic	-2293
itten	-2294
ivers	-2295
ondon	-2296
▁dire	-2297
▁held	-2298
▁paid	-2299
▁reas	-2300
▁requ	-2301
▁road	-2302
▁side	-2303
▁tree	-2304
▁ロンドン	-2305
▁clear	-2306
▁given	-2307
▁means	-2308
▁mount	-2309
▁ought	-2310
▁sever	-2311
▁sound	-2312
▁touch	-2313
▁afraid	-2314
▁custom	-2315
▁easily	-2316
▁expens	-2317
▁experi	-2318
▁listen	-2319
▁living	-2320
▁london	-2321
▁worked	-2322
▁address	-2323
▁arrived	-2324
▁dollars	-2325
▁mistake	-2326
▁running	-2327
▁someone	-2328
▁traffic	-2329
▁trouble	-2330
▁everybody	-2331
▁examination	-2332
▁ぞ	-2333
▁ウ	-2334
▁俺	-2335
▁光	-2336
▁再	-2337
▁商	-2338
▁増	-2339
▁妹	-2340
▁庭	-2341
▁悲	-2342
▁才	-2343
▁故	-2344
▁暖	-2345
▁歯	-2346
▁滞	-2347
▁素	-2348
▁船	-2349
▁議	-2350
▁貴	-2351
▁転	-2352
▁途	-2353
がい	-2354
っし	-2355
シー	-2356
リン	-2357
aka	-2358
con	-2359
ets	-2360
isf	-2361
ont	-2362
ute	-2363
▁20	-2364
▁es	-2365
▁あと	-2366
▁きれ	-2367
▁さえ	-2368
▁しゃ	-2369
▁たま	-2370
▁どれ	-2371
▁など	-2372
▁まず	-2373
▁みな	-2374
▁ピア	-2375
▁会合	-2376
▁会議	-2377
▁写真	-2378
▁可能	-2379
▁宿題	-2380
▁尊敬	-2381
▁行動	-2382
▁連絡	-2383
▁運動	-2384
aged	-2385
airs	-2386
ames	-2387
ield	-2388
ored	-2389
used	-2390
▁ago	-2391
▁cap	-2392
▁fav	-2393
▁leg	-2394
▁ありが	-2395
▁初めて	-2396
▁楽しみ	-2397
▁食べ物	-2398
ities	-2399
rench	-2400
▁club	-2401
▁conf	-2402
▁crow	-2403
▁hosp	-2404
▁inst	-2405
▁pian	-2406
▁prod	-2407
▁real	-2408
▁shop	-2409
▁smok	-2410
▁thir	-2411
▁vill	-2412
▁wall	-2413
▁ちょうど	-2414
gether	-2415
vision	-2416
▁drive	-2417
▁girls	-2418
▁hotel	-2419
▁likes	-2420
▁might	-2421
▁noise	-2422
▁pract	-2423
▁taken	-2424
▁voice	-2425
▁wants	-2426
▁charac	-2427
▁danger	-2428
▁effort	-2429
▁famous	-2430
▁finish	-2431
▁french	-2432
▁leaves	-2433
▁regard	-2434
▁secret	-2435
▁teleph	-2436
▁project	-2437
▁quickly	-2438
▁several	-2439
▁interested	-2440
uc	-2441
▁ハ	-2442
▁ワ	-2443
▁値	-2444
▁原	-2445
▁去	-2446
▁吹	-2447
▁姉	-2448
▁屋	-2449
▁広	-2450
▁探	-2451
▁村	-2452
▁案	-2453
▁犯	-2454
▁異	-2455
▁示	-2456
▁種	-2457
▁職	-2458
▁負	-2459
▁階	-2460
らか	-2461
ブル	-2462
リア	-2463
合い	-2464
bor	-2465
erc	-2466
ime	-2467
ott	-2468
ude	-2469
une	-2470
▁ev	-2471
▁おも	-2472
▁けど	-2473
▁ただ	-2474
▁なく	-2475
▁ジェ	-2476
▁今夜	-2477
▁価値	-2478
▁尽く	-2479
▁当然	-2480
▁母親	-2481
▁立ち	-2482
▁結局	-2483
▁老人	-2484
▁解決	-2485
▁誤り	-2486
▁重要	-2487
,000	-2488
angu	-2489
ants	-2490
ends	-2491
ices	-2492
lves	-2493
oken	-2494
rees	-2495
rupt	-2496
ural	-2497
▁ann	-2498
▁cup	-2499
▁hat	-2500
▁typ	-2501
▁どうぞ	-2502
▁ホテル	-2503
▁金持ち	-2504
ating	-2505
entle	-2506
▁anim	-2507
▁coat	-2508
▁died	-2509
▁grow	-2510
▁lend	-2511
▁milk	-2512
▁prev	-2513
▁radi	-2514
▁sent	-2515
▁slow	-2516
▁team	-2517
▁tick	-2518
▁われわれ	-2519
ertain	-2520
opping	-2521
▁broke	-2522
▁cross	-2523
▁doing	-2524
▁favor	-2525
▁front	-2526
▁langu	-2527
▁mouth	-2528
▁polit	-2529
▁treat	-2530
▁accept	-2531
▁gentle	-2532
▁missed	-2533
▁moment	-2534
▁smoking	-2535
▁subject	-2536
▁usually	-2537
▁complete	-2538
▁policeman	-2539
▁telephone	-2540
ee	-2541
ew	-2542
ji	-2543
so	-2544
ys	-2545
▁(	-2546
▁)	-2547
▁丘	-2548
▁五	-2549
▁到	-2550
▁半	-2551
▁博	-2552
▁土	-2553
▁報	-2554
▁富	-2555
▁将	-2556
▁弟	-2557
▁恥	-2558
▁情	-2559
▁振	-2560
▁曲	-2561
▁状	-2562
▁砂	-2563
▁簡	-2564
▁製	-2565
▁軽	-2566
▁迷	-2567
▁酒	-2568
▁馬	-2569
いつ	-2570
おり	-2571
らく	-2572
ード	-2573
上が	-2574
付け	-2575
cei	-2576
dle	-2577
ger	-2578
▁di	-2579
▁fu	-2580
▁なし	-2581
▁ほし	-2582
▁ショ	-2583
▁ジャ	-2584
▁タイ	-2585
▁人気	-2586
▁以前	-2587
▁利用	-2588
▁向か	-2589
▁困難	-2590
▁感謝	-2591
▁暖か	-2592
▁期待	-2593
▁気分	-2594
▁答え	-2595
▁財産	-2596
▁逃げ	-2597
here	-2598
ists	-2599
ized	-2600
olog	-2601
ones	-2602
▁anx	-2603
▁ben	-2604
▁cam	-2605
▁col	-2606
▁fig	-2607
▁hit	-2608
▁lad	-2609
▁lie	-2610
▁pen	-2611
▁いかが	-2612
▁きれい	-2613
▁そして	-2614
▁クラス	-2615
▁チーム	-2616
▁小さな	-2617
▁男の子	-2618
aring	-2619
conom	-2620
ither	-2621
mbers	-2622
opped	-2623
ories	-2624
▁also	-2625
▁appo	-2626
▁ball	-2627
▁drop	-2628
▁fool	-2629
▁foot	-2630
▁glad	-2631
▁hill	-2632
▁prep	-2633
▁pret	-2634
▁purp	-2635
▁tast	-2636
▁test	-2637
▁warm	-2638
▁accom	-2639
▁corre	-2640
▁eight	-2641
▁exerc	-2642
▁fault	-2643
▁hands	-2644
▁haven	-2645
▁human	-2646
▁lunch	-2647
▁offer	-2648
▁pleas	-2649
▁takes	-2650
▁trans	-2651
▁behind	-2652
▁closed	-2653
▁econom	-2654
▁prefer	-2655
▁rather	-2656
▁report	-2657
▁wanted	-2658
iversity	-2659
▁efforts	-2660
▁respect	-2661
▁started	-2662
▁careless	-2663
▁distance	-2664
▁happened	-2665
▁homework	-2666
▁together	-2667
▁television	-2668
▁university	-2669
▁interesting	-2670
ef	-2671
gr	-2672
ze	-2673
▁保	-2674
▁勇	-2675
▁参	-2676
▁味	-2677
▁四	-2678
▁容	-2679
▁患	-2680
▁押	-2681
▁援	-2682
▁暑	-2683
▁果	-2684
▁止	-2685
▁汚	-2686
▁浮	-2687
▁準	-2688
▁疑	-2689
▁禁	-2690
▁移	-2691
▁第	-2692
▁脱	-2693
▁観	-2694
▁郵	-2695
こう	-2696
へん	-2697
ゆる	-2698
メラ	-2699
ルフ	-2700
統領	-2701
cap	-2702
emp	-2703
ike	-2704
oto	-2705
ule	-2706
ump	-2707
usb	-2708
uss	-2709
▁かわ	-2710
▁しば	-2711
▁わが	-2712
▁スポ	-2713
▁ラジ	-2714
▁不足	-2715
▁交通	-2716
▁場所	-2717
▁大切	-2718
▁実行	-2719
▁患者	-2720
▁慣れ	-2721
▁援助	-2722
▁来週	-2723
▁準備	-2724
▁滞在	-2725
▁現れ	-2726
▁病院	-2727
▁簡単	-2728
▁自慢	-2729
▁自転	-2730
▁覚え	-2731
ayed	-2732
dden	-2733
fast	-2734
land	-2735
ming	-2736
most	-2737
pect	-2738
vern	-2739
▁aut	-2740
▁cur	-2741
▁dem	-2742
▁dou	-2743
▁hol	-2744
▁jim	-2745
▁しゃべ	-2746
▁カメラ	-2747
▁クラブ	-2748
▁大統領	-2749
▁思い出	-2750
apers	-2751
aster	-2752
ction	-2753
▁cent	-2754
▁coup	-2755
▁hair	-2756
▁husb	-2757
▁mach	-2758
▁move	-2759
▁send	-2760
▁たいへん	-2761
▁スポーツ	-2762
selves	-2763
▁above	-2764
▁anger	-2765
▁apart	-2766
▁chang	-2767
▁check	-2768
▁contr	-2769
▁glass	-2770
▁point	-2771
▁press	-2772
▁radio	-2773
▁storm	-2774
▁tears	-2775
▁whole	-2776
▁ありがとう	-2777
▁almost	-2778
▁become	-2779
▁borrow	-2780
▁chance	-2781
▁govern	-2782
▁necess	-2783
▁sudden	-2784
▁certain	-2785
▁correct	-2786
▁herself	-2787
▁husband	-2788
▁illness	-2789
▁popular	-2790
▁studied	-2791
▁village	-2792
▁visited	-2793
▁working	-2794
▁hospital	-2795
▁mountain	-2796
▁problems	-2797
▁returned	-2798
▁attention	-2799
▁breakfast	-2800
▁character	-2801
▁condition	-2802
▁difficulty	-2803
br	-2804
bt	-2805
▁修	-2806
▁具	-2807
▁冊	-2808
▁品	-2809
▁士	-2810
▁婦	-2811
▁存	-2812
▁専	-2813
▁延	-2814
▁弁	-2815
▁御	-2816
▁放	-2817
▁晴	-2818
▁活	-2819
▁涙	-2820
▁甘	-2821
▁破	-2822
▁科	-2823
▁穴	-2824
▁等	-2825
▁論	-2826
▁賢	-2827
▁騒	-2828
▁鳴	-2829
とえ	-2830
ョン	-2831
ース	-2832
捨て	-2833
込み	-2834
eng	-2835
gar	-2836
ior	-2837
lew	-2838
lla	-2839
loy	-2840
ote	-2841
rib	-2842
rod	-2843
ues	-2844
ush	-2845
▁ky	-2846
▁os	-2847
▁pa	-2848
▁かし	-2849
▁乗り	-2850
▁借り	-2851
▁全部	-2852
▁到着	-2853
▁午後	-2854
▁叔父	-2855
▁地球	-2856
▁場合	-2857
▁変わ	-2858
▁夕食	-2859
▁将来	-2860
▁年間	-2861
▁幸福	-2862
▁建物	-2863
▁忠告	-2864
▁機械	-2865
▁秘密	-2866
▁経済	-2867
▁習慣	-2868
▁行為	-2869
▁訪問	-2870
▁説得	-2871
▁読書	-2872
▁貧し	-2873
▁返事	-2874
▁途中	-2875
▁遅刻	-2876
▁郵便	-2877
っぱい	-2878
ーター	-2879
arch	-2880
iled	-2881
imes	-2882
ully	-2883
▁bag	-2884
▁cry	-2885
▁div	-2886
▁hor	-2887
▁jud	-2888
▁loc	-2889
▁mag	-2890
▁ord	-2891
▁pic	-2892
▁sci	-2893
▁sil	-2894
▁sus	-2895
▁かなり	-2896
▁たとえ	-2897
▁ドレス	-2898
▁ラジオ	-2899
ances	-2900
icine	-2901
ience	-2902
ortun	-2903
where	-2904
▁bird	-2905
▁blue	-2906
▁cake	-2907
▁date	-2908
▁gets	-2909
▁hurt	-2910
▁mail	-2911
▁pick	-2912
▁ship	-2913
▁situ	-2914
▁trip	-2915
▁view	-2916
▁いっぱい	-2917
▁allow	-2918
▁among	-2919
▁bound	-2920
▁const	-2921
▁escap	-2922
▁famil	-2923
▁least	-2924
▁smoke	-2925
▁women	-2926
▁amount	-2927
▁camera	-2928
▁couple	-2929
▁failed	-2930
▁hardly	-2931
▁killed	-2932
▁longer	-2933
▁middle	-2934
▁satisf	-2935
▁saying	-2936
▁thanks	-2937
▁twenty	-2938
▁waited	-2939
▁flowers	-2940
▁members	-2941
▁product	-2942
▁respons	-2943
▁support	-2944
▁written	-2945
▁american	-2946
▁medicine	-2947
▁standing	-2948
ob	-2949
uk	-2950
▁:	-2951
▁グ	-2952
▁ヨ	-2953
▁京	-2954
▁件	-2955
▁傘	-2956
▁冷	-2957
▁労	-2958
▁勤	-2959
▁売	-2960
▁姿	-2961
▁嵐	-2962
▁工	-2963
▁帽	-2964
▁招	-2965
▁殺	-2966
▁氏	-2967
▁渡	-2968
▁牛	-2969
▁田	-2970
▁石	-2971
▁精	-2972
▁色	-2973
▁荷	-2974
▁誇	-2975
▁賞	-2976
▁軍	-2977
▁追	-2978
▁退	-2979
▁首	-2980
▁髪	-2981
さし	-2982
てい	-2983
らめ	-2984
ッド	-2985
got	-2986
ids	-2987
ier	-2988
ilt	-2989
irt	-2990
nic	-2991
rap	-2992
uce	-2993
unt	-2994
▁er	-2995
▁ra	-2996
▁うそ	-2997
▁お前	-2998
▁ジム	-2999
▁二人	-3000
▁京都	-3001
▁今晩	-3002
▁収入	-3003
▁国民	-3004
▁始ま	-3005
▁完全	-3006
▁帽子	-3007
▁支払	-3008
▁昼食	-3009
▁朝食	-3010
▁残念	-3011
▁気づ	-3012
▁浮か	-3013
▁発見	-3014
▁相手	-3015
▁自身	-3016
▁調べ	-3017
▁遠く	-3018
▁選手	-3019
▁都市	-3020
ずかし	-3021
ケット	-3022
ager	-3023
dred	-3024
ises	-3025
mbre	-3026
▁arg	-3027
▁arm	-3028
▁bar	-3029
▁chr	-3030
▁def	-3031
▁dev	-3032
▁eye	-3033
▁nar	-3034
▁occ	-3035
▁pri	-3036
▁sea	-3037
▁sim	-3038
▁かわい	-3039
▁やさし	-3040
▁コート	-3041
ality	-3042
ciate	-3043
fully	-3044
velop	-3045
▁aren	-3046
▁bicy	-3047
▁blow	-3048
▁born	-3049
▁cars	-3050
▁crit	-3051
▁educ	-3052
▁else	-3053
▁fair	-3054
▁fort	-3055
▁half	-3056
▁hole	-3057
▁line	-3058
▁main	-3059
▁quar	-3060
▁self	-3061
▁serv	-3062
▁sold	-3063
▁tour	-3064
▁はっきり	-3065
itting	-3066
▁breat	-3067
▁climb	-3068
▁close	-3069
▁grand	-3070
▁hurry	-3071
▁keeps	-3072
▁kyoto	-3073
▁movie	-3074
▁newsp	-3075
▁paint	-3076
▁proud	-3077
▁seven	-3078
▁umbre	-3079
intment	-3080
ulation	-3081
▁course	-3082
▁object	-3083
▁singer	-3084
▁sports	-3085
▁states	-3086
▁careful	-3087
▁carried	-3088
▁committ	-3089
▁develop	-3090
▁feeling	-3091
▁finally	-3092
▁hundred	-3093
▁pleased	-3094
▁promise	-3095
▁reached	-3096
▁serious	-3097
▁waiting	-3098
▁writing	-3099
▁mistakes	-3100
▁umbrella	-3101
▁vacation	-3102
▁situation	-3103
▁sometimes	-3104
▁succeeded	-3105
▁surprised	-3106
gn	-3107
ik	-3108
▁ぜ	-3109
▁ナ	-3110
▁判	-3111
▁劇	-3112
▁単	-3113
▁召	-3114
▁員	-3115
▁委	-3116
▁娘	-3117
▁居	-3118
▁届	-3119
▁弾	-3120
▁技	-3121
▁抜	-3122
▁抱	-3123
▁構	-3124
▁橋	-3125
▁比	-3126
▁泥	-3127
▁爆	-3128
▁片	-3129
▁産	-3130
▁短	-3131
▁祖	-3132
▁競	-3133
▁紹	-3134
▁給	-3135
▁芸	-3136
▁認	-3137
▁適	-3138
▁釣	-3139
▁隠	-3140
▁静	-3141
▁頂	-3142
▁魅	-3143
かげ	-3144
じめ	-3145
すま	-3146
やか	-3147
イズ	-3148
カー	-3149
ニー	-3150
ライ	-3151
ama	-3152
ces	-3153
eas	-3154
ged	-3155
old	-3156
▁2、	-3157
▁mt	-3158
▁おそ	-3159
▁ござ	-3160
▁せい	-3161
▁まさ	-3162
▁まる	-3163
▁アイ	-3164
▁テー	-3165
▁パン	-3166
▁事件	-3167
▁事業	-3168
▁今度	-3169
▁仲間	-3170
▁休暇	-3171
▁住所	-3172
▁具合	-3173
▁切れ	-3174
▁合格	-3175
▁同意	-3176
▁変え	-3177
▁婦人	-3178
▁嫌い	-3179
▁感じ	-3180
▁招待	-3181
▁教会	-3182
▁教育	-3183
▁数学	-3184
▁暮ら	-3185
▁最後	-3186
▁次第	-3187
▁正確	-3188
▁決心	-3189
▁流行	-3190
▁演説	-3191
▁用意	-3192
▁留学	-3193
▁目的	-3194
▁科学	-3195
▁突然	-3196
▁紹介	-3197
▁若者	-3198
▁荷物	-3199
▁行け	-3200
▁言い	-3201
▁話せ	-3202
▁買い	-3203
▁買え	-3204
すます	-3205
合わせ	-3206
cell	-3207
ency	-3208
ific	-3209
noon	-3210
port	-3211
pped	-3212
unic	-3213
urch	-3214
yond	-3215
▁bes	-3216
▁dam	-3217
▁est	-3218
▁ger	-3219
▁har	-3220
▁pie	-3221
▁spr	-3222
▁top	-3223
▁あたり	-3224
▁かしら	-3225
▁きっと	-3226
▁ひとり	-3227
▁よろし	-3228
▁ピアノ	-3229
▁代わり	-3230
ature	-3231
ended	-3232
▁boss	-3233
▁bott	-3234
▁brid	-3235
▁cost	-3236
▁grad	-3237
▁jane	-3238
▁knew	-3239
▁land	-3240
▁mill	-3241
▁past	-3242
▁prof	-3243
▁rock	-3244
▁seas	-3245
▁seat	-3246
▁seem	-3247
▁sett	-3248
▁till	-3249
▁upon	-3250
▁wise	-3251
▁たいてい	-3252
▁ますます	-3253
▁テーブル	-3254
▁恥ずかし	-3255
ceived	-3256
▁behav	-3257
▁bring	-3258
▁burst	-3259
▁chair	-3260
▁crowd	-3261
▁holid	-3262
▁piano	-3263
▁worth	-3264
▁absent	-3265
▁attemp	-3266
▁beyond	-3267
▁broken	-3268
▁employ	-3269
▁figure	-3270
▁income	-3271
▁introd	-3272
▁itself	-3273
▁nation	-3274
▁pretty	-3275
▁result	-3276
▁second	-3277
▁showed	-3278
▁stayed	-3279
▁temper	-3280
▁ticket	-3281
▁walked	-3282
▁ability	-3283
▁anxious	-3284
▁anybody	-3285
▁bicycle	-3286
▁convers	-3287
▁machine	-3288
▁purpose	-3289
▁exercise	-3290
▁feelings	-3291
▁kindness	-3292
▁shopping	-3293
▁watching	-3294
▁afternoon	-3295
▁committee	-3296
▁questions	-3297
▁wonderful	-3298
▁completely	-3299
▁government	-3300
▁impossible	-3301
▁appointment	-3302
▁information	-3303
▁conversation	-3304
co	-3305
▁%	-3306
▁*	-3307
▁ノ	-3308
▁リ	-3309
▁ル	-3310
▁個	-3311
▁偉	-3312
▁冗	-3313
▁冬	-3314
▁効	-3315
▁卒	-3316
▁厳	-3317
▁右	-3318
▁奴	-3319
▁寄	-3320
▁席	-3321
▁影	-3322
▁捕	-3323
▁普	-3324
▁未	-3325
▁権	-3326
▁王	-3327
▁画	-3328
▁盗	-3329
▁耐	-3330
▁育	-3331
▁腕	-3332
▁薬	-3333
▁趣	-3334
▁農	-3335
▁隣	-3336
▁骨	-3337
ずか	-3338
っち	-3339
づけ	-3340
でに	-3341
ばん	-3342
まえ	-3343
イツ	-3344
タイ	-3345
ンジ	-3346
ンス	-3347
越え	-3348
bit	-3349
che	-3350
iar	-3351
iet	-3352
oko	-3353
▁50	-3354
▁oh	-3355
▁あき	-3356
▁いろ	-3357
▁いわ	-3358
▁こう	-3359
▁さら	-3360
▁たが	-3361
▁とう	-3362
▁ほん	-3363
▁わざ	-3364
▁チェ	-3365
▁ボブ	-3366
▁一杯	-3367
▁上司	-3368
▁人口	-3369
▁付き	-3370
▁休み	-3371
▁会え	-3372
▁伝え	-3373
▁余地	-3374
▁作文	-3375
▁便り	-3376
▁全員	-3377
▁冗談	-3378
▁卒業	-3379
▁去年	-3380
▁参加	-3381
▁向け	-3382
▁地震	-3383
▁大阪	-3384
▁委員	-3385
▁存在	-3386
▁少な	-3387
▁年齢	-3388
▁弁護	-3389
▁後悔	-3390
▁悲し	-3391
▁政府	-3392
▁時々	-3393
▁曲が	-3394
▁最善	-3395
▁最高	-3396
▁案内	-3397
▁歌手	-3398
▁法律	-3399
▁海外	-3400
▁父親	-3401
▁男性	-3402
▁真実	-3403
▁砂糖	-3404
▁芸術	-3405
▁誇り	-3406
▁認め	-3407
▁調子	-3408
▁警官	-3409
▁道路	-3410
▁面白	-3411
▁飛び	-3412
ション	-3413
ポート	-3414
ーンズ	-3415
ably	-3416
ghed	-3417
ider	-3418
ides	-3419
inal	-3420
ling	-3421
ower	-3422
reas	-3423
rest	-3424
room	-3425
side	-3426
ster	-3427
uted	-3428
▁ash	-3429
▁bob	-3430
▁cal	-3431
▁due	-3432
▁eur	-3433
▁fif	-3434
▁fil	-3435
▁flu	-3436
▁gas	-3437
▁gre	-3438
▁inj	-3439
▁key	-3440
▁pun	-3441
▁tal	-3442
▁tot	-3443
▁こちら	-3444
▁ちがい	-3445
▁ドイツ	-3446
▁マイル	-3447
▁向こう	-3448
ately	-3449
ative	-3450
ising	-3451
ments	-3452
othes	-3453
▁area	-3454
▁aunt	-3455
▁chin	-3456
▁earn	-3457
▁fear	-3458
▁form	-3459
▁gold	-3460
▁hist	-3461
▁jack	-3462
▁lady	-3463
▁lose	-3464
▁luck	-3465
▁meal	-3466
▁nine	-3467
▁none	-3468
▁rice	-3469
▁shin	-3470
▁suff	-3471
▁おもしろ	-3472
▁appre	-3473
▁birth	-3474
▁black	-3475
▁built	-3476
▁compu	-3477
▁elect	-3478
▁group	-3479
▁jones	-3480
▁later	-3481
▁osaka	-3482
▁spent	-3483
▁sugar	-3484
▁sweet	-3485
▁teach	-3486
▁works	-3487
▁wrote	-3488
cellent	-3489
▁anyone	-3490
▁apolog	-3491
▁church	-3492
▁depart	-3493
▁disapp	-3494
▁europe	-3495
▁german	-3496
▁invest	-3497
▁island	-3498
▁market	-3499
▁notice	-3500
▁papers	-3501
▁partic	-3502
▁passed	-3503
▁player	-3504
▁seemed	-3505
▁tastes	-3506
▁though	-3507
▁united	-3508
▁advance	-3509
▁clothes	-3510
▁cooking	-3511
▁earthqu	-3512
▁failure	-3513
▁leaving	-3514
▁natural	-3515
▁patient	-3516
▁request	-3517
▁results	-3518
▁special	-3519
▁telling	-3520
▁behavior	-3521
▁believed	-3522
▁consider	-3523
▁language	-3524
▁recently	-3525
▁thinking	-3526
▁whatever	-3527
▁education	-3528
▁excellent	-3529
▁expensive	-3530
▁experience	-3531
▁composition	-3532
ey	-3533
▁ざ	-3534
▁ゲ	-3535
▁ソ	-3536
▁ヶ	-3537
▁互	-3538
▁任	-3539
▁倒	-3540
▁傾	-3541
▁共	-3542
▁制	-3543
▁化	-3544
▁北	-3545
▁協	-3546
▁固	-3547
▁基	-3548
▁塗	-3549
▁壊	-3550
▁奇	-3551
▁奪	-3552
▁定	-3553
▁尋	-3554
▁就	-3555
▁島	-3556
▁左	-3557
▁怪	-3558
▁愚	-3559
▁捜	-3560
▁暇	-3561
▁枚	-3562
▁歴	-3563
▁永	-3564
▁治	-3565
▁燃	-3566
▁率	-3567
▁秋	-3568
▁紅	-3569
▁組	-3570
▁肉	-3571
▁腹	-3572
▁航	-3573
▁襲	-3574
▁視	-3575
▁診	-3576
▁証	-3577
▁講	-3578
▁貯	-3579
▁贈	-3580
▁輝	-3581
▁配	-3582
▁鉄	-3583
▁門	-3584
▁順	-3585
▁駐	-3586
そう	-3587
たら	-3588
なし	-3589
れし	-3590
キー	-3591
クニ	-3592
ソン	-3593
ディ	-3594
ネル	-3595
立て	-3596
eal	-3597
ery	-3598
hem	-3599
mon	-3600
oor	-3601
per	-3602
ral	-3603
ror	-3604
ued	-3605
umn	-3606
way	-3607
▁sy	-3608
▁あれ	-3609
▁おじ	-3610
▁たり	-3611
▁だめ	-3612
▁ちゃ	-3613
▁つか	-3614
▁オー	-3615
▁ケン	-3616
▁シャ	-3617
▁スト	-3618
▁パリ	-3619
▁ヨー	-3620
▁世話	-3621
▁中止	-3622
▁主張	-3623
▁互い	-3624
▁以外	-3625
▁会話	-3626
▁作家	-3627
▁値段	-3628
▁全然	-3629
▁判断	-3630
▁労働	-3631
▁勇気	-3632
▁商売	-3633
▁地図	-3634
▁変更	-3635
▁外出	-3636
▁大勢	-3637
▁実際	-3638
▁容易	-3639
▁富士	-3640
▁工場	-3641
▁当て	-3642
▁怒り	-3643
▁情報	-3644
▁成長	-3645
▁才能	-3646
▁捨て	-3647
▁提出	-3648
▁明る	-3649
▁昨年	-3650
▁晴れ	-3651
▁書き	-3652
▁月曜	-3653
▁欠点	-3654
▁歴史	-3655
▁無駄	-3656
▁特に	-3657
▁現在	-3658
▁理論	-3659
▁知り	-3660
▁空気	-3661
▁耐え	-3662
▁自動	-3663
▁行き	-3664
▁製品	-3665
▁要求	-3666
▁見つ	-3667
▁規則	-3668
▁記者	-3669
▁訪ね	-3670
▁調査	-3671
▁赤ち	-3672
▁過ご	-3673
▁閉め	-3674
▁関心	-3675
▁降り	-3676
▁集め	-3677
▁面倒	-3678
▁駐車	-3679
▁高校	-3680
っしゃ	-3681
サート	-3682
ピュー	-3683
晴らし	-3684
augh	-3685
ches	-3686
erve	-3687
fect	-3688
gram	-3689
hood	-3690
imed	-3691
ines	-3692
ison	-3693
oned	-3694
osal	-3695
raph	-3696
tern	-3697
ying	-3698
▁2、3	-3699
▁arr	-3700
▁bas	-3701
▁bat	-3702
▁equ	-3703
▁fix	-3704
▁fly	-3705
▁fur	-3706
▁god	-3707
▁hop	-3708
▁ign	-3709
▁inf	-3710
▁joy	-3711
▁map	-3712
▁mur	-3713
▁nor	-3714
▁rid	-3715
▁rob	-3716
▁rul	-3717
▁sad	-3718
▁var	-3719
▁うれし	-3720
▁おかげ	-3721
▁かかわ	-3722
▁ぐらい	-3723
▁とおり	-3724
▁まるで	-3725
▁むしろ	-3726
▁わずか	-3727
▁ピクニ	-3728
▁ページ	-3729
▁合わせ	-3730
▁手伝い	-3731
▁明らか	-3732
▁申し出	-3733
▁買い物	-3734
▁間違え	-3735
ament	-3736
anced	-3737
ering	-3738
ffect	-3739
igent	-3740
inted	-3741
itted	-3742
ledge	-3743
riage	-3744
ution	-3745
▁bear	-3746
▁card	-3747
▁dest	-3748
▁fash	-3749
▁fuji	-3750
▁gate	-3751
▁grew	-3752
▁incl	-3753
▁king	-3754
▁scen	-3755
▁soup	-3756
▁span	-3757
▁step	-3758
▁wine	-3759
▁あらゆる	-3760
▁すっかり	-3761
▁ジェーン	-3762
▁赤ちゃん	-3763
ピューター	-3764
entist	-3765
▁alive	-3766
▁appro	-3767
▁birds	-3768
▁cause	-3769
▁daugh	-3770
▁doubt	-3771
▁enter	-3772
▁fight	-3773
▁guess	-3774
▁guest	-3775
▁moder	-3776
▁paris	-3777
▁persu	-3778
▁prize	-3779
▁solve	-3780
▁state	-3781
▁stone	-3782
▁worry	-3783
▁worse	-3784
▁コンサート	-3785
▁ジョーンズ	-3786
▁ピクニック	-3787
▁beauty	-3788
▁bridge	-3789
▁bright	-3790
▁christ	-3791
▁deeply	-3792
▁direct	-3793
▁effect	-3794
▁either	-3795
▁excuse	-3796
▁france	-3797
▁helped	-3798
▁nature	-3799
▁opened	-3800
▁reason	-3801
▁reserv	-3802
▁theory	-3803
▁thinks	-3804
▁winter	-3805
▁within	-3806
▁driving	-3807
▁fishing	-3808
▁letters	-3809
▁perform	-3810
▁raining	-3811
▁singing	-3812
▁staying	-3813
▁stories	-3814
▁watched	-3815
▁コンピューター	-3816
▁communic	-3817
▁expected	-3818
▁position	-3819
▁practice	-3820
▁proposal	-3821
▁supposed	-3822
▁surprise	-3823
▁generally	-3824
▁gentleman	-3825
▁necessary	-3826
▁difference	-3827
▁themselves	-3828
cy	-3829
dy	-3830
gy	-3831
ra	-3832
▁-	-3833
▁モ	-3834
▁例	-3835
▁停	-3836
▁側	-3837
▁傷	-3838
▁刺	-3839
▁加	-3840
▁劣	-3841
▁各	-3842
▁唯	-3843
▁嘘	-3844
▁団	-3845
▁塩	-3846
▁嬉	-3847
▁局	-3848
▁希	-3849
▁床	-3850
▁廃	-3851
▁応	-3852
▁掃	-3853
▁推	-3854
▁握	-3855
▁景	-3856
▁民	-3857
▁混	-3858
▁温	-3859
▁激	-3860
▁犠	-3861
▁礼	-3862
▁税	-3863
▁紳	-3864
▁線	-3865
▁聴	-3866
▁肩	-3867
▁能	-3868
▁葉	-3869
▁街	-3870
▁裏	-3871
▁評	-3872
▁詳	-3873
▁誘	-3874
▁諸	-3875
▁豊	-3876
▁距	-3877
▁迎	-3878
▁述	-3879
▁逆	-3880
▁鍵	-3881
▁際	-3882
▁雑	-3883
▁飼	-3884
▁黙	-3885
した	-3886
どき	-3887
ぶん	-3888
まし	-3889
イド	-3890
ッパ	-3891
テン	-3892
ルク	-3893
レー	-3894
ーズ	-3895
apt	-3896
cum	-3897
ead	-3898
hod	-3899
ots	-3900
ric	-3901
ron	-3902
sit	-3903
uit	-3904
▁..	-3905
▁13	-3906
▁18	-3907
▁av	-3908
▁ce	-3909
▁ok	-3910
▁いや	-3911
▁かれ	-3912
▁きみ	-3913
▁けん	-3914
▁ざる	-3915
▁しも	-3916
▁すご	-3917
▁そば	-3918
▁つき	-3919
▁なか	-3920
▁イギ	-3921
▁カー	-3922
▁スペ	-3923
▁タク	-3924
▁ダイ	-3925
▁ヶ月	-3926
▁不安	-3927
▁事務	-3928
▁事態	-3929
▁似合	-3930
▁修理	-3931
▁偉大	-3932
▁先月	-3933
▁再び	-3934
▁助言	-3935
▁勝利	-3936
▁原因	-3937
▁叔母	-3938
▁召し	-3939
▁吹き	-3940
▁周り	-3941
▁変化	-3942
▁大人	-3943
▁嬉し	-3944
▁尋ね	-3945
▁幸運	-3946
▁建て	-3947
▁影響	-3948
▁得意	-3949
▁思え	-3950
▁恐れ	-3951
▁打ち	-3952
▁技術	-3953
▁押し	-3954
▁文化	-3955
▁昨夜	-3956
▁機会	-3957
▁歩け	-3958
▁活動	-3959
▁流れ	-3960
▁消え	-3961
▁無理	-3962
▁犠牲	-3963
▁番号	-3964
▁社会	-3965
▁禁止	-3966
▁空港	-3967
▁紳士	-3968
▁経営	-3969
▁聞き	-3970
▁能力	-3971
▁興奮	-3972
▁苦労	-3973
▁落と	-3974
▁観光	-3975
▁財布	-3976
▁距離	-3977
▁迎え	-3978
▁述べ	-3979
▁離れ	-3980
▁飲み	-3981
▁魅力	-3982
ッカー	-3983
パート	-3984
ロッパ	-3985
ートル	-3986
ancy	-3987
ened	-3988
ires	-3989
ldom	-3990
lied	-3991
miss	-3992
over	-3993
ract	-3994
reed	-3995
ruct	-3996
tain	-3997
▁...	-3998
▁amb	-3999
▁cir	-4000
▁cop	-4001
▁dut	-4002
▁mot	-4003
▁pet	-4004
▁ris	-4005
▁rum	-4006
▁saf	-4007
▁tow	-4008
▁tur	-4009
▁あいつ	-4010
▁いった	-4011
▁しかし	-4012
▁しばし	-4013
▁すでに	-4014
▁ちゃん	-4015
▁ついに	-4016
▁まさに	-4017
▁めった	-4018
▁キャン	-4019
▁クリス	-4020
▁シャツ	-4021
▁ボール	-4022
▁ワイン	-4023
▁受け取	-4024
▁大いに	-4025
anded	-4026
brary	-4027
ences	-4028
ggest	-4029
ocked	-4030
olute	-4031
oming	-4032
orter	-4033
uthor	-4034
▁alth	-4035
▁bell	-4036
▁bite	-4037
▁camp	-4038
▁cult	-4039
▁fill	-4040
▁hung	-4041
▁moon	-4042
▁phys	-4043
▁poet	-4044
▁prob	-4045
▁rese	-4046
▁runs	-4047
▁safe	-4048
▁salt	-4049
▁spir	-4050
▁suit	-4051
▁taxi	-4052
▁thin	-4053
▁tong	-4054
▁vers	-4055
▁wood	-4056
▁あきらめ	-4057
▁おそらく	-4058
▁ゆっくり	-4059
▁イギリス	-4060
▁タクシー	-4061
ateful	-4062
idence	-4063
ograph	-4064
▁below	-4065
▁blame	-4066
▁board	-4067
▁compl	-4068
▁exact	-4069
▁fruit	-4070
▁gradu	-4071
▁habit	-4072
▁hesit	-4073
▁horse	-4074
▁learn	-4075
▁liked	-4076
▁match	-4077
▁needs	-4078
▁plane	-4079
▁plays	-4080
▁price	-4081
▁quiet	-4082
▁rules	-4083
▁smell	-4084
▁trees	-4085
▁trick	-4086
▁twice	-4087
▁waste	-4088
▁yield	-4089
▁yours	-4090
▁ヨーロッパ	-4091
ibility	-4092
▁arrive	-4093
▁author	-4094
▁autumn	-4095
▁breath	-4096
▁clever	-4097
▁concer	-4098
▁corner	-4099
▁critic	-4100
▁detect	-4101
▁driver	-4102
▁eleven	-4103
▁engine	-4104
▁entire	-4105
▁faults	-4106
▁forgot	-4107
▁giving	-4108
▁method	-4109
▁minute	-4110
▁monday	-4111
▁picnic	-4112
▁played	-4113
▁prices	-4114
▁quarre	-4115
▁regret	-4116
▁remind	-4117
▁seldom	-4118
▁sooner	-4119
▁stands	-4120
▁taught	-4121
▁trains	-4122
▁airport	-4123
▁animals	-4124
▁ashamed	-4125
▁brought	-4126
▁concert	-4127
▁discuss	-4128
▁enjoyed	-4129
▁example	-4130
▁express	-4131
▁finding	-4132
▁hearing	-4133
▁history	-4134
▁impress	-4135
▁injured	-4136
▁instead	-4137
▁laughed	-4138
▁library	-4139
▁mention	-4140
▁ordered	-4141
▁quality	-4142
▁reasons	-4143
▁sitting	-4144
▁stopped	-4145
▁studies	-4146
▁suggest	-4147
▁walking	-4148
▁absolute	-4149
▁although	-4150
▁ambition	-4151
▁daughter	-4152
▁drinking	-4153
▁familiar	-4154
▁laughing	-4155
▁suddenly	-4156
▁swimming	-4157
▁knowledge	-4158
▁newspaper	-4159
▁relations	-4160
▁population	-4161
ex	-4162
ug	-4163
▁z	-4164
▁ギ	-4165
▁ヘ	-4166
▁並	-4167
▁亡	-4168
▁低	-4169
▁倍	-4170
▁偶	-4171
▁喫	-4172
▁図	-4173
▁官	-4174
▁宝	-4175
▁弱	-4176
▁形	-4177
▁快	-4178
▁戸	-4179
▁批	-4180
▁接	-4181
▁描	-4182
▁損	-4183
▁改	-4184
▁旨	-4185
▁昇	-4186
▁歓	-4187
▁沈	-4188
▁泊	-4189
▁減	-4190
▁焼	-4191
▁環	-4192
▁眺	-4193
▁磨	-4194
▁米	-4195
▁紙	-4196
▁芝	-4197
▁角	-4198
▁課	-4199
▁踊	-4200
▁踏	-4201
▁輸	-4202
▁避	-4203
▁頑	-4204
▁養	-4205
▁黒	-4206
いろ	-4207
かか	-4208
かく	-4209
くな	-4210
なか	-4211
り物	-4212
り返	-4213
んご	-4214
イオ	-4215
ジア	-4216
ッチ	-4217
バー	-4218
ロン	-4219
eth	-4220
ift	-4221
ins	-4222
iol	-4223
ocr	-4224
oof	-4225
pan	-4226
ril	-4227
ton	-4228
ury	-4229
yer	-4230
▁40	-4231
▁ma	-4232
▁ur	-4233
▁いま	-4234
▁うわ	-4235
▁そろ	-4236
▁たび	-4237
▁つく	-4238
▁なに	-4239
▁ほか	-4240
▁まし	-4241
▁やり	-4242
▁アル	-4243
▁アン	-4244
▁ステ	-4245
▁ディ	-4246
▁プロ	-4247
▁ベン	-4248
▁ホワ	-4249
▁ロー	-4250
▁一体	-4251
▁一般	-4252
▁万一	-4253
▁上着	-4254
▁中国	-4255
▁人形	-4256
▁人類	-4257
▁借金	-4258
▁偶然	-4259
▁優し	-4260
▁全体	-4261
▁出会	-4262
▁切手	-4263
▁別れ	-4264
▁博物	-4265
▁台風	-4266
▁唯一	-4267
▁喜び	-4268
▁図書	-4269
▁地方	-4270
▁大声	-4271
▁天候	-4272
▁失礼	-4273
▁安全	-4274
▁屋根	-4275
▁希望	-4276
▁帰宅	-4277
▁延期	-4278
▁引っ	-4279
▁後ろ	-4280
▁性格	-4281
▁我が	-4282
▁掃除	-4283
▁故障	-4284
▁最大	-4285
▁果た	-4286
▁次々	-4287
▁止め	-4288
▁泥棒	-4289
▁泳げ	-4290
▁洗濯	-4291
▁激し	-4292
▁火事	-4293
▁燃え	-4294
▁環境	-4295
▁留守	-4296
▁異な	-4297
▁眺め	-4298
▁確か	-4299
▁社長	-4300
▁種類	-4301
▁立派	-4302
▁給料	-4303
▁絶対	-4304
▁見送	-4305
▁議論	-4306
▁貴重	-4307
▁趣味	-4308
▁遠慮	-4309
▁釣り	-4310
▁長年	-4311
▁静か	-4312
▁騒音	-4313
っしょ	-4314
ストラ	-4315
ator	-4316
ergy	-4317
fort	-4318
irty	-4319
omed	-4320
oses	-4321
ript	-4322
ship	-4323
▁adj	-4324
▁aud	-4325
▁avo	-4326
▁cho	-4327
▁die	-4328
▁egg	-4329
▁env	-4330
▁ess	-4331
▁fat	-4332
▁ice	-4333
▁imm	-4334
▁inn	-4335
▁lat	-4336
▁mis	-4337
▁ner	-4338
▁obs	-4339
▁pot	-4340
▁rev	-4341
▁tie	-4342
▁けんか	-4343
▁さらに	-4344
▁りんご	-4345
▁コップ	-4346
▁ペット	-4347
▁マイク	-4348
▁贈り物	-4349
anted	-4350
asion	-4351
eared	-4352
elled	-4353
ggage	-4354
iling	-4355
inate	-4356
isted	-4357
osing	-4358
under	-4359
useum	-4360
vered	-4361
▁acqu	-4362
▁affe	-4363
▁arms	-4364
▁aust	-4365
▁bath	-4366
▁blew	-4367
▁conv	-4368
▁dish	-4369
▁duty	-4370
▁exch	-4371
▁feed	-4372
▁fing	-4373
▁fond	-4374
▁joke	-4375
▁kick	-4376
▁laid	-4377
▁lies	-4378
▁loss	-4379
▁math	-4380
▁meat	-4381
▁mike	-4382
▁plac	-4383
▁poem	-4384
▁poss	-4385
▁prin	-4386
▁rare	-4387
▁rate	-4388
▁ring	-4389
▁risk	-4390
▁shut	-4391
▁size	-4392
▁soci	-4393
▁typh	-4394
▁vict	-4395
▁wear	-4396
▁wide	-4397
▁いっしょ	-4398
▁いろいろ	-4399
▁がっかり	-4400
▁しばしば	-4401
▁びっくり	-4402
▁ホワイト	-4403
▁レポート	-4404
▁素晴らし	-4405
ainted	-4406
ecture	-4407
father	-4408
▁apple	-4409
▁badly	-4410
▁bread	-4411
▁clock	-4412
▁dirty	-4413
▁ended	-4414
▁exist	-4415
▁field	-4416
▁fifty	-4417
▁floor	-4418
▁goods	-4419
▁ideas	-4420
▁judge	-4421
▁labor	-4422
▁magaz	-4423
▁marry	-4424
▁older	-4425
▁piece	-4426
▁plans	-4427
▁pound	-4428
▁rains	-4429
▁reach	-4430
▁sales	-4431
▁share	-4432
▁shirt	-4433
▁spoke	-4434
▁stamp	-4435
▁talks	-4436
▁terms	-4437
▁third	-4438
▁value	-4439
▁worst	-4440
anation	-4441
▁accord	-4442
▁affair	-4443
▁belong	-4444
▁charge	-4445
▁damage	-4446
▁except	-4447
▁flight	-4448
▁flying	-4449
▁ground	-4450
▁harder	-4451
▁leader	-4452
▁lesson	-4453
▁master	-4454
▁museum	-4455
▁myster	-4456
▁plenty	-4457
▁proper	-4458
▁record	-4459
▁safety	-4460
▁single	-4461
▁speaks	-4462
▁spread	-4463
▁spring	-4464
▁struck	-4465
▁talked	-4466
▁tongue	-4467
▁wealth	-4468
▁weight	-4469
▁wouldn	-4470
▁writer	-4471
▁changed	-4472
▁conduct	-4473
▁covered	-4474
▁england	-4475
▁escaped	-4476
▁factory	-4477
▁fashion	-4478
▁holiday	-4479
▁however	-4480
▁profess	-4481
▁program	-4482
▁regular	-4483
▁reserve	-4484
▁science	-4485
▁settled	-4486
▁treated	-4487
▁workers	-4488
▁accompan	-4489
▁anywhere	-4490
▁computer	-4491
▁decision	-4492
▁expenses	-4493
▁grateful	-4494
▁marriage	-4495
▁minister	-4496
▁opportun	-4497
▁pleasure	-4498
▁received	-4499
▁somebody	-4500
▁detective	-4501
▁prevented	-4502
▁appreciate	-4503
▁earthquake	-4504
▁particular	-4505
▁surprising	-4506
▁explanation	-4507
▁grandfather	-4508
▁responsible	-4509
▁げ	-4510
▁ヒ	-4511
▁供	-4512
▁八	-4513
▁印	-4514
▁卵	-4515
▁及	-4516
▁和	-4517
▁噂	-4518
▁圧	-4519
▁壁	-4520
▁差	-4521
▁恋	-4522
▁態	-4523
▁抑	-4524
▁折	-4525
▁掘	-4526
▁採	-4527
▁晩	-4528
▁根	-4529
▁検	-4530
▁池	-4531
▁汽	-4532
▁狂	-4533
▁皿	-4534
▁編	-4535
▁群	-4536
▁義	-4537
▁羽	-4538
▁胸	-4539
▁腰	-4540
▁舞	-4541
▁裁	-4542
▁討	-4543
▁謝	-4544
▁費	-4545
▁辛	-4546
▁雇	-4547
▁預	-4548
そろ	-4549
たま	-4550
つき	-4551
ばこ	-4552
ほど	-4553
らん	-4554
わし	-4555
ギー	-4556
ピー	-4557
マス	-4558
ラス	-4559
レン	-4560
替え	-4561
起こ	-4562
amm	-4563
ask	-4564
ata	-4565
bby	-4566
cel	-4567
cul	-4568
erm	-4569
ism	-4570
key	-4571
mas	-4572
ows	-4573
tle	-4574
umb	-4575
▁14	-4576
▁ca	-4577
▁da	-4578
▁あて	-4579
▁いち	-4580
▁いら	-4581
▁うん	-4582
▁おい	-4583
▁かま	-4584
▁きの	-4585
▁けが	-4586
▁ごと	-4587
▁さあ	-4588
▁だま	-4589
▁つぶ	-4590
▁とり	-4591
▁なる	-4592
▁はい	-4593
▁ばか	-4594
▁ぶり	-4595
▁もち	-4596
▁やが	-4597
▁イタ	-4598
▁キャ	-4599
▁ネク	-4600
▁ハン	-4601
▁ファ	-4602
▁ブラ	-4603
▁ブル	-4604
▁ベル	-4605
▁一部	-4606
▁上が	-4607
▁上げ	-4608
▁不幸	-4609
▁中心	-4610
▁予報	-4611
▁人前	-4612
▁人物	-4613
▁仕方	-4614
▁休憩	-4615
▁余裕	-4616
▁優れ	-4617
▁先週	-4618
▁全力	-4619
▁分け	-4620
▁劇場	-4621
▁勤勉	-4622
▁博士	-4623
▁同様	-4624
▁回復	-4625
▁地域	-4626
▁大事	-4627
▁夫婦	-4628
▁奇妙	-4629
▁専門	-4630
▁市場	-4631
▁当た	-4632
▁従業	-4633
▁心臓	-4634
▁愚か	-4635
▁感情	-4636
▁態度	-4637
▁握手	-4638
▁普通	-4639
▁横断	-4640
▁毎年	-4641
▁毎朝	-4642
▁比較	-4643
▁気候	-4644
▁汽車	-4645
▁海岸	-4646
▁満ち	-4647
▁牛乳	-4648
▁物語	-4649
▁状況	-4650
▁率直	-4651
▁発言	-4652
▁相当	-4653
▁真っ	-4654
▁祖父	-4655
▁精神	-4656
▁紅茶	-4657
▁素敵	-4658
▁職業	-4659
▁評価	-4660
▁詩人	-4661
▁詳し	-4662
▁諸国	-4663
▁負け	-4664
▁資源	-4665
▁資金	-4666
▁越え	-4667
▁近づ	-4668
▁遊び	-4669
▁避け	-4670
▁馬鹿	-4671
▁驚き	-4672
っぱり	-4673
ンジン	-4674
ache	-4675
aded	-4676
cent	-4677
chen	-4678
ding	-4679
ease	-4680
iced	-4681
iety	-4682
ives	-4683
mony	-4684
ners	-4685
olen	-4686
peri	-4687
resh	-4688
uced	-4689
vere	-4690
▁ate	-4691
▁den	-4692
▁gun	-4693
▁hid	-4694
▁kit	-4695
▁low	-4696
▁mad	-4697
▁maj	-4698
▁mer	-4699
▁pra	-4700
▁rap	-4701
▁spl	-4702
▁tan	-4703
▁unf	-4704
▁wed	-4705
▁ごらん	-4706
▁たばこ	-4707
▁なくな	-4708
▁もたら	-4709
▁やっと	-4710
▁アジア	-4711
▁アルバ	-4712
▁ゲーム	-4713
▁ゴルフ	-4714
▁スープ	-4715
▁タイプ	-4716
▁テスト	-4717
▁ポンド	-4718
▁ミルク	-4719
▁悲しみ	-4720
▁日曜日	-4721
▁見つめ	-4722
▁話し合	-4723
▁飲み物	-4724
cious	-4725
cript	-4726
cumst	-4727
hered	-4728
ician	-4729
lling	-4730
overy	-4731
ralia	-4732
uable	-4733
usual	-4734
▁bare	-4735
▁bark	-4736
▁beer	-4737
▁boat	-4738
▁body	-4739
▁carp	-4740
▁copy	-4741
▁crop	-4742
▁disp	-4743
▁earl	-4744
▁ease	-4745
▁emer	-4746
▁farm	-4747
▁flat	-4748
▁golf	-4749
▁host	-4750
▁ital	-4751
▁kate	-4752
▁loud	-4753
▁orig	-4754
▁paul	-4755
▁phot	-4756
▁prov	-4757
▁rang	-4758
▁rule	-4759
▁scar	-4760
▁soft	-4761
▁tail	-4762
▁task	-4763
▁wash	-4764
▁weak	-4765
▁whom	-4766
▁いちばん	-4767
▁そろそろ	-4768
▁たまたま	-4769
▁とうとう	-4770
▁アパート	-4771
▁イタリア	-4772
▁スペイン	-4773
▁チェック	-4774
▁ネクタイ	-4775
▁知り合い	-4776
▁話しかけ	-4777
ストラリア	-4778
enture	-4779
overed	-4780
pected	-4781
rupted	-4782
stairs	-4783
▁activ	-4784
▁adapt	-4785
▁apply	-4786
▁april	-4787
▁brown	-4788
▁cheap	-4789
▁color	-4790
▁fresh	-4791
▁local	-4792
▁lying	-4793
▁miles	-4794
▁names	-4795
▁neigh	-4796
▁parts	-4797
▁rainy	-4798
▁reads	-4799
▁refer	-4800
▁rumor	-4801
▁saved	-4802
▁sched	-4803
▁shook	-4804
▁spare	-4805
▁spend	-4806
▁stood	-4807
▁teeth	-4808
▁tooth	-4809
▁total	-4810
▁troub	-4811
▁youth	-4812
▁クリスマス	-4813
▁access	-4814
▁action	-4815
▁agreed	-4816
▁appear	-4817
▁asleep	-4818
▁beside	-4819
▁compet	-4820
▁conven	-4821
▁depend	-4822
▁drinks	-4823
▁eating	-4824
▁energy	-4825
▁fellow	-4826
▁filled	-4827
▁flower	-4828
▁gather	-4829
▁guests	-4830
▁indust	-4831
▁intell	-4832
▁lately	-4833
▁lawyer	-4834
▁modern	-4835
▁movies	-4836
▁narrow	-4837
▁policy	-4838
▁resour	-4839
▁season	-4840
▁slowly	-4841
▁stolen	-4842
▁talent	-4843
▁thirty	-4844
▁toward	-4845
▁trying	-4846
▁applied	-4847
▁attempt	-4848
▁comfort	-4849
▁content	-4850
▁courage	-4851
▁delayed	-4852
▁depends	-4853
▁disappo	-4854
▁economy	-4855
▁expense	-4856
▁fortune	-4857
▁further	-4858
▁growing	-4859
▁honesty	-4860
▁increas	-4861
▁invited	-4862
▁keeping	-4863
▁kitchen	-4864
▁learned	-4865
▁lecture	-4866
▁managed	-4867
▁manager	-4868
▁matters	-4869
▁million	-4870
▁outside	-4871
▁percent	-4872
▁quarrel	-4873
▁refused	-4874
▁selfish	-4875
▁service	-4876
▁society	-4877
▁spanish	-4878
▁theater	-4879
▁typhoon	-4880
▁unusual	-4881
▁various	-4882
▁worried	-4883
▁younger	-4884
▁オーストラリア	-4885
▁becoming	-4886
▁carrying	-4887
▁chairman	-4888
▁circumst	-4889
▁contains	-4890
▁crossing	-4891
▁exchange	-4892
▁hardship	-4893
▁learning	-4894
▁pleasant	-4895
▁prepared	-4896
▁valuable	-4897
▁according	-4898
▁americans	-4899
▁apartment	-4900
▁australia	-4901
▁carefully	-4902
▁christmas	-4903
▁dangerous	-4904
▁introduce	-4905
▁listening	-4906
▁satisfied	-4907
▁absolutely	-4908
▁regardless	-4909
▁reservation	-4910
▁circumstances	-4911
be	-4912
hy	-4913
ny	-4914
▁$	-4915
▁ぎ	-4916
▁丸	-4917
▁企	-4918
▁伸	-4919
▁兵	-4920
▁冒	-4921
▁券	-4922
▁否	-4923
▁含	-4924
▁告	-4925
▁喧	-4926
▁在	-4927
▁塀	-4928
▁契	-4929
▁岩	-4930
▁常	-4931
▁張	-4932
▁忍	-4933
▁怠	-4934
▁拾	-4935
▁控	-4936
▁敵	-4937
▁星	-4938
▁曜	-4939
▁条	-4940
▁杯	-4941
▁森	-4942
▁椅	-4943
▁植	-4944
▁毛	-4945
▁洋	-4946
▁済	-4947
▁湖	-4948
▁為	-4949
▁狭	-4950
▁珍	-4951
▁繰	-4952
▁脇	-4953
▁腐	-4954
▁草	-4955
▁西	-4956
▁誕	-4957
▁誠	-4958
▁超	-4959
▁鉛	-4960
▁香	-4961
▁魔	-4962
いえ	-4963
こち	-4964
ごろ	-4965
さま	-4966
しゃ	-4967
ぞれ	-4968
たい	-4969
だん	-4970
なり	-4971
まま	-4972
ょう	-4973
ろん	-4974
んば	-4975
イス	-4976
イフ	-4977
ウン	-4978
クト	-4979
サー	-4980
シャ	-4981
ダー	-4982
ナー	-4983
ラー	-4984
ータ	-4985
休み	-4986
入れ	-4987
分け	-4988
取り	-4989
好き	-4990
当た	-4991
思議	-4992
aur	-4993
bel	-4994
cer	-4995
ees	-4996
ges	-4997
hib	-4998
hol	-4999
how	-5000
ica	-5001
igr	-5002
iro	-5003
ith	-5004
ium	-5005
lly	-5006
men	-5007
mit	-5008
oku	-5009
omm	-5010
uge	-5011
uly	-5012
ung	-5013
val	-5014
yle	-5015
▁00	-5016
▁15	-5017
▁16	-5018
▁70	-5019
▁em	-5020
▁hy	-5021
▁いえ	-5022
▁かつ	-5023
▁かど	-5024
▁させ	-5025
▁さま	-5026
▁さも	-5027
▁すて	-5028
▁すり	-5029
▁ぜひ	-5030
▁たた	-5031
▁っぽ	-5032
▁とれ	-5033
▁なあ	-5034
▁なれ	-5035
▁はじ	-5036
▁ほめ	-5037
▁やつ	-5038
▁やら	-5039
▁サー	-5040
▁トラ	-5041
▁バラ	-5042
▁パイ	-5043
▁フォ	-5044
▁プレ	-5045
▁ボー	-5046
▁リン	-5047
▁一致	-5048
▁世紀	-5049
▁主な	-5050
▁主義	-5051
▁乗客	-5052
▁代わ	-5053
▁供給	-5054
▁倒れ	-5055
▁優勝	-5056
▁入り	-5057
▁入場	-5058
▁入学	-5059
▁公平	-5060
▁切り	-5061
▁利口	-5062
▁利益	-5063
▁午前	-5064
▁台所	-5065
▁合図	-5066
▁合衆	-5067
▁向き	-5068
▁否定	-5069
▁呼び	-5070
▁国際	-5071
▁土地	-5072
▁地面	-5073
▁基本	-5074
▁増え	-5075
▁多数	-5076
▁好み	-5077
▁実験	-5078
▁家庭	-5079
▁廃止	-5080
▁悪口	-5081
▁意識	-5082
▁感動	-5083
▁我慢	-5084
▁投資	-5085
▁抜け	-5086
▁振る	-5087
▁支持	-5088
▁支配	-5089
▁政策	-5090
▁故郷	-5091
▁教師	-5092
▁文字	-5093
▁景気	-5094
▁書類	-5095
▁来年	-5096
▁椅子	-5097
▁機嫌	-5098
▁気付	-5099
▁無事	-5100
▁無視	-5101
▁爆発	-5102
▁物価	-5103
▁状態	-5104
▁珍し	-5105
▁生産	-5106
▁田中	-5107
▁番組	-5108
▁痛み	-5109
▁発明	-5110
▁直接	-5111
▁直面	-5112
▁相談	-5113
▁知識	-5114
▁確信	-5115
▁神経	-5116
▁競争	-5117
▁絶え	-5118
▁美人	-5119
▁考慮	-5120
▁記録	-5121
▁許可	-5122
▁診察	-5123
▁試み	-5124
▁誕生	-5125
▁読め	-5126
▁警告	-5127
▁議長	-5128
▁豊か	-5129
▁追い	-5130
▁閉じ	-5131
▁関わ	-5132
▁隠れ	-5133
▁雑誌	-5134
▁離陸	-5135
▁電気	-5136
▁非難	-5137
▁頂上	-5138
いにく	-5139
ニスト	-5140
ランド	-5141
appy	-5142
atic	-5143
ccer	-5144
eral	-5145
hold	-5146
iers	-5147
ilty	-5148
ival	-5149
look	-5150
ooth	-5151
rict	-5152
rors	-5153
sequ	-5154
vous	-5155
▁197	-5156
▁199	-5157
▁ant	-5158
▁dad	-5159
▁deb	-5160
▁deg	-5161
▁dil	-5162
▁eld	-5163
▁gor	-5164
▁haw	-5165
▁mem	-5166
▁obv	-5167
▁org	-5168
▁row	-5169
▁squ	-5170
▁tig	-5171
▁unh	-5172
▁wis	-5173
▁あんな	-5174
▁いいえ	-5175
▁いわば	-5176
▁うわさ	-5177
▁おかし	-5178
▁きのう	-5179
▁ほんの	-5180
▁わざと	-5181
▁アルフ	-5182
▁エネル	-5183
▁カップ	-5184
▁ケイト	-5185
▁ショー	-5186
▁ダンス	-5187
▁ビール	-5188
▁ホーム	-5189
▁ポール	-5190
▁メール	-5191
▁不思議	-5192
▁付き合	-5193
▁大好き	-5194
▁恐ろし	-5195
▁捕まえ	-5196
▁明かり	-5197
▁立ち寄	-5198
▁見込み	-5199
aight	-5200
aimed	-5201
apped	-5202
ceive	-5203
encil	-5204
gress	-5205
ients	-5206
ipped	-5207
istic	-5208
redit	-5209
riend	-5210
usted	-5211
▁asso	-5212
▁aver	-5213
▁beth	-5214
▁burn	-5215
▁cast	-5216
▁cere	-5217
▁coun	-5218
▁crim	-5219
▁decl	-5220
▁dogs	-5221
▁draw	-5222
▁ears	-5223
▁east	-5224
▁eggs	-5225
▁film	-5226
▁flew	-5227
▁gift	-5228
▁hadn	-5229
▁hall	-5230
▁imag	-5231
▁inse	-5232
▁join	-5233
▁kids	-5234
▁lake	-5235
▁mere	-5236
▁note	-5237
▁oper	-5238
▁pack	-5239
▁page	-5240
▁pale	-5241
▁pity	-5242
▁poll	-5243
▁quit	-5244
▁roof	-5245
▁rose	-5246
▁rude	-5247
▁sand	-5248
▁sell	-5249
▁shot	-5250
▁tend	-5251
▁tire	-5252
▁type	-5253
▁viol	-5254
▁west	-5255
▁worn	-5256
▁あいにく	-5257
▁いったい	-5258
▁しっかり	-5259
▁しばらく	-5260
▁それぞれ	-5261
▁ちゃんと	-5262
▁なかなか	-5263
▁なるほど	-5264
▁もちろん	-5265
▁わがまま	-5266
▁エンジン	-5267
▁サッカー	-5268
▁ジャック	-5269
▁メートル	-5270
▁召し上が	-5271
▁引き起こ	-5272
angers	-5273
ection	-5274
engers	-5275
ential	-5276
ission	-5277
mitted	-5278
omeday	-5279
ounced	-5280
perior	-5281
▁argum	-5282
▁artic	-5283
▁avoid	-5284
▁bench	-5285
▁brief	-5286
▁china	-5287
▁cover	-5288
▁dance	-5289
▁eager	-5290
▁empty	-5291
▁equal	-5292
▁event	-5293
▁feels	-5294
▁fixed	-5295
▁forty	-5296
▁frank	-5297
▁games	-5298
▁hobby	-5299
▁ident	-5300
▁ignor	-5301
▁indic	-5302
▁innoc	-5303
▁loved	-5304
▁loves	-5305
▁major	-5306
▁moved	-5307
▁named	-5308
▁north	-5309
▁offic	-5310
▁power	-5311
▁pride	-5312
▁purse	-5313
▁raise	-5314
▁rapid	-5315
▁refle	-5316
▁reply	-5317
▁round	-5318
▁schol	-5319
▁smart	-5320
▁steam	-5321
▁stick	-5322
▁terri	-5323
▁thief	-5324
▁turns	-5325
▁whose	-5326
▁エネルギー	-5327
▁ピアニスト	-5328
ference	-5329
▁admire	-5330
▁advant	-5331
▁apples	-5332
▁applic	-5333
▁bottom	-5334
▁cities	-5335
▁credit	-5336
▁design	-5337
▁determ	-5338
▁dishes	-5339
▁dishon	-5340
▁errors	-5341
▁escape	-5342
▁estate	-5343
▁fought	-5344
▁guilty	-5345
▁hungry	-5346
▁intern	-5347
▁interv	-5348
▁invite	-5349
▁larger	-5350
▁meters	-5351
▁novels	-5352
▁pencil	-5353
▁places	-5354
▁princi	-5355
▁robbed	-5356
▁search	-5357
▁severe	-5358
▁shower	-5359
▁smooth	-5360
▁soccer	-5361
▁stamps	-5362
▁supply	-5363
▁tanaka	-5364
▁warmer	-5365
cription	-5366
▁advised	-5367
▁arrange	-5368
▁average	-5369
▁beating	-5370
▁century	-5371
▁consult	-5372
▁contest	-5373
▁culture	-5374
▁disease	-5375
▁dropped	-5376
▁earlier	-5377
▁exactly	-5378
▁excited	-5379
▁explain	-5380
▁foolish	-5381
▁healthy	-5382
▁meaning	-5383
▁neither	-5384
▁nervous	-5385
▁obvious	-5386
▁process	-5387
▁restaur	-5388
▁shining	-5389
▁showing	-5390
▁silence	-5391
▁someday	-5392
▁spirits	-5393
▁thunder	-5394
▁turning	-5395
▁wearing	-5396
▁whoever	-5397
▁accustom	-5398
▁affected	-5399
▁audience	-5400
▁birthday	-5401
▁ceremony	-5402
▁climbing	-5403
▁complain	-5404
▁consists	-5405
▁constant	-5406
▁darkness	-5407
▁electric	-5408
▁entirely	-5409
▁followed	-5410
▁informed	-5411
▁investig	-5412
▁neighbor	-5413
▁occasion	-5414
▁painting	-5415
▁products	-5416
▁property	-5417
▁remained	-5418
▁research	-5419
▁shortage	-5420
▁sleeping	-5421
▁soldiers	-5422
▁straight	-5423
▁superior	-5424
▁wherever	-5425
▁admission	-5426
▁apologize	-5427
▁classical	-5428
▁construct	-5429
▁customers	-5430
▁following	-5431
▁graduated	-5432
▁happiness	-5433
▁languages	-5434
▁political	-5435
▁resources	-5436
▁satisfact	-5437
▁shoulders	-5438
▁somewhere	-5439
▁suffering	-5440
▁acquainted	-5441
▁passengers	-5442
▁politician	-5443
▁opportunity	-5444
▁responsibility	-5445
CD	-5446
ai	-5447
ls	-5448
me	-5449
zy	-5450
▁0	-5451
▁O	-5452
▁ユ	-5453
▁乾	-5454
▁位	-5455
▁依	-5456
▁侵	-5457
▁備	-5458
▁免	-5459
▁処	-5460
▁包	-5461
▁叫	-5462
▁吠	-5463
▁噛	-5464
▁塔	-5465
▁奥	-5466
▁宗	-5467
▁室	-5468
▁害	-5469
▁封	-5470
▁尾	-5471
▁屈	-5472
▁展	-5473
▁式	-5474
▁微	-5475
▁悩	-5476
▁想	-5477
▁拒	-5478
▁拡	-5479
▁掛	-5480
▁撃	-5481
▁撮	-5482
▁救	-5483
▁施	-5484
▁春	-5485
▁曇	-5486
▁末	-5487
▁栄	-5488
▁校	-5489
▁業	-5490
▁概	-5491
▁清	-5492
▁渋	-5493
▁滅	-5494
▁滑	-5495
▁漫	-5496
▁災	-5497
▁煙	-5498
▁由	-5499
▁皮	-5500
▁祝	-5501
▁筆	-5502
▁策	-5503
▁節	-5504
▁納	-5505
▁緊	-5506
▁練	-5507
▁脅	-5508
▁薄	-5509
▁虎	-5510
▁衝	-5511
▁被	-5512
▁複	-5513
▁詰	-5514
▁譲	-5515
▁造	-5516
▁逮	-5517
▁邪	-5518
▁酔	-5519
▁酸	-5520
▁量	-5521
▁銃	-5522
▁防	-5523
▁除	-5524
▁震	-5525
うじ	-5526
ざり	-5527
ぜい	-5528
たん	-5529
っこ	-5530
って	-5531
はま	-5532
まと	-5533
やり	-5534
わざ	-5535
ァー	-5536
ィー	-5537
イク	-5538
エス	-5539
コン	-5540
ジネ	-5541
タン	-5542
ッグ	-5543
ッシ	-5544
パー	-5545
ビス	-5546
ミス	-5547
リラ	-5548
丈夫	-5549
寄り	-5550
捜し	-5551
換え	-5552
遂げ	-5553
ada	-5554
ann	-5555
azz	-5556
bru	-5557
bum	-5558
has	-5559
iff	-5560
ify	-5561
irm	-5562
let	-5563
llo	-5564
mod	-5565
obe	-5566
ogn	-5567
par	-5568
ply	-5569
reg	-5570
rop	-5571
set	-5572
son	-5573
udd	-5574
uko	-5575
umi	-5576
und	-5577
unk	-5578
uri	-5579
urs	-5580
vey	-5581
▁60	-5582
▁ak	-5583
▁ge	-5584
▁lu	-5585
▁ow	-5586
▁ox	-5587
▁ああ	-5588
▁あい	-5589
▁あす	-5590
▁あち	-5591
▁あや	-5592
▁ええ	-5593
▁かえ	-5594
▁かぶ	-5595
▁かん	-5596
▁こそ	-5597
▁さが	-5598
▁した	-5599
▁ずつ	-5600
▁せよ	-5601
▁だん	-5602
▁つつ	-5603
▁つな	-5604
▁つま	-5605
▁にく	-5606
▁ふる	-5607
▁まち	-5608
▁まと	-5609
▁やれ	-5610
▁アフ	-5611
▁ガソ	-5612
▁グル	-5613
▁ココ	-5614
▁ソフ	-5615
▁チャ	-5616
▁ベス	-5617
▁予想	-5618
▁交換	-5619
▁以下	-5620
▁以内	-5621
▁以来	-5622
▁企業	-5623
▁何処	-5624
▁使え	-5625
▁使用	-5626
▁信じ	-5627
▁信頼	-5628
▁備え	-5629
▁傷つ	-5630
▁傾向	-5631
▁入会	-5632
▁兵士	-5633
▁出身	-5634
▁分野	-5635
▁切符	-5636
▁初め	-5637
▁勇敢	-5638
▁動か	-5639
▁協力	-5640
▁単語	-5641
▁友情	-5642
▁合計	-5643
▁同情	-5644
▁吠え	-5645
▁周辺	-5646
▁命令	-5647
▁商品	-5648
▁喧嘩	-5649
▁喫茶	-5650
▁国家	-5651
▁土曜	-5652
▁地位	-5653
▁増加	-5654
▁壊れ	-5655
▁夕方	-5656
▁夢中	-5657
▁大臣	-5658
▁天然	-5659
▁契約	-5660
▁女子	-5661
▁姉妹	-5662
▁完璧	-5663
▁宗教	-5664
▁定期	-5665
▁対処	-5666
▁平均	-5667
▁幸い	-5668
▁延ば	-5669
▁建設	-5670
▁当分	-5671
▁当地	-5672
▁役割	-5673
▁待ち	-5674
▁微笑	-5675
▁忍耐	-5676
▁忠実	-5677
▁性質	-5678
▁意気	-5679
▁抑え	-5680
▁抱き	-5681
▁控え	-5682
▁損害	-5683
▁放課	-5684
▁文法	-5685
▁方向	-5686
▁日暮	-5687
▁昨晩	-5688
▁最悪	-5689
▁最終	-5690
▁有能	-5691
▁望み	-5692
▁本気	-5693
▁条件	-5694
▁検査	-5695
▁概し	-5696
▁権利	-5697
▁歓迎	-5698
▁止ま	-5699
▁殺人	-5700
▁毎月	-5701
▁比べ	-5702
▁永久	-5703
▁永遠	-5704
▁汚染	-5705
▁決定	-5706
▁泊ま	-5707
▁法案	-5708
▁注文	-5709
▁渋滞	-5710
▁演技	-5711
▁漫画	-5712
▁無く	-5713
▁無料	-5714
▁犯罪	-5715
▁独立	-5716
▁現実	-5717
▁産業	-5718
▁田舎	-5719
▁疑問	-5720
▁発生	-5721
▁真相	-5722
▁秘書	-5723
▁移民	-5724
▁立場	-5725
▁笑い	-5726
▁絶望	-5727
▁緊急	-5728
▁練習	-5729
▁義務	-5730
▁聴衆	-5731
▁育て	-5732
▁茶色	-5733
▁表現	-5734
▁規制	-5735
▁覚ま	-5736
▁解釈	-5737
▁言え	-5738
▁計算	-5739
▁討議	-5740
▁記入	-5741
▁貯金	-5742
▁農場	-5743
▁退屈	-5744
▁逮捕	-5745
▁進学	-5746
▁運命	-5747
▁適応	-5748
▁邪魔	-5749
▁部分	-5750
▁都会	-5751
▁野心	-5752
▁鉄道	-5753
▁鉛筆	-5754
▁集中	-5755
▁頭痛	-5756
▁頼り	-5757
▁願い	-5758
イオン	-5759
ジネス	-5760
リーム	-5761
aves	-5762
book	-5763
cast	-5764
gest	-5765
ging	-5766
ideo	-5767
ilet	-5768
itch	-5769
lded	-5770
medi	-5771
ords	-5772
owed	-5773
rain	-5774
roat	-5775
rove	-5776
time	-5777
umed	-5778
uses	-5779
ware	-5780
▁200	-5781
▁ach	-5782
▁aim	-5783
▁ath	-5784
▁awk	-5785
▁bal	-5786
▁ban	-5787
▁cas	-5788
▁cru	-5789
▁dug	-5790
▁emb	-5791
▁guy	-5792
▁hen	-5793
▁iss	-5794
▁jok	-5795
▁kid	-5796
▁lay	-5797
▁mix	-5798
▁pil	-5799
▁reb	-5800
▁ren	-5801
▁sev	-5802
▁ski	-5803
▁sle	-5804
▁toy	-5805
▁unc	-5806
▁wet	-5807
▁いかに	-5808
▁しかも	-5809
▁すてき	-5810
▁たぶん	-5811
▁たまに	-5812
▁ためら	-5813
▁はじめ	-5814
▁イエス	-5815
▁インド	-5816
▁ゴリラ	-5817
▁サイズ	-5818
▁サイン	-5819
▁スキー	-5820
▁スミス	-5821
▁セール	-5822
▁タイム	-5823
▁チャン	-5824
▁データ	-5825
▁デート	-5826
▁トニー	-5827
▁ドライ	-5828
▁ブルー	-5829
▁プレゼ	-5830
▁ペンキ	-5831
▁ボート	-5832
▁レスト	-5833
▁ローマ	-5834
▁亡くな	-5835
▁夏休み	-5836
▁大丈夫	-5837
▁持ち主	-5838
▁振る舞	-5839
▁暮らし	-5840
▁片づけ	-5841
▁申し込	-5842
▁繰り返	-5843
▁落ち着	-5844
▁追いつ	-5845
ーション	-5846
acity	-5847
alled	-5848
anged	-5849
arest	-5850
ashed	-5851
astic	-5852
azing	-5853
cohol	-5854
ength	-5855
gency	-5856
hemat	-5857
inced	-5858
irmed	-5859
itive	-5860
ormal	-5861
osion	-5862
pping	-5863
rated	-5864
urday	-5865
ushed	-5866
▁1000	-5867
▁ages	-5868
▁asia	-5869
▁bull	-5870
▁cher	-5871
▁cock	-5872
▁cott	-5873
▁danc	-5874
▁disg	-5875
▁drow	-5876
▁ends	-5877
▁enem	-5878
▁entr	-5879
▁feet	-5880
▁gray	-5881
▁hang	-5882
▁heat	-5883
▁hous	-5884
▁infl	-5885
▁iron	-5886
▁jeal	-5887
▁jump	-5888
▁june	-5889
▁kill	-5890
▁legs	-5891
▁lift	-5892
▁maid	-5893
▁mild	-5894
▁mile	-5895
▁mood	-5896
▁obey	-5897
▁pair	-5898
▁pond	-5899
▁prot	-5900
▁pull	-5901
▁race	-5902
▁rail	-5903
▁rele	-5904
▁ride	-5905
▁rise	-5906
▁save	-5907
▁sort	-5908
▁star	-5909
▁stri	-5910
▁susp	-5911
▁tech	-5912
▁term	-5913
▁tony	-5914
▁vain	-5915
▁wild	-5916
▁yoko	-5917
▁あちこち	-5918
▁あら捜し	-5919
▁いわゆる	-5920
▁うんざり	-5921
▁さっぱり	-5922
▁せいぜい	-5923
▁だんだん	-5924
▁ときどき	-5925
▁はじめて	-5926
▁よろしく	-5927
▁わざわざ	-5928
▁アフリカ	-5929
▁アルバム	-5930
▁ガソリン	-5931
▁キャンプ	-5932
▁クリーム	-5933
▁グループ	-5934
▁セーター	-5935
▁チケット	-5936
▁ビジネス	-5937
▁ライオン	-5938
bruary	-5939
icient	-5940
mother	-5941
ommend	-5942
ousand	-5943
ulated	-5944
▁aband	-5945
▁absor	-5946
▁album	-5947
▁annoy	-5948
▁aside	-5949
▁basic	-5950
▁beach	-5951
▁bored	-5952
▁brush	-5953
▁cards	-5954
▁champ	-5955
▁cheek	-5956
▁chief	-5957
▁cloud	-5958
▁cream	-5959
▁creat	-5960
▁cried	-5961
▁depri	-5962
▁drama	-5963
▁drank	-5964
▁drove	-5965
▁elder	-5966
▁facts	-5967
▁fence	-5968
▁gives	-5969
▁gramm	-5970
▁green	-5971
▁helps	-5972
▁holds	-5973
▁homet	-5974
▁hopes	-5975
▁invit	-5976
▁italy	-5977
▁kinds	-5978
▁march	-5979
▁motor	-5980
▁organ	-5981
▁scene	-5982
▁scold	-5983
▁serve	-5984
▁shock	-5985
▁shows	-5986
▁skill	-5987
▁smile	-5988
▁smith	-5989
▁songs	-5990
▁space	-5991
▁spite	-5992
▁stars	-5993
▁stock	-5994
▁tiger	-5995
▁tower	-5996
▁trust	-5997
▁usual	-5998
▁video	-5999
▁wears	-6000
▁woods	-6001
▁いらっしゃ	-6002
▁レストラン	-6003
ational	-6004
ghtened	-6005
ishment	-6006
ributed	-6007
▁acting	-6008
▁adults	-6009
▁afford	-6010
▁africa	-6011
▁altern	-6012
▁asking	-6013
▁attack	-6014
▁begins	-6015
▁bitter	-6016
▁bottle	-6017
▁butter	-6018
▁buying	-6019
▁choice	-6020
▁choose	-6021
▁crying	-6022
▁denied	-6023
▁destro	-6024
▁detail	-6025
▁emphas	-6026
▁extent	-6027
▁fairly	-6028
▁folded	-6029
▁forced	-6030
▁fortun	-6031
▁gorill	-6032
▁handle	-6033
▁highly	-6034
▁immedi	-6035
▁immigr	-6036
▁insect	-6037
▁inside	-6038
▁interp	-6039
▁jacket	-6040
▁latest	-6041
▁length	-6042
▁lights	-6043
▁likely	-6044
▁lovely	-6045
▁materi	-6046
▁months	-6047
▁moving	-6048
▁nearly	-6049
▁parcel	-6050
▁plants	-6051
▁polite	-6052
▁pounds	-6053
▁prison	-6054
▁recess	-6055
▁recogn	-6056
▁reluct	-6057
▁retire	-6058
▁salary	-6059
▁scarce	-6060
▁signal	-6061
▁slight	-6062
▁smiled	-6063
▁spoken	-6064
▁starts	-6065
▁supper	-6066
▁threat	-6067
▁throat	-6068
▁toilet	-6069
▁transl	-6070
▁unless	-6071
▁vacant	-6072
▁wallet	-6073
▁washed	-6074
▁accused	-6075
▁alcohol	-6076
▁answers	-6077
▁attract	-6078
▁awkward	-6079
▁baggage	-6080
▁burning	-6081
▁climbed	-6082
▁consequ	-6083
▁degrees	-6084
▁dentist	-6085
▁earnest	-6086
▁elected	-6087
▁entered	-6088
▁follows	-6089
▁frankly	-6090
▁general	-6091
▁germany	-6092
▁granted	-6093
▁greater	-6094
▁happens	-6095
▁helping	-6096
▁hurried	-6097
▁improve	-6098
▁jealous	-6099
▁nearest	-6100
▁observe	-6101
▁painted	-6102
▁payment	-6103
▁perfect	-6104
▁pianist	-6105
▁pressed	-6106
▁reminds	-6107
▁setting	-6108
▁shouldn	-6109
▁sweater	-6110
▁teaches	-6111
▁tickets	-6112
▁unhappy	-6113
▁victory	-6114
▁wedding	-6115
▁accommod	-6116
▁appeared	-6117
▁approach	-6118
▁attended	-6119
▁capacity	-6120
▁contract	-6121
▁criminal	-6122
▁demanded	-6123
▁diligent	-6124
▁discount	-6125
▁evidence	-6126
▁families	-6127
▁favorite	-6128
▁february	-6129
▁forecast	-6130
▁headache	-6131
▁hometown	-6132
▁industry	-6133
▁laughter	-6134
▁magazine	-6135
▁mathemat	-6136
▁personal	-6137
▁physical	-6138
▁pictures	-6139
▁probably	-6140
▁promises	-6141
▁reporter	-6142
▁saturday	-6143
▁schedule	-6144
▁teaching	-6145
▁terrible	-6146
▁thousand	-6147
▁visiting	-6148
▁whenever	-6149
▁abandoned	-6150
▁advantage	-6151
▁associate	-6152
▁attending	-6153
▁concerned	-6154
▁convinced	-6155
▁departure	-6156
▁emergency	-6157
▁explained	-6158
▁explosion	-6159
▁hardships	-6160
▁household	-6161
▁ourselves	-6162
▁presented	-6163
▁recommend	-6164
▁scientist	-6165
▁statement	-6166
▁strangers	-6167
▁suggested	-6168
▁accustomed	-6169
▁convenient	-6170
▁discovered	-6171
▁discussion	-6172
▁friendship	-6173
▁frightened	-6174
▁generation	-6175
▁increasing	-6176
▁restaurant	-6177
▁successful	-6178
▁accompanied	-6179
▁communicate	-6180
▁description	-6181
▁grandmother	-6182
▁immediately	-6183
▁intelligent	-6184
▁difficulties	-6185
▁expectations	-6186
▁satisfactory	-6187
39	-6188
fa	-6189
lc	-6190
sh	-6191
uf	-6192
ya	-6193
ym	-6194
za	-6195
▁A	-6196
▁九	-6197
▁乱	-6198
▁争	-6199
▁伴	-6200
▁伺	-6201
▁偏	-6202
▁偽	-6203
▁催	-6204
▁党	-6205
▁六	-6206
▁刑	-6207
▁励	-6208
▁区	-6209
▁卑	-6210
▁南	-6211
▁即	-6212
▁吉	-6213
▁器	-6214
▁囲	-6215
▁坂	-6216
▁埋	-6217
▁堂	-6218
▁境	-6219
▁妥	-6220
▁季	-6221
▁孤	-6222
▁宇	-6223
▁寂	-6224
▁寺	-6225
▁巣	-6226
▁底	-6227
▁怖	-6228
▁愉	-6229
▁慈	-6230
▁承	-6231
▁抗	-6232
▁拍	-6233
▁挙	-6234
▁捧	-6235
▁揺	-6236
▁敬	-6237
▁旧	-6238
▁易	-6239
▁殴	-6240
▁氷	-6241
▁沿	-6242
▁洪	-6243
▁浪	-6244
▁濃	-6245
▁灰	-6246
▁照	-6247
▁版	-6248
▁猛	-6249
▁界	-6250
▁百	-6251
▁省	-6252
▁看	-6253
▁眼	-6254
▁睡	-6255
▁祈	-6256
▁祭	-6257
▁秒	-6258
▁程	-6259
▁稼	-6260
▁積	-6261
▁筋	-6262
▁管	-6263
▁級	-6264
▁総	-6265
▁締	-6266
▁翻	-6267
▁臭	-6268
▁至	-6269
▁蒸	-6270
▁虫	-6271
▁蜂	-6272
▁衣	-6273
▁裕	-6274
▁販	-6275
▁貫	-6276
▁貿	-6277
▁賃	-6278
▁路	-6279
▁蹴	-6280
▁載	-6281
▁遭	-6282
▁針	-6283
▁鎮	-6284
▁雲	-6285
▁零	-6286
▁雷	-6287
▁霜	-6288
▁霧	-6289
▁鞄	-6290
▁飽	-6291
▁飾	-6292
▁駆	-6293
▁黄	-6294
▁鼻	-6295
々し	-6296
がり	-6297
ぎり	-6298
げん	-6299
さら	-6300
ざま	-6301
すり	-6302
ずら	-6303
そこ	-6304
だい	-6305
ちに	-6306
ちゃ	-6307
っぽ	-6308
ども	-6309
ぼれ	-6310
まい	-6311
まけ	-6312
もと	-6313
ゅう	-6314
わか	-6315
んと	-6316
ァベ	-6317
イレ	-6318
ウト	-6319
オル	-6320
キシ	-6321
ジェ	-6322
スマ	-6323
デオ	-6324
ベル	-6325
ボン	-6326
マー	-6327
ヤー	-6328
ョコ	-6329
リエ	-6330
ロル	-6331
ワイ	-6332
ンガ	-6333
引き	-6334
抜け	-6335
振り	-6336
明け	-6337
留め	-6338
起き	-6339
遣い	-6340
降り	-6341
aft	-6342
aii	-6343
ako	-6344
ale	-6345
ano	-6346
ape	-6347
arm	-6348
aze	-6349
azy	-6350
cks	-6351
eed	-6352
els	-6353
erk	-6354
gen	-6355
gic	-6356
ico	-6357
ida	-6358
iko	-6359
ipe	-6360
iqu	-6361
isy	-6362
ita	-6363
ius	-6364
yed	-6365
▁17	-6366
▁21	-6367
▁31	-6368
▁CD	-6369
▁cy	-6370
▁ir	-6371
▁je	-6372
▁nu	-6373
▁sn	-6374
▁ye	-6375
▁いっ	-6376
▁おき	-6377
▁おど	-6378
▁およ	-6379
▁かせ	-6380
▁かね	-6381
▁がた	-6382
▁がち	-6383
▁ずい	-6384
▁ちが	-6385
▁ちら	-6386
▁っぱ	-6387
▁どき	-6388
▁なお	-6389
▁なり	-6390
▁はる	-6391
▁ふう	-6392
▁まい	-6393
▁もん	-6394
▁よし	-6395
▁アド	-6396
▁ウィ	-6397
▁ガス	-6398
▁クリ	-6399
▁ジュ	-6400
▁スケ	-6401
▁スタ	-6402
▁スリ	-6403
▁スー	-6404
▁ダメ	-6405
▁トン	-6406
▁ナン	-6407
▁ピカ	-6408
▁フレ	-6409
▁ミー	-6410
▁リー	-6411
▁レコ	-6412
▁一時	-6413
▁一言	-6414
▁下り	-6415
▁不平	-6416
▁世代	-6417
▁両者	-6418
▁乗れ	-6419
▁予算	-6420
▁事情	-6421
▁交際	-6422
▁人工	-6423
▁人民	-6424
▁人種	-6425
▁付け	-6426
▁以降	-6427
▁任せ	-6428
▁任命	-6429
▁伸ば	-6430
▁体育	-6431
▁何事	-6432
▁何語	-6433
▁作品	-6434
▁価格	-6435
▁保険	-6436
▁傾け	-6437
▁働け	-6438
▁光景	-6439
▁内容	-6440
▁内気	-6441
▁冒険	-6442
▁分間	-6443
▁利己	-6444
▁加え	-6445
▁効果	-6446
▁勝手	-6447
▁化学	-6448
▁卑劣	-6449
▁厳し	-6450
▁反抗	-6451
▁同時	-6452
▁同然	-6453
▁名声	-6454
▁名誉	-6455
▁告げ	-6456
▁呼吸	-6457
▁噛み	-6458
▁地元	-6459
▁地区	-6460
▁報告	-6461
▁多分	-6462
▁多額	-6463
▁夜中	-6464
▁夜更	-6465
▁大雪	-6466
▁女優	-6467
▁奴隷	-6468
▁好意	-6469
▁子猫	-6470
▁季節	-6471
▁学期	-6472
▁学者	-6473
▁宇宙	-6474
▁家事	-6475
▁容疑	-6476
▁寂し	-6477
▁寄付	-6478
▁対応	-6479
▁尊重	-6480
▁小包	-6481
▁小屋	-6482
▁差し	-6483
▁年上	-6484
▁座り	-6485
▁強調	-6486
▁役立	-6487
▁従事	-6488
▁必死	-6489
▁快適	-6490
▁怠け	-6491
▁急速	-6492
▁怪し	-6493
▁怪我	-6494
▁悲劇	-6495
▁愉快	-6496
▁慈善	-6497
▁手元	-6498
▁手品	-6499
▁手段	-6500
▁批判	-6501
▁批評	-6502
▁投げ	-6503
▁抗議	-6504
▁拒否	-6505
▁拾い	-6506
▁指導	-6507
▁指輪	-6508
▁挙げ	-6509
▁振り	-6510
▁捧げ	-6511
▁採用	-6512
▁探偵	-6513
▁推測	-6514
▁放送	-6515
▁教授	-6516
▁料金	-6517
▁日々	-6518
▁旧友	-6519
▁明朝	-6520
▁時刻	-6521
▁時折	-6522
▁暗闇	-6523
▁最中	-6524
▁最良	-6525
▁有罪	-6526
▁期間	-6527
▁栄養	-6528
▁植物	-6529
▁構成	-6530
▁民主	-6531
▁民族	-6532
▁気の	-6533
▁決ま	-6534
▁決勝	-6535
▁法則	-6536
▁泳ぎ	-6537
▁洪水	-6538
▁流暢	-6539
▁浪費	-6540
▁消費	-6541
▁深刻	-6542
▁無実	-6543
▁物理	-6544
▁特別	-6545
▁特有	-6546
▁犯人	-6547
▁独り	-6548
▁現代	-6549
▁現場	-6550
▁理想	-6551
▁申込	-6552
▁画家	-6553
▁留め	-6554
▁異常	-6555
▁疑い	-6556
▁発表	-6557
▁着陸	-6558
▁睡眠	-6559
▁破壊	-6560
▁確実	-6561
▁確認	-6562
▁神戸	-6563
▁税金	-6564
▁突き	-6565
▁管理	-6566
▁組織	-6567
▁経費	-6568
▁締め	-6569
▁翻訳	-6570
▁自信	-6571
▁自己	-6572
▁航海	-6573
▁航空	-6574
▁良く	-6575
▁苦し	-6576
▁苦難	-6577
▁英国	-6578
▁行い	-6579
▁衝突	-6580
▁衣服	-6581
▁裁判	-6582
▁裕福	-6583
▁見渡	-6584
▁見物	-6585
▁親し	-6586
▁親友	-6587
▁解放	-6588
▁言語	-6589
▁証拠	-6590
▁誘惑	-6591
▁誠実	-6592
▁読者	-6593
▁論文	-6594
▁講義	-6595
▁負傷	-6596
▁貧乏	-6597
▁販売	-6598
▁責め	-6599
▁貴社	-6600
▁費用	-6601
▁貿易	-6602
▁賃金	-6603
▁資格	-6604
▁賞賛	-6605
▁賢明	-6606
▁超え	-6607
▁踏み	-6608
▁身体	-6609
▁軍隊	-6610
▁輸入	-6611
▁輸出	-6612
▁通用	-6613
▁週末	-6614
▁進歩	-6615
▁都合	-6616
▁金融	-6617
▁閉鎖	-6618
▁開発	-6619
▁階段	-6620
▁震え	-6621
▁青年	-6622
▁順調	-6623
▁預け	-6624
▁頑張	-6625
▁風呂	-6626
▁飲料	-6627
▁飲酒	-6628
▁飽き	-6629
▁香り	-6630
▁高価	-6631
かじめ	-6632
キシコ	-6633
クテル	-6634
スター	-6635
セント	-6636
タイル	-6637
ットボ	-6638
ディー	-6639
ランプ	-6640
リスト	-6641
リング	-6642
abet	-6643
alog	-6644
aret	-6645
aved	-6646
bers	-6647
cher	-6648
cing	-6649
cket	-6650
cles	-6651
elve	-6652
esus	-6653
gent	-6654
head	-6655
ibly	-6656
ieve	-6657
ilar	-6658
ingu	-6659
irac	-6660
iron	-6661
ivid	-6662
ivil	-6663
lebr	-6664
lict	-6665
lies	-6666
mark	-6667
ocol	-6668
omin	-6669
ophy	-6670
oted	-6671
play	-6672
ples	-6673
reme	-6674
seas	-6675
stem	-6676
tail	-6677
uded	-6678
upid	-6679
xico	-6680
▁bro	-6681
▁cre	-6682
▁dry	-6683
▁fed	-6684
▁fog	-6685
▁fre	-6686
▁gar	-6687
▁gym	-6688
▁hyp	-6689
▁jam	-6690
▁lim	-6691
▁lit	-6692
▁mac	-6693
▁rod	-6694
▁shr	-6695
▁tor	-6696
▁tun	-6697
▁あそこ	-6698
▁おいし	-6699
▁かっと	-6700
▁かつて	-6701
▁かばん	-6702
▁からか	-6703
▁かわり	-6704
▁きょう	-6705
▁したが	-6706
▁そっと	-6707
▁つきあ	-6708
▁とたん	-6709
▁どおり	-6710
▁にわか	-6711
▁はずれ	-6712
▁まして	-6713
▁まちが	-6714
▁まわり	-6715
▁みたい	-6716
▁アイス	-6717
▁インフ	-6718
▁エイズ	-6719
▁カード	-6720
▁ガラス	-6721
▁コイン	-6722
▁コピー	-6723
▁サンド	-6724
▁ジャズ	-6725
▁タイヤ	-6726
▁タオル	-6727
▁ダイヤ	-6728
▁チョコ	-6729
▁チーズ	-6730
▁トイレ	-6731
▁ノート	-6732
▁ハワイ	-6733
▁パター	-6734
▁ビデオ	-6735
▁ヘレン	-6736
▁ベンチ	-6737
▁ボタン	-6738
▁ボーイ	-6739
▁ルーム	-6740
▁仕上げ	-6741
▁出来事	-6742
▁取り消	-6743
▁引っ越	-6744
▁思いつ	-6745
▁早起き	-6746
▁申し訳	-6747
▁終わり	-6748
▁見送り	-6749
▁言い訳	-6750
ァベット	-6751
ジェクト	-6752
ッション	-6753
ティング	-6754
abled	-6755
ading	-6756
agedy	-6757
aired	-6758
anges	-6759
arent	-6760
arily	-6761
avity	-6762
berty	-6763
clear	-6764
ctual	-6765
enced	-6766
endid	-6767
epend	-6768
essed	-6769
iable	-6770
icken	-6771
ictly	-6772
ieved	-6773
ified	-6774
iment	-6775
itate	-6776
itude	-6777
iture	-6778
night	-6779
ology	-6780
onely	-6781
orses	-6782
otion	-6783
tered	-6784
uence	-6785
ufact	-6786
urred	-6787
vings	-6788
▁acts	-6789
▁adop	-6790
▁aids	-6791
▁alph	-6792
▁army	-6793
▁beat	-6794
▁bent	-6795
▁betr	-6796
▁bold	-6797
▁brit	-6798
▁cand	-6799
▁chap	-6800
▁chat	-6801
▁conn	-6802
▁cows	-6803
▁craw	-6804
▁data	-6805
▁debt	-6806
▁desp	-6807
▁diet	-6808
▁fame	-6809
▁fare	-6810
▁fest	-6811
▁forg	-6812
▁fork	-6813
▁furn	-6814
▁fuss	-6815
▁gest	-6816
▁harm	-6817
▁hook	-6818
▁idle	-6819
▁inex	-6820
▁jazz	-6821
▁kobe	-6822
▁koko	-6823
▁lack	-6824
▁lent	-6825
▁lion	-6826
▁lock	-6827
▁meas	-6828
▁murd	-6829
▁neck	-6830
▁pens	-6831
▁pets	-6832
▁pred	-6833
▁push	-6834
▁quot	-6835
▁role	-6836
▁rome	-6837
▁rout	-6838
▁sake	-6839
▁sale	-6840
▁shar	-6841
▁site	-6842
▁sofa	-6843
▁spot	-6844
▁thor	-6845
▁tune	-6846
▁unex	-6847
▁vase	-6848
▁vast	-6849
▁vice	-6850
▁wake	-6851
▁welc	-6852
▁いっそう	-6853
▁おっしゃ	-6854
▁おもちゃ	-6855
▁ずいぶん	-6856
▁たいした	-6857
▁っぱなし	-6858
▁どきどき	-6859
▁カーテン	-6860
▁キャロル	-6861
▁サービス	-6862
▁ショック	-6863
▁ディナー	-6864
▁フォーク	-6865
▁フットボ	-6866
▁メキシコ	-6867
▁リーダー	-6868
▁レコード	-6869
▁乗り換え	-6870
▁取り替え	-6871
▁当てはま	-6872
▁日暮らし	-6873
cially	-6874
ffered	-6875
ically	-6876
idents	-6877
itated	-6878
ivered	-6879
lished	-6880
manent	-6881
ounded	-6882
perate	-6883
rested	-6884
terson	-6885
verest	-6886
▁acted	-6887
▁admir	-6888
▁aimed	-6889
▁airpl	-6890
▁aware	-6891
▁benef	-6892
▁blank	-6893
▁boast	-6894
▁brain	-6895
▁brave	-6896
▁calls	-6897
▁carol	-6898
▁civil	-6899
▁cliff	-6900
▁coins	-6901
▁crazy	-6902
▁crime	-6903
▁cruel	-6904
▁debts	-6905
▁depos	-6906
▁disgu	-6907
▁dried	-6908
▁drunk	-6909
▁eaten	-6910
▁enemy	-6911
▁error	-6912
▁extra	-6913
▁falls	-6914
▁fever	-6915
▁films	-6916
▁finan	-6917
▁flood	-6918
▁frost	-6919
▁funds	-6920
▁gains	-6921
▁grass	-6922
▁greet	-6923
▁guide	-6924
▁helen	-6925
▁hello	-6926
▁honor	-6927
▁horiz	-6928
▁impro	-6929
▁incre	-6930
▁jesus	-6931
▁jokes	-6932
▁leads	-6933
▁loose	-6934
▁lower	-6935
▁lucky	-6936
▁marks	-6937
▁maybe	-6938
▁noted	-6939
▁notes	-6940
▁postp	-6941
▁rates	-6942
▁recei	-6943
▁recon	-6944
▁regul	-6945
▁relig	-6946
▁rooms	-6947
▁seats	-6948
▁separ	-6949
▁shore	-6950
▁slept	-6951
▁solar	-6952
▁staff	-6953
▁style	-6954
▁super	-6955
▁thick	-6956
▁throw	-6957
▁tight	-6958
▁towel	-6959
▁trade	-6960
▁treas	-6961
▁users	-6962
▁using	-6963
▁vital	-6964
▁weeks	-6965
▁あらかじめ	-6966
▁パターソン	-6967
▁プレゼント	-6968
ocolate	-6969
▁10,000	-6970
▁active	-6971
▁admits	-6972
▁animal	-6973
▁appeal	-6974
▁argued	-6975
▁artist	-6976
▁assign	-6977
▁assist	-6978
▁barely	-6979
▁breaks	-6980
▁bullet	-6981
▁buried	-6982
▁castle	-6983
▁celebr	-6984
▁center	-6985
▁cheeks	-6986
▁cheese	-6987
▁cloudy	-6988
▁common	-6989
▁contin	-6990
▁counts	-6991
▁demand	-6992
▁democr	-6993
▁differ	-6994
▁dollar	-6995
▁factor	-6996
▁fallen	-6997
▁finger	-6998
▁fourth	-6999
▁gained	-7000
▁growth	-7001
▁handed	-7002
▁hawaii	-7003
▁horses	-7004
▁insist	-7005
▁ladies	-7006
▁lonely	-7007
▁manage	-7008
▁memory	-7009
▁mexico	-7010
▁normal	-7011
▁parked	-7012
▁photos	-7013
▁picked	-7014
▁praise	-7015
▁prohib	-7016
▁pulled	-7017
▁recent	-7018
▁refuge	-7019
▁relief	-7020
▁rights	-7021
▁scream	-7022
▁served	-7023
▁sights	-7024
▁silent	-7025
▁skiing	-7026
▁sleepy	-7027
▁social	-7028
▁solved	-7029
▁sorrow	-7030
▁sounds	-7031
▁stupid	-7032
▁system	-7033
▁taller	-7034
▁terror	-7035
▁thirst	-7036
▁twelve	-7037
▁unable	-7038
▁urgent	-7039
▁wishes	-7040
▁フットボール	-7041
▁プロジェクト	-7042
▁ミーティング	-7043
ironment	-7044
▁actions	-7045
▁actress	-7046
▁affairs	-7047
▁aggress	-7048
▁allowed	-7049
▁amounts	-7050
▁anxiety	-7051
▁arrival	-7052
▁bedroom	-7053
▁belongs	-7054
▁blowing	-7055
▁capital	-7056
▁charity	-7057
▁chicken	-7058
▁chinese	-7059
▁cleared	-7060
▁collect	-7061
▁command	-7062
▁consist	-7063
▁control	-7064
▁counter	-7065
▁customs	-7066
▁delight	-7067
▁dismiss	-7068
▁distant	-7069
▁doctors	-7070
▁drowned	-7071
▁engaged	-7072
▁extreme	-7073
▁feature	-7074
▁figures	-7075
▁finance	-7076
▁fingers	-7077
▁forever	-7078
▁gravity	-7079
▁greatly	-7080
▁holding	-7081
▁imagine	-7082
▁imposed	-7083
▁knowing	-7084
▁liberty	-7085
▁medical	-7086
▁mothers	-7087
▁mystery	-7088
▁nations	-7089
▁noticed	-7090
▁nuclear	-7091
▁opening	-7092
▁painter	-7093
▁prevent	-7094
▁protest	-7095
▁quarter	-7096
▁quietly	-7097
▁records	-7098
▁remains	-7099
▁rolling	-7100
▁savings	-7101
▁scholar	-7102
▁scolded	-7103
▁seconds	-7104
▁shaking	-7105
▁similar	-7106
▁somehow	-7107
▁speaker	-7108
▁suppose	-7109
▁tragedy	-7110
▁typical	-7111
▁version	-7112
▁warning	-7113
▁washing	-7114
▁windows	-7115
▁winning	-7116
▁アルファベット	-7117
▁absorbed	-7118
▁accounts	-7119
▁activity	-7120
▁alphabet	-7121
▁answered	-7122
▁apparent	-7123
▁argument	-7124
▁arrested	-7125
▁changing	-7126
▁charming	-7127
▁compared	-7128
▁conflict	-7129
▁critical	-7130
▁declined	-7131
▁directed	-7132
▁disaster	-7133
▁distingu	-7134
▁district	-7135
▁economic	-7136
▁entrance	-7137
▁festival	-7138
▁fluently	-7139
▁friendly	-7140
▁greatest	-7141
▁holidays	-7142
▁independ	-7143
▁innocent	-7144
▁insisted	-7145
▁location	-7146
▁manufact	-7147
▁midnight	-7148
▁national	-7149
▁novelist	-7150
▁original	-7151
▁overlook	-7152
▁overseas	-7153
▁patience	-7154
▁patients	-7155
▁politics	-7156
▁possibly	-7157
▁probable	-7158
▁punctual	-7159
▁released	-7160
▁salesman	-7161
▁scarcely	-7162
▁services	-7163
▁smoothly	-7164
▁splendid	-7165
▁strictly	-7166
▁strongly	-7167
▁suffered	-7168
▁thorough	-7169
▁tourists	-7170
▁troubles	-7171
▁unfortun	-7172
▁accidents	-7173
▁adventure	-7174
▁announced	-7175
▁appointed	-7176
▁beginning	-7177
▁childhood	-7178
▁chocolate	-7179
▁delivered	-7180
▁destroyed	-7181
▁discovery	-7182
▁essential	-7183
▁foreigner	-7184
▁influence	-7185
▁intervals	-7186
▁objection	-7187
▁paintings	-7188
▁patterson	-7189
▁performed	-7190
▁permanent	-7191
▁persuaded	-7192
▁pollution	-7193
▁professor	-7194
▁receiving	-7195
▁recession	-7196
▁regularly	-7197
▁reluctant	-7198
▁secretary	-7199
▁attractive	-7200
▁conference	-7201
▁confidence	-7202
▁downstairs	-7203
▁foreigners	-7204
▁foundation	-7205
▁hesitation	-7206
▁immigrants	-7207
▁importance	-7208
▁impression	-7209
▁invitation	-7210
▁newspapers	-7211
▁preferable	-7212
▁production	-7213
▁unexpected	-7214
▁application	-7215
▁comfortable	-7216
▁consequence	-7217
▁development	-7218
▁environment	-7219
▁experiences	-7220
▁interrupted	-7221
▁mathematics	-7222
▁performance	-7223
▁regulations	-7224
▁temperature	-7225
▁carelessness	-7226
▁disappointed	-7227
▁neighborhood	-7228
▁relationship	-7229
▁communication	-7230
bb	-7231
gl	-7232
go	-7233
wh	-7234
zz	-7235
▁ぴ	-7236
▁七	-7237
▁仰	-7238
▁億	-7239
▁典	-7240
▁削	-7241
▁匹	-7242
▁叱	-7243
▁善	-7244
▁囚	-7245
▁壮	-7246
▁妙	-7247
▁寸	-7248
▁崩	-7249
▁干	-7250
▁庫	-7251
▁往	-7252
▁徹	-7253
▁志	-7254
▁恒	-7255
▁挑	-7256
▁摂	-7257
▁操	-7258
▁暴	-7259
▁更	-7260
▁林	-7261
▁柔	-7262
▁株	-7263
▁核	-7264
▁棒	-7265
▁模	-7266
▁毒	-7267
▁沸	-7268
▁波	-7269
▁浴	-7270
▁渇	-7271
▁湯	-7272
▁湿	-7273
▁溺	-7274
▁潜	-7275
▁潮	-7276
▁牧	-7277
▁狩	-7278
▁猟	-7279
▁獲	-7280
▁症	-7281
▁硬	-7282
▁算	-7283
▁緩	-7284
▁署	-7285
▁脚	-7286
▁脳	-7287
▁臆	-7288
▁臨	-7289
▁莫	-7290
▁虐	-7291
▁袋	-7292
▁装	-7293
▁訴	-7294
▁謎	-7295
▁貢	-7296
▁越	-7297
▁闘	-7298
▁陰	-7299
.5	-7300
pe	-7301
ps	-7302
sy	-7303
▁x	-7304
▁ヤ	-7305
▁久	-7306
▁乳	-7307
▁仮	-7308
▁伯	-7309
▁係	-7310
▁勢	-7311
▁占	-7312
▁号	-7313
▁喉	-7314
▁墜	-7315
▁崖	-7316
▁念	-7317
▁攻	-7318
▁昆	-7319
▁枝	-7320
▁派	-7321
▁竜	-7322
▁範	-7323
▁罰	-7324
▁聖	-7325
▁貨	-7326
▁賄	-7327
▁陳	-7328
▁陽	-7329
▁障	-7330
▁霊	-7331
▁鶏	-7332
えば	-7333
かせ	-7334
がめ	-7335
がれ	-7336
すか	-7337
ずね	-7338
どま	-7339
なら	-7340
はり	-7341
ばら	-7342
びつ	-7343
ぶし	-7344
らべ	-7345
り道	-7346
るさ	-7347
るし	-7348
アン	-7349
ィス	-7350
ケツ	-7351
ザン	-7352
ザー	-7353
シア	-7354
スク	-7355
ステ	-7356
ッセ	-7357
トル	-7358
ナダ	-7359
ナナ	-7360
ニア	-7361
パイ	-7362
ラダ	-7363
ラマ	-7364
ルス	-7365
ルド	-7366
ワー	-7367
ンザ	-7368
ーナ	-7369
ーブ	-7370
一人	-7371
下げ	-7372
乞食	-7373
亡人	-7374
可欠	-7375
嫉妬	-7376
懸け	-7377
押し	-7378
担当	-7379
掛け	-7380
探し	-7381
登り	-7382
矢理	-7383
組み	-7384
表せ	-7385
込め	-7386
ago	-7387
aki	-7388
ana	-7389
arr	-7390
awa	-7391
bye	-7392
com	-7393
cut	-7394
hew	-7395
hus	-7396
iny	-7397
iod	-7398
juk	-7399
io	-7400
my	-7401
▁M	-7402
▁X	-7403
▁勧	-7404
▁慌	-7405
▁油	-7406
▁炎	-7407
▁舌	-7408
▁衛	-7409
▁谷	-7410
▁貰	-7411
い主	-7412
くし	-7413
こと	-7414
とり	-7415
なじ	-7416
びし	-7417
ぶり	-7418
み出	-7419
やす	-7420
らげ	-7421
カゴ	-7422
カチ	-7423
ゲン	-7424
シス	-7425
バイ	-7426
ユコ	-7427
ロー	-7428
止め	-7429
ker	-7430
olt	-7431
omp	-7432
osh	-7433
ped	-7434
por	-7435
put	-7436
rat	-7437
uff	-7438
ume	-7439
urb	-7440
wic	-7441
▁22	-7442
▁90	-7443
▁bi	-7444
▁ms	-7445
▁od	-7446
▁ve	-7447
▁いで	-7448
▁いと	-7449
▁いれ	-7450
▁うず	-7451
▁うら	-7452
▁おけ	-7453
▁おと	-7454
▁お腹	-7455
▁かみ	-7456
▁かろ	-7457
▁きち	-7458
▁きつ	-7459
▁きり	-7460
▁くさ	-7461
▁くつ	-7462
▁けっ	-7463
▁こな	-7464
▁ごく	-7465
▁ごみ	-7466
▁ごろ	-7467
▁さい	-7468
▁ささ	-7469
▁さっ	-7470
▁さよ	-7471
▁すみ	-7472
▁つれ	-7473
▁でか	-7474
▁とげ	-7475
▁なぞ	-7476
▁ねえ	-7477
▁のこ	-7478
▁のぼ	-7479
▁のみ	-7480
▁はさ	-7481
▁はな	-7482
▁ぶつ	-7483
▁ぶら	-7484
▁ほら	-7485
▁まね	-7486
▁まわ	-7487
▁まん	-7488
▁めざ	-7489
▁めで	-7490
▁もた	-7491
▁もと	-7492
▁ろう	-7493
▁イメ	-7494
▁エジ	-7495
▁エレ	-7496
▁オレ	-7497
▁キロ	-7498
▁ギリ	-7499
▁ぽ	-7500
▁充	-7501
▁副	-7502
▁千	-7503
▁帳	-7504
▁恵	-7505
▁桜	-7506
▁港	-7507
▁端	-7508
▁糸	-7509
▁細	-7510
▁罪	-7511
▁設	-7512
なる	-7513
り込	-7514
セル	-7515
チョ	-7516
パン	-7517
ルエ	-7518
ログ	-7519
助け	-7520
受け	-7521
生き	-7522
aps	-7523
bon	-7524
eag	-7525
ero	-7526
olf	-7527
▁24	-7528
▁gh	-7529
▁おや	-7530
▁さて	-7531
▁とに	-7532
▁ゆえ	-7533
▁オフ	-7534
▁カ国	-7535
▁ケネ	-7536
▁スカ	-7537
▁デイ	-7538
▁デザ	-7539
▁ネコ	-7540
▁バー	-7541
▁パス	-7542
▁ピザ	-7543
▁フィ	-7544
▁フラ	-7545
▁フロ	-7546
▁ブレ	-7547
▁ブロ	-7548
▁ママ	-7549
▁メン	-7550
▁ルー	-7551
▁一切	-7552
▁一度	-7553
▁万事	-7554
▁下が	-7555
▁下げ	-7556
▁下ろ	-7557
▁不当	-7558
▁不明	-7559
▁不満	-7560
▁不運	-7561
▁両方	-7562
▁中央	-7563
▁中東	-7564
▁主に	-7565
▁久し	-7566
▁乞食	-7567
▁乱れ	-7568
▁予期	-7569
▁争い	-7570
▁今回	-7571
▁今後	-7572
▁今月	-7573
▁今週	-7574
▁休日	-7575
▁会員	-7576
▁会計	-7577
▁伝統	-7578
▁低下	-7579
▁体重	-7580
▁何故	-7581
▁作り	-7582
▁作曲	-7583
▁作法	-7584
▁侵略	-7585
▁便利	-7586
▁保証	-7587
▁信号	-7588
▁信念	-7589
▁信用	-7590
▁修繕	-7591
▁倒産	-7592
▁停車	-7593
▁偽善	-7594
▁優雅	-7595
▁免許	-7596
▁入浴	-7597
▁入院	-7598
▁八方	-7599
oe	-7600
to	-7601
▁園	-7602
▁妨	-7603
▁崇	-7604
▁師	-7605
▁球	-7606
びえ	-7607
また	-7608
▁ぐっ	-7609
▁すま	-7610
▁だい	-7611
▁公衆	-7612
▁共同	-7613
▁典型	-7614
▁冷た	-7615
▁出演	-7616
▁出生	-7617
▁分別	-7618
▁初心	-7619
▁利害	-7620
▁制度	-7621
▁制限	-7622
▁削減	-7623
▁割れ	-7624
▁助力	-7625
▁動機	-7626
▁勤め	-7627
▁区別	-7628
▁医学	-7629
▁半ば	-7630
▁半分	-7631
▁印刷	-7632
▁印象	-7633
▁危な	-7634
▁厳密	-7635
▁反乱	-7636
▁収穫	-7637
▁受験	-7638
▁合意	-7639
▁同社	-7640
▁周囲	-7641
▁味方	-7642
▁喫煙	-7643
▁四国	-7644
▁回転	-7645
▁団体	-7646
▁土産	-7647
▁在宅	-7648
▁地下	-7649
▁埋め	-7650
▁報道	-7651
▁報酬	-7652
▁墜落	-7653
▁変装	-7654
▁多少	-7655
▁大胆	-7656
▁大量	-7657
▁大雨	-7658
▁天体	-7659
▁夫人	-7660
▁失業	-7661
▁嫉妬	-7662
▁学問	-7663
▁安心	-7664
▁実現	-7665
▁家具	-7666
▁対照	-7667
▁対立	-7668
▁封筒	-7669
▁小川	-7670
▁小鳥	-7671
▁少数	-7672
▁就職	-7673
▁左右	-7674
▁平等	-7675
▁年金	-7676
▁広が	-7677
▁床屋	-7678
▁庭園	-7679
▁引退	-7680
▁弾け	-7681
▁急激	-7682
▁恐怖	-7683
▁悪化	-7684
▁悪魔	-7685
▁情熱	-7686
▁想像	-7687
▁愛情	-7688
▁愛想	-7689
▁感覚	-7690
▁慌て	-7691
▁成田	-7692
▁所有	-7693
▁手が	-7694
▁手術	-7695
▁扱い	-7696
▁担当	-7697
▁拍手	-7698
▁拡張	-7699
▁指摘	-7700
▁捕ま	-7701
▁捜査	-7702
▁掛か	-7703
▁探索	-7704
▁提供	-7705
▁揺れ	-7706
▁改善	-7707
▁攻撃	-7708
▁教室	-7709
▁教訓	-7710
▁数え	-7711
▁数字	-7712
▁文明	-7713
▁文章	-7714
▁文通	-7715
▁断言	-7716
▁新型	-7717
▁新宿	-7718
▁新年	-7719
▁施設	-7720
▁日付	-7721
▁日没	-7722
▁昆虫	-7723
▁昇進	-7724
▁易し	-7725
▁時期	-7726
▁普段	-7727
▁景色	-7728
▁暗記	-7729
▁暮れ	-7730
▁書物	-7731
▁最上	-7732
▁最低	-7733
▁最新	-7734
▁木々	-7735
▁木の	-7736
▁未来	-7737
▁来月	-7738
▁果て	-7739
▁果物	-7740
▁様子	-7741
▁横浜	-7742
▁欠け	-7743
▁欠席	-7744
▁正当	-7745
▁残酷	-7746
▁気温	-7747
▁水準	-7748
▁沈黙	-7749
▁活気	-7750
▁温度	-7751
▁満た	-7752
▁火曜	-7753
▁災害	-7754
▁無礼	-7755
▁無罪	-7756
▁物事	-7757
▁物質	-7758
▁特徴	-7759
▁独裁	-7760
▁独身	-7761
▁甘え	-7762
▁生命	-7763
▁産物	-7764
▁由美	-7765
▁男子	-7766
▁留ま	-7767
▁発作	-7768
▁発砲	-7769
▁登山	-7770
▁登校	-7771
▁目撃	-7772
▁目標	-7773
▁目覚	-7774
▁相応	-7775
▁眠り	-7776
▁知事	-7777
▁知恵	-7778
▁石油	-7779
▁礼儀	-7780
▁礼拝	-7781
▁祖母	-7782
▁移動	-7783
▁程度	-7784
▁空腹	-7785
▁競技	-7786
▁答案	-7787
▁範囲	-7788
▁紅葉	-7789
▁級友	-7790
▁結構	-7791
▁群衆	-7792
▁習得	-7793
▁聖書	-7794
▁職員	-7795
▁脅か	-7796
▁脇腹	-7797
▁臆病	-7798
▁自ら	-7799
▁自殺	-7800
▁臭い	-7801
▁舞台	-7802
▁芝居	-7803
▁芝生	-7804
▁花瓶	-7805
▁莫大	-7806
▁蒸気	-7807
▁表情	-7808
▁被害	-7809
▁製造	-7810
▁要望	-7811
▁見出	-7812
▁見知	-7813
▁見積	-7814
▁視覚	-7815
▁覚悟	-7816
▁解き	-7817
▁解け	-7818
▁解雇	-7819
▁言及	-7820
▁記事	-7821
▁記憶	-7822
▁詰め	-7823
▁読み	-7824
▁豊富	-7825
▁貢献	-7826
▁貴方	-7827
▁走れ	-7828
▁足り	-7829
▁軽蔑	-7830
▁込み	-7831
▁近代	-7832
▁近所	-7833
▁迷惑	-7834
▁退職	-7835
▁途方	-7836
▁通れ	-7837
▁通信	-7838
▁通知	-7839
▁連邦	-7840
▁進め	-7841
▁進行	-7842
▁遅く	-7843
▁運べ	-7844
▁過去	-7845
▁違反	-7846
▁選挙	-7847
▁重大	-7848
▁障害	-7849
▁集ま	-7850
▁電報	-7851
▁青春	-7852
▁面会	-7853
▁順応	-7854
▁頑固	-7855
▁食後	-7856
▁食物	-7857
▁首尾	-7858
▁駆け	-7859
▁騒ぎ	-7860
▁魔法	-7861
▁黄色	-7862
うじて	-7863
かまし	-7864
しゃく	-7865
っぱら	-7866
らいら	-7867
りつけ	-7868
り立て	-7869
イッチ	-7870
ギング	-7871
シック	-7872
ストン	-7873
スマン	-7874
ッキー	-7875
ックス	-7876
ッシュ	-7877
テスト	-7878
ニング	-7879
ネット	-7880
バイス	-7881
ペット	-7882
メント	-7883
ュージ	-7884
リーン	-7885
レート	-7886
ロール	-7887
ンサー	-7888
ントン	-7889
ージー	-7890
ートン	-7891
当たり	-7892
ales	-7893
ards	-7894
ares	-7895
asso	-7896
athy	-7897
back	-7898
bted	-7899
cean	-7900
cipl	-7901
clus	-7902
days	-7903
enth	-7904
face	-7905
geon	-7906
goti	-7907
hama	-7908
haps	-7909
husi	-7910
ials	-7911
ians	-7912
iche	-7913
idow	-7914
iles	-7915
ints	-7916
irts	-7917
itiz	-7918
itor	-7919
izza	-7920
juku	-7921
kind	-7922
like	-7923
nedy	-7924
omes	-7925
omob	-7926
ores	-7927
orge	-7928
orms	-7929
osen	-7930
oser	-7931
ouds	-7932
oyal	-7933
pens	-7934
phew	-7935
plic	-7936
rate	-7937
reng	-7938
resp	-7939
teen	-7940
tery	-7941
upil	-7942
utes	-7943
vest	-7944
▁300	-7945
▁ack	-7946
▁apt	-7947
▁aya	-7948
▁bee	-7949
▁bom	-7950
▁bow	-7951
▁bud	-7952
▁bye	-7953
▁cig	-7954
▁coo	-7955
▁cow	-7956
▁der	-7957
▁dig	-7958
▁elb	-7959
▁eth	-7960
▁fit	-7961
▁gat	-7962
▁glo	-7963
▁gri	-7964
▁hak	-7965
▁hir	-7966
▁jan	-7967
▁kil	-7968
▁lic	-7969
▁lou	-7970
▁luc	-7971
▁meg	-7972
▁mos	-7973
▁mrs	-7974
▁mud	-7975
▁mum	-7976
▁net	-7977
▁non	-7978
▁nut	-7979
▁oil	-7980
▁raw	-7981
▁sam	-7982
▁sav	-7983
▁sew	-7984
▁sex	-7985
▁sou	-7986
▁tip	-7987
▁tre	-7988
▁und	-7989
▁van	-7990
▁voy	-7991
▁yam	-7992
▁うるさ	-7993
▁おそれ	-7994
▁おどろ	-7995
▁おなじ	-7996
▁おまえ	-7997
▁およそ	-7998
▁かかれ	-7999
▁かどで	-8000
▁がんば	-8001
▁この世	-8002
▁しだい	-8003
▁しるし	-8004
▁すばや	-8005
▁すり減	-8006
▁たずね	-8007
▁たった	-8008
▁たやす	-8009
▁だらし	-8010
▁とどま	-8011
▁どっち	-8012
▁なんか	-8013
▁ふもと	-8014
▁ほっと	-8015
▁まさか	-8016
▁やがて	-8017
▁やはり	-8018
▁アイデ	-8019
▁カウン	-8020
▁カナダ	-8021
▁カレー	-8022
▁ガイド	-8023
▁コロン	-8024
▁シカゴ	-8025
▁シング	-8026
▁スーツ	-8027
▁ドラマ	-8028
▁ナイフ	-8029
▁バイオ	-8030
▁バイク	-8031
▁バケツ	-8032
▁バッグ	-8033
▁バナナ	-8034
▁バージ	-8035
▁パイプ	-8036
▁パンク	-8037
▁ピカソ	-8038
▁プレー	-8039
▁ベッド	-8040
▁ホール	-8041
▁マユコ	-8042
▁メイド	-8043
▁メイン	-8044
▁ヨット	-8045
▁ライン	-8046
▁ラテン	-8047
▁リスト	-8048
▁リンゴ	-8049
▁不可欠	-8050
▁例えば	-8051
▁傷つけ	-8052
▁入り口	-8053
▁切り離	-8054
▁取り戻	-8055
▁取り組	-8056
▁取り除	-8057
▁名付け	-8058
▁命懸け	-8059
▁夜明け	-8060
▁子ども	-8061
▁年寄り	-8062
▁手助け	-8063
▁押し入	-8064
▁散らか	-8065
▁未亡人	-8066
▁気の毒	-8067
▁浮かべ	-8068
▁生み出	-8069
▁真っ赤	-8070
▁知り合	-8071
▁立ち去	-8072
▁笑い出	-8073
▁聞き入	-8074
▁腕組み	-8075
▁見かけ	-8076
▁見つか	-8077
▁身振り	-8078
▁長生き	-8079
▁顔つき	-8080
ルエンザ	-8081
acing	-8082
adium	-8083
aling	-8084
aries	-8085
chief	-8086
ckets	-8087
eding	-8088
eless	-8089
erful	-8090
fered	-8091
gging	-8092
icago	-8093
icing	-8094
icked	-8095
ikoku	-8096
inary	-8097
inite	-8098
irtue	-8099
istry	-8100
itals	-8101
light	-8102
mates	-8103
omach	-8104
oning	-8105
orced	-8106
orted	-8107
oston	-8108
pired	-8109
shine	-8110
stood	-8111
store	-8112
storm	-8113
ulate	-8114
ulous	-8115
using	-8116
wards	-8117
▁airs	-8118
▁ange	-8119
▁barg	-8120
▁beef	-8121
▁boil	-8122
▁boyf	-8123
▁bush	-8124
▁cage	-8125
▁calm	-8126
▁cash	-8127
▁cong	-8128
▁cool	-8129
▁crew	-8130
▁curi	-8131
▁damn	-8132
▁dare	-8133
▁dawn	-8134
▁dial	-8135
▁dust	-8136
▁eats	-8137
▁edge	-8138
▁envy	-8139
▁espe	-8140
▁excl	-8141
▁firm	-8142
▁flag	-8143
▁forb	-8144
▁frag	-8145
▁fund	-8146
▁gain	-8147
▁gang	-8148
▁goal	-8149
▁grab	-8150
▁gree	-8151
▁hasn	-8152
▁hero	-8153
▁hers	-8154
▁inch	-8155
▁july	-8156
▁keen	-8157
▁kiss	-8158
▁lazy	-8159
▁lean	-8160
▁leap	-8161
▁liqu	-8162
▁lump	-8163
▁misf	-8164
▁murm	-8165
▁nest	-8166
▁nove	-8167
▁nurs	-8168
▁obed	-8169
▁obst	-8170
▁ones	-8171
▁owns	-8172
▁pace	-8173
▁path	-8174
▁peak	-8175
▁phil	-8176
▁pipe	-8177
▁pool	-8178
▁rank	-8179
▁reck	-8180
▁rely	-8181
▁rent	-8182
▁roll	-8183
▁rope	-8184
▁sens	-8185
▁sits	-8186
▁skin	-8187
▁sons	-8188
▁sour	-8189
▁stim	-8190
▁surr	-8191
▁symp	-8192
▁thus	-8193
▁tide	-8194
▁tiny	-8195
▁tool	-8196
▁tore	-8197
▁trad	-8198
▁trif	-8199
▁tues	-8200
▁tunn	-8201
▁wage	-8202
▁ways	-8203
▁weep	-8204
▁wond	-8205
▁wore	-8206
▁yach	-8207
▁yosh	-8208
▁yumi	-8209
▁zero	-8210
▁ありがた	-8211
▁いたずら	-8212
▁いったん	-8213
▁いらいら	-8214
▁きちんと	-8215
▁ぐっすり	-8216
▁さまざま	-8217
▁さよなら	-8218
▁しゃべり	-8219
▁ほんとう	-8220
▁もっとも	-8221
▁イメージ	-8222
▁オフィス	-8223
▁オレンジ	-8224
▁カクテル	-8225
▁キリスト	-8226
▁ギリシャ	-8227
▁グリーン	-8228
▁ジョージ	-8229
▁スカート	-8230
▁スケート	-8231
▁スタイル	-8232
▁ステーキ	-8233
▁ストレス	-8234
▁ストーブ	-8235
▁スージー	-8236
▁ソファー	-8237
▁チャンス	-8238
▁トラック	-8239
▁トランプ	-8240
▁トンネル	-8241
▁ドライブ	-8242
▁ナンシー	-8243
▁ハンカチ	-8244
▁ピーター	-8245
▁フレンド	-8246
▁ボストン	-8247
▁ポケット	-8248
▁ミュージ	-8249
▁メンバー	-8250
▁一人一人	-8251
▁受け入れ	-8252
▁夜更かし	-8253
▁引き受け	-8254
▁思い出せ	-8255
▁拾い上げ	-8256
▁振る舞い	-8257
▁書き留め	-8258
▁無理矢理	-8259
▁生きがい	-8260
▁話し合い	-8261
aceful	-8262
action	-8263
anches	-8264
arrass	-8265
ellion	-8266
ending	-8267
entive	-8268
iments	-8269
inated	-8270
ipping	-8271
ishing	-8272
jected	-8273
lected	-8274
market	-8275
nessed	-8276
ressed	-8277
tained	-8278
tation	-8279
uction	-8280
urance	-8281
velope	-8282
wiches	-8283
▁1,000	-8284
▁abide	-8285
▁accum	-8286
▁accur	-8287
▁actor	-8288
▁adult	-8289
▁ahead	-8290
▁allot	-8291
▁ample	-8292
▁areas	-8293
▁aston	-8294
▁awake	-8295
▁awoke	-8296
▁barks	-8297
▁based	-8298
▁bears	-8299
▁begun	-8300
▁blood	-8301
▁bones	-8302
▁boots	-8303
▁broad	-8304
▁burgl	-8305
▁buses	-8306
▁cakes	-8307
▁cases	-8308
▁chall	-8309
▁charm	-8310
▁citiz	-8311
▁clerk	-8312
▁coast	-8313
▁costs	-8314
▁crash	-8315
▁crops	-8316
▁cured	-8317
▁curry	-8318
▁daily	-8319
▁deals	-8320
▁decor	-8321
▁delay	-8322
▁delic	-8323
▁deser	-8324
▁devil	-8325
▁dived	-8326
▁divis	-8327
▁estab	-8328
▁exper	-8329
▁fancy	-8330
▁folly	-8331
▁force	-8332
▁frequ	-8333
▁ghost	-8334
▁girlf	-8335
▁glory	-8336
▁grave	-8337
▁guard	-8338
▁handy	-8339
▁hates	-8340
▁hurts	-8341
▁image	-8342
▁indif	-8343
▁invol	-8344
▁issue	-8345
▁knife	-8346
▁latin	-8347
▁level	-8348
▁lions	-8349
▁loses	-8350
▁loyal	-8351
▁magic	-8352
▁meant	-8353
▁minds	-8354
▁minor	-8355
▁mirac	-8356
▁mouse	-8357
▁nancy	-8358
▁occup	-8359
▁ocean	-8360
▁pages	-8361
▁perse	-8362
▁peter	-8363
▁pilot	-8364
▁pizza	-8365
▁plain	-8366
▁prime	-8367
▁pupil	-8368
▁relax	-8369
▁roads	-8370
▁rocks	-8371
▁route	-8372
▁schem	-8373
▁screw	-8374
▁sells	-8375
▁shame	-8376
▁shape	-8377
▁shelf	-8378
▁sides	-8379
▁sings	-8380
▁sixty	-8381
▁south	-8382
▁speed	-8383
▁spell	-8384
▁steak	-8385
▁stops	-8386
▁stove	-8387
▁stret	-8388
▁subst	-8389
▁susie	-8390
▁tales	-8391
▁taste	-8392
▁taxes	-8393
▁techn	-8394
▁threw	-8395
▁track	-8396
▁trial	-8397
▁truck	-8398
▁truly	-8399
▁waves	-8400
▁widow	-8401
▁wrest	-8402
▁かろうじて	-8403
▁かわいそう	-8404
▁かんしゃく	-8405
▁アドバイス	-8406
▁カウンター	-8407
▁カーペット	-8408
▁クラシック	-8409
▁コンテスト	-8410
▁ジョギング	-8411
▁ジョンソン	-8412
▁バイオリン	-8413
▁バージョン	-8414
▁パーセント	-8415
▁持ち合わせ	-8416
▁生まれつき	-8417
ciation	-8418
cipline	-8419
ificial	-8420
istered	-8421
ization	-8422
mentary	-8423
mission	-8424
ography	-8425
ometers	-8426
omobile	-8427
pleased	-8428
utation	-8429
▁abrupt	-8430
▁acknow	-8431
▁athlet	-8432
▁backed	-8433
▁beggar	-8434
▁behave	-8435
▁beings	-8436
▁belief	-8437
▁beware	-8438
▁bigger	-8439
▁blamed	-8440
▁boston	-8441
▁bother	-8442
▁brains	-8443
▁brings	-8444
▁budget	-8445
▁burden	-8446
▁button	-8447
▁calcul	-8448
▁canada	-8449
▁cancer	-8450
▁carpet	-8451
▁caused	-8452
▁causes	-8453
▁cheers	-8454
▁cherry	-8455
▁clouds	-8456
▁colors	-8457
▁columb	-8458
▁comics	-8459
▁commer	-8460
▁compar	-8461
▁conver	-8462
▁convey	-8463
▁corpor	-8464
▁cotton	-8465
▁coward	-8466
▁curren	-8467
▁danced	-8468
▁dancer	-8469
▁decide	-8470
▁device	-8471
▁double	-8472
▁dreams	-8473
▁ethnic	-8474
▁extend	-8475
▁faster	-8476
▁finals	-8477
▁forest	-8478
▁genius	-8479
▁george	-8480
▁harbor	-8481
▁height	-8482
▁hirose	-8483
▁houses	-8484
▁hypocr	-8485
▁includ	-8486
▁incomp	-8487
▁indeed	-8488
▁indian	-8489
▁insult	-8490
▁kindly	-8491
▁kitten	-8492
▁losing	-8493
▁louder	-8494
▁mainly	-8495
▁manner	-8496
▁mayuko	-8497
▁medium	-8498
▁merely	-8499
▁monkey	-8500
▁murder	-8501
▁narita	-8502
▁native	-8503
▁negoti	-8504
▁nephew	-8505
▁obtain	-8506
▁partly	-8507
▁passes	-8508
▁paying	-8509
▁period	-8510
▁pieces	-8511
▁poetry	-8512
▁prepar	-8513
▁rained	-8514
▁raised	-8515
▁rarely	-8516
▁region	-8517
▁remain	-8518
▁remove	-8519
▁repair	-8520
▁resign	-8521
▁review	-8522
▁runner	-8523
▁safely	-8524
▁sailed	-8525
▁settle	-8526
▁shared	-8527
▁simple	-8528
▁simply	-8529
▁slaves	-8530
▁smells	-8531
▁smiles	-8532
▁spends	-8533
▁spirit	-8534
▁squish	-8535
▁stairs	-8536
▁stream	-8537
▁streng	-8538
▁strike	-8539
▁summit	-8540
▁temple	-8541
▁threes	-8542
▁tricks	-8543
▁undert	-8544
▁useful	-8545
▁values	-8546
▁violin	-8547
▁virtue	-8548
▁vision	-8549
▁voyage	-8550
▁weaker	-8551
▁winner	-8552
▁worthy	-8553
▁yellow	-8554
▁セールスマン	-8555
▁チョコレート	-8556
▁ファッション	-8557
kerchief	-8558
▁100,000	-8559
▁absence	-8560
▁accompl	-8561
▁achieve	-8562
▁admired	-8563
▁adopted	-8564
▁appears	-8565
▁article	-8566
▁balance	-8567
▁britain	-8568
▁catalog	-8569
▁chances	-8570
▁changes	-8571
▁charmed	-8572
▁chicago	-8573
▁cigaret	-8574
▁claimed	-8575
▁cleaned	-8576
▁clearly	-8577
▁colleag	-8578
▁compete	-8579
▁consent	-8580
▁crowded	-8581
▁curtain	-8582
▁devoted	-8583
▁display	-8584
▁dressed	-8585
▁enabled	-8586
▁enthusi	-8587
▁falling	-8588
▁federal	-8589
▁forgive	-8590
▁glanced	-8591
▁glasses	-8592
▁goodbye	-8593
▁grammar	-8594
▁harvest	-8595
▁helpful	-8596
▁horizon	-8597
▁hunting	-8598
▁include	-8599
▁inspect	-8600
▁jogging	-8601
▁johnson	-8602
▁judging	-8603
▁kennedy	-8604
▁knocked	-8605
▁landing	-8606
▁largest	-8607
▁leading	-8608
▁license	-8609
▁longing	-8610
▁luggage	-8611
▁mankind	-8612
▁motorcy	-8613
▁numbers	-8614
▁oranges	-8615
▁package	-8616
▁parking	-8617
▁parties	-8618
▁passion	-8619
▁perhaps	-8620
▁persons	-8621
▁picasso	-8622
▁postage	-8623
▁praised	-8624
▁prepare	-8625
▁proceed	-8626
▁provide	-8627
▁putting	-8628
▁railway	-8629
▁rapidly	-8630
▁receive	-8631
▁recover	-8632
▁reflect	-8633
▁require	-8634
▁respond	-8635
▁scenery	-8636
▁seaside	-8637
▁section	-8638
▁seventy	-8639
▁shikoku	-8640
▁shortly	-8641
▁slipped	-8642
▁solving	-8643
▁stadium	-8644
▁stepped	-8645
▁stomach	-8646
▁streets	-8647
▁sundays	-8648
▁thirsty	-8649
▁trained	-8650
▁travels	-8651
▁tuesday	-8652
▁undergo	-8653
▁variety	-8654
▁venture	-8655
▁weekend	-8656
▁welcome	-8657
▁yielded	-8658
▁インフルエンザ	-8659
▁accepted	-8660
▁actually	-8661
▁addition	-8662
▁adjusted	-8663
▁admitted	-8664
▁airplane	-8665
▁animated	-8666
▁arranged	-8667
▁attitude	-8668
▁bankrupt	-8669
▁borrowed	-8670
▁branches	-8671
▁breaking	-8672
▁brightly	-8673
▁cheerful	-8674
▁citizens	-8675
▁cocktail	-8676
▁contrary	-8677
▁contrast	-8678
▁deprived	-8679
▁directly	-8680
▁discover	-8681
▁dishonor	-8682
▁envelope	-8683
▁extended	-8684
▁football	-8685
▁gathered	-8686
▁gorillas	-8687
▁governor	-8688
▁graceful	-8689
▁hesitate	-8690
▁humanity	-8691
▁ignorant	-8692
▁improved	-8693
▁incident	-8694
▁inclined	-8695
▁intended	-8696
▁interpre	-8697
▁invented	-8698
▁listened	-8699
▁material	-8700
▁movement	-8701
▁needless	-8702
▁notebook	-8703
▁november	-8704
▁obedient	-8705
▁opinions	-8706
▁ordinary	-8707
▁passport	-8708
▁persuade	-8709
▁planning	-8710
▁promised	-8711
▁punished	-8712
▁purposes	-8713
▁recovery	-8714
▁referred	-8715
▁rejected	-8716
▁reliable	-8717
▁relieved	-8718
▁repaired	-8719
▁reported	-8720
▁required	-8721
▁reserved	-8722
▁resulted	-8723
▁screamed	-8724
▁sentence	-8725
▁separate	-8726
▁severely	-8727
▁shinjuku	-8728
▁shoulder	-8729
▁solution	-8730
▁stealing	-8731
▁stopping	-8732
▁stranger	-8733
▁sunshine	-8734
▁thoughts	-8735
▁transfer	-8736
▁upstairs	-8737
▁yokohama	-8738
▁attempted	-8739
▁bookstore	-8740
▁boyfriend	-8741
▁buildings	-8742
▁champions	-8743
▁classroom	-8744
▁companies	-8745
▁computers	-8746
▁confirmed	-8747
▁conscious	-8748
▁criticism	-8749
▁direction	-8750
▁dishonest	-8751
▁dismissed	-8752
▁disrupted	-8753
▁economics	-8754
▁embarrass	-8755
▁employees	-8756
▁extremely	-8757
▁financial	-8758
▁finishing	-8759
▁forgotten	-8760
▁fortunate	-8761
▁furniture	-8762
▁gathering	-8763
▁gentlemen	-8764
▁hospitals	-8765
▁installed	-8766
▁interests	-8767
▁interrupt	-8768
▁magazines	-8769
▁mountains	-8770
▁obstinate	-8771
▁obviously	-8772
▁officials	-8773
▁persisted	-8774
▁practical	-8775
▁preparing	-8776
▁promotion	-8777
▁rebellion	-8778
▁recognize	-8779
▁requested	-8780
▁respected	-8781
▁seriously	-8782
▁traveling	-8783
▁treatment	-8784
▁witnessed	-8785
▁acceptable	-8786
▁activities	-8787
▁admiration	-8788
▁aggressive	-8789
▁apologized	-8790
▁apparently	-8791
▁artificial	-8792
▁automobile	-8793
▁characters	-8794
▁classmates	-8795
▁collecting	-8796
▁connection	-8797
▁democratic	-8798
▁determined	-8799
▁discipline	-8800
▁displeased	-8801
▁elementary	-8802
▁especially	-8803
▁expression	-8804
▁forgetting	-8805
▁girlfriend	-8806
▁impressive	-8807
▁introduced	-8808
▁investment	-8809
▁kilometers	-8810
▁management	-8811
▁opposition	-8812
▁overlooked	-8813
▁peacefully	-8814
▁permission	-8815
▁photograph	-8816
▁popularity	-8817
▁profession	-8818
▁retirement	-8819
▁sandwiches	-8820
▁sufficient	-8821
▁suggestion	-8822
▁temptation	-8823
▁thoroughly	-8824
▁alternative	-8825
▁authorities	-8826
▁disappeared	-8827
▁earthquakes	-8828
▁established	-8829
▁experienced	-8830
▁improvement	-8831
▁independent	-8832
▁investigate	-8833
▁possibility	-8834
▁translation	-8835
▁arrangements	-8836
▁considerable	-8837
▁dictionaries	-8838
▁handkerchief	-8839
▁preparations	-8840
▁reservations	-8841
▁distinguished	-8842
▁international	-8843
▁investigation	-8844
▁understanding	-8845
▁unfortunately	-8846
▁characteristic	-8847
0.	-8848
ho	-8849
ks	-8850
▁ズ	-8851
▁剤	-8852
▁字	-8853
▁幹	-8854
▁恩	-8855
▁松	-8856
▁監	-8857
▁禎	-8858
▁築	-8859
▁維	-8860
▁著	-8861
▁血	-8862
▁衰	-8863
▁鮮	-8864
がわ	-8865
こし	-8866
たえ	-8867
どり	-8868
ガネ	-8869
ツバ	-8870
切り	-8871
厄介	-8872
巻き	-8873
書き	-8874
江戸	-8875
照り	-8876
矛盾	-8877
返し	-8878
面目	-8879
agn	-8880
awn	-8881
ney	-8882
nob	-8883
okk	-8884
oya	-8885
ugg	-8886
uka	-8887
uki	-8888
ups	-8889
urt	-8890
▁49	-8891
▁55	-8892
▁68	-8893
▁95	-8894
▁og	-8895
▁たて	-8896
▁ぶど	-8897
▁ぼん	-8898
▁めく	-8899
▁B	-8900
▁奨	-8901
▁嬢	-8902
いき	-8903
▁わき	-8904
▁イヤ	-8905
▁ウエ	-8906
▁エア	-8907
▁エベ	-8908
▁エン	-8909
▁オペ	-8910
▁カオ	-8911
▁カタ	-8912
▁カル	-8913
▁キス	-8914
▁ゴミ	-8915
▁サム	-8916
▁サン	-8917
▁シン	-8918
▁トマ	-8919
▁トロ	-8920
▁ニュ	-8921
▁ネジ	-8922
▁ハム	-8923
▁パソ	-8924
▁ヒロ	-8925
▁ビン	-8926
▁ビー	-8927
▁ペー	-8928
▁マー	-8929
▁メグ	-8930
▁ヤツ	-8931
▁ユー	-8932
▁レッ	-8933
▁ロス	-8934
▁両腕	-8935
▁並べ	-8936
▁主婦	-8937
▁主要	-8938
▁乗馬	-8939
▁乾杯	-8940
▁予備	-8941
▁交差	-8942
▁交替	-8943
▁交渉	-8944
▁他国	-8945
▁仲直	-8946
▁伝言	-8947
▁伸び	-8948
▁位置	-8949
▁体験	-8950
▁余計	-8951
▁使い	-8952
▁依然	-8953
▁依頼	-8954
▁個人	-8955
▁偏見	-8956
▁健全	-8957
▁働き	-8958
▁優秀	-8959
▁公式	-8960
▁公金	-8961
▁内緒	-8962
▁冷蔵	-8963
▁処理	-8964
▁処置	-8965
▁切望	-8966
▁刑事	-8967
▁制御	-8968
▁割合	-8969
▁励ま	-8970
▁効率	-8971
▁動き	-8972
▁勝て	-8973
▁勝者	-8974
▁勧め	-8975
▁北海	-8976
▁医療	-8977
▁協議	-8978
▁単純	-8979
▁占め	-8980
▁即死	-8981
▁厄介	-8982
▁原子	-8983
▁原稿	-8984
▁厳守	-8985
▁参考	-8986
▁反応	-8987
▁反逆	-8988
▁受か	-8989
▁口数	-8990
▁口答	-8991
▁口調	-8992
▁右足	-8993
▁合唱	-8994
▁同士	-8995
▁名古	-8996
▁向上	-8997
▁和解	-8998
▁商人	-8999
ぐる	-9000
取れ	-9001
把握	-9002
搭乗	-9003
ems	-9004
▁ごめ	-9005
▁オオ	-9006
▁スク	-9007
▁スチ	-9008
▁スプ	-9009
▁先日	-9010
▁取っ	-9011
▁取引	-9012
▁名所	-9013
▁問い	-9014
▁器用	-9015
▁囚人	-9016
▁四つ	-9017
▁四方	-9018
▁固め	-9019
▁固定	-9020
▁国々	-9021
▁地平	-9022
▁地理	-9023
▁基礎	-9024
▁堂々	-9025
▁壮大	-9026
▁売り	-9027
▁外れ	-9028
▁外務	-9029
▁天井	-9030
▁天使	-9031
▁太郎	-9032
▁失せ	-9033
▁失望	-9034
▁奇跡	-9035
▁奨学	-9036
▁女王	-9037
▁好転	-9038
▁妥協	-9039
▁妥当	-9040
▁妻子	-9041
▁安楽	-9042
▁宝物	-9043
▁宝石	-9044
▁実在	-9045
▁実演	-9046
▁宿泊	-9047
▁寝坊	-9048
▁寝室	-9049
▁寺院	-9050
▁対象	-9051
▁専念	-9052
▁専攻	-9053
▁小切	-9054
▁小道	-9055
▁居間	-9056
▁屈辱	-9057
▁展示	-9058
▁山田	-9059
▁山頂	-9060
▁崇高	-9061
▁巻き	-9062
▁市民	-9063
▁常食	-9064
▁平気	-9065
▁幹線	-9066
▁廃棄	-9067
▁建立	-9068
▁引力	-9069
▁強め	-9070
▁形跡	-9071
▁役員	-9072
▁役所	-9073
▁役目	-9074
▁後退	-9075
▁従順	-9076
▁徹夜	-9077
▁心理	-9078
▁怒鳴	-9079
▁急所	-9080
▁急行	-9081
▁恐が	-9082
▁情勢	-9083
▁意志	-9084
▁意義	-9085
▁慣習	-9086
▁成年	-9087
▁戸口	-9088
▁戸締	-9089
▁才女	-9090
▁打者	-9091
▁技師	-9092
▁把握	-9093
▁投函	-9094
▁抜き	-9095
▁抜群	-9096
▁拡大	-9097
▁挑戦	-9098
▁推理	-9099
▁函	-9100
▁河	-9101
かど	-9102
けさ	-9103
の内	-9104
サム	-9105
繁栄	-9106
ato	-9107
ern	-9108
ibi	-9109
▁ずる	-9110
▁アポ	-9111
▁グレ	-9112
▁コミ	-9113
▁下部	-9114
▁不便	-9115
▁函館	-9116
▁前途	-9117
▁前進	-9118
▁化粧	-9119
▁外科	-9120
▁学び	-9121
▁所属	-9122
▁損失	-9123
▁撃ち	-9124
▁撮影	-9125
▁支店	-9126
▁放火	-9127
▁故国	-9128
▁文句	-9129
▁新鮮	-9130
▁旅人	-9131
▁日光	-9132
▁明後	-9133
▁明確	-9134
▁昼間	-9135
▁昼飯	-9136
▁晴天	-9137
▁暴力	-9138
▁曲げ	-9139
▁替え	-9140
▁有り	-9141
▁有用	-9142
▁有給	-9143
▁有頂	-9144
▁本屋	-9145
▁村中	-9146
▁東北	-9147
▁林檎	-9148
▁根本	-9149
▁業績	-9150
▁構築	-9151
▁歓呼	-9152
▁死刑	-9153
▁死者	-9154
▁残り	-9155
▁毛皮	-9156
▁水曜	-9157
▁水車	-9158
▁油断	-9159
▁治療	-9160
▁法規	-9161
▁泣き	-9162
▁洋子	-9163
▁活躍	-9164
▁混乱	-9165
▁混雑	-9166
▁減量	-9167
▁温か	-9168
▁湿気	-9169
▁溺れ	-9170
▁灰色	-9171
▁無し	-9172
▁無数	-9173
▁無限	-9174
▁熱帯	-9175
▁熱烈	-9176
▁独特	-9177
▁猛烈	-9178
▁獲得	-9179
▁現金	-9180
▁理性	-9181
▁用件	-9182
▁用心	-9183
▁画像	-9184
▁発車	-9185
▁白人	-9186
▁目く	-9187
▁目下	-9188
▁看板	-9189
▁真中	-9190
▁矛盾	-9191
▁祖国	-9192
▁禁物	-9193
▁禎子	-9194
▁移住	-9195
▁積極	-9196
▁空き	-9197
▁空中	-9198
▁筆舌	-9199
ka	-9200
▁額	-9201
っぷ	-9202
まみ	-9203
ろい	-9204
挨拶	-9205
購入	-9206
igs	-9207
lig	-9208
sen	-9209
▁25	-9210
▁26	-9211
▁33	-9212
▁et	-9213
▁けち	-9214
▁ねが	-9215
▁ほお	-9216
▁みえ	-9217
▁アリ	-9218
▁カッ	-9219
▁中古	-9220
▁事項	-9221
▁作成	-9222
▁口座	-9223
▁吉田	-9224
▁同僚	-9225
▁回想	-9226
▁増や	-9227
▁悪ふ	-9228
▁成り	-9229
▁手数	-9230
▁手配	-9231
▁挨拶	-9232
▁断然	-9233
▁本棚	-9234
▁本質	-9235
▁来れ	-9236
▁気質	-9237
▁演じ	-9238
▁災難	-9239
▁爆破	-9240
▁生物	-9241
▁知れ	-9242
▁突っ	-9243
▁筋肉	-9244
▁節約	-9245
▁米国	-9246
▁納得	-9247
▁細か	-9248
▁経由	-9249
▁給付	-9250
▁編集	-9251
▁署名	-9252
▁群れ	-9253
▁群集	-9254
▁義理	-9255
▁老い	-9256
▁老後	-9257
▁老齢	-9258
▁脱帽	-9259
▁舞い	-9260
▁船乗	-9261
▁良心	-9262
▁良書	-9263
▁花壇	-9264
▁花火	-9265
▁苦境	-9266
▁虐待	-9267
▁要約	-9268
▁要素	-9269
▁要請	-9270
▁視力	-9271
▁解答	-9272
▁討論	-9273
▁記念	-9274
▁設備	-9275
▁訴え	-9276
▁診断	-9277
▁試着	-9278
▁話題	-9279
▁詳細	-9280
▁語り	-9281
▁説教	-9282
▁論争	-9283
▁論議	-9284
▁講演	-9285
▁警戒	-9286
▁議会	-9287
▁負債	-9288
▁負担	-9289
▁財政	-9290
▁貧困	-9291
▁貨幣	-9292
▁貫通	-9293
▁貯え	-9294
▁貯め	-9295
▁賄賂	-9296
▁資料	-9297
▁購入	-9298
▁走者	-9299
ma	-9300
▁G	-9301
▁務	-9302
▁密	-9303
▁沢	-9304
の中	-9305
まわ	-9306
寿命	-9307
jud	-9308
▁27	-9309
▁vo	-9310
▁あっ	-9311
▁じき	-9312
▁じぎ	-9313
▁ねた	-9314
▁ほて	-9315
▁クミ	-9316
▁フル	-9317
▁ワイ	-9318
▁不在	-9319
▁会見	-9320
▁利点	-9321
▁務め	-9322
▁好奇	-9323
▁寿命	-9324
▁感心	-9325
▁殺害	-9326
▁沢山	-9327
▁清潔	-9328
▁熱望	-9329
▁肉体	-9330
▁自体	-9331
▁自然	-9332
▁越し	-9333
▁路上	-9334
▁踊り	-9335
▁軍縮	-9336
▁転地	-9337
▁転換	-9338
▁転送	-9339
▁軽視	-9340
▁辞任	-9341
▁農業	-9342
▁近道	-9343
▁逃れ	-9344
▁逃亡	-9345
▁逆ら	-9346
▁速力	-9347
▁連休	-9348
▁連想	-9349
▁遂げ	-9350
▁過ち	-9351
▁達成	-9352
▁適任	-9353
▁適用	-9354
▁部下	-9355
▁配達	-9356
▁酸化	-9357
▁酸素	-9358
▁重税	-9359
▁野宿	-9360
▁金儲	-9361
▁金利	-9362
▁金銭	-9363
▁金額	-9364
▁鎮め	-9365
▁門戸	-9366
▁開催	-9367
▁間柄	-9368
▁降ろ	-9369
▁降伏	-9370
▁降参	-9371
▁階下	-9372
▁離婚	-9373
▁難な	-9374
▁難民	-9375
▁雨天	-9376
▁雨林	-9377
▁零下	-9378
▁零点	-9379
▁雷雨	-9380
▁電子	-9381
▁電波	-9382
▁青白	-9383
▁頭脳	-9384
▁風景	-9385
▁食い	-9386
▁飲物	-9387
▁飼い	-9388
▁首相	-9389
▁香港	-9390
▁骨折	-9391
▁骨董	-9392
▁高速	-9393
▁髪型	-9394
▁魅了	-9395
▁黒人	-9396
がわる	-9397
っかく	-9398
っこり	-9399
妊娠	-9400
aos	-9401
bes	-9402
▁OK	-9403
▁づけ	-9404
▁ばあ	-9405
▁ばら	-9406
▁ふさ	-9407
▁みせ	-9408
▁やせ	-9409
▁一周	-9410
▁一方	-9411
▁一歩	-9412
▁一気	-9413
▁一郎	-9414
▁事柄	-9415
▁亡命	-9416
▁全面	-9417
▁出費	-9418
▁刺激	-9419
▁受賞	-9420
▁大金	-9421
▁妊娠	-9422
▁平易	-9423
▁指紋	-9424
▁日常	-9425
▁日時	-9426
▁歯科	-9427
▁気配	-9428
▁看護	-9429
▁等し	-9430
▁行事	-9431
▁見事	-9432
▁見回	-9433
▁見当	-9434
▁見舞	-9435
▁逃避	-9436
▁過剰	-9437
▁鳴ら	-9438
っとも	-9439
ぬぼれ	-9440
めすか	-9441
らめき	-9442
り付け	-9443
アウト	-9444
イント	-9445
ウンド	-9446
エット	-9447
キング	-9448
コール	-9449
ストル	-9450
ッシー	-9451
ツバチ	-9452
ディア	-9453
ピック	-9454
ピーチ	-9455
フィー	-9456
フラン	-9457
ボット	-9458
ミング	-9459
ライキ	-9460
ランダ	-9461
レスト	-9462
レット	-9463
ロット	-9464
ークス	-9465
ースカ	-9466
ースト	-9467
ープロ	-9468
ープン	-9469
adem	-9470
aido	-9471
aign	-9472
aint	-9473
aked	-9474
alse	-9475
anqu	-9476
apon	-9477
ateg	-9478
aven	-9479
azil	-9480
bore	-9481
cake	-9482
coat	-9483
dled	-9484
door	-9485
eath	-9486
fall	-9487
hoku	-9488
iant	-9489
icip	-9490
icts	-9491
ifts	-9492
imum	-9493
inct	-9494
isco	-9495
isky	-9496
knob	-9497
lace	-9498
lant	-9499
92	-9500
▁尻	-9501
▁浅	-9502
▁餅	-9503
▁鯨	-9504
いは	-9505
ビー	-9506
ado	-9507
ird	-9508
▁ut	-9509
▁おお	-9510
▁おく	-9511
▁おさ	-9512
▁きけ	-9513
▁さか	-9514
▁つい	-9515
▁つと	-9516
▁つね	-9517
▁ひょ	-9518
▁ジミ	-9519
▁テキ	-9520
▁ナイ	-9521
▁不正	-9522
▁世論	-9523
▁人体	-9524
▁人質	-9525
▁住宅	-9526
▁体調	-9527
▁作物	-9528
▁勝負	-9529
▁反省	-9530
▁場面	-9531
▁増大	-9532
▁大体	-9533
▁大抵	-9534
▁学園	-9535
▁実施	-9536
▁汚れ	-9537
▁煙草	-9538
▁科目	-9539
▁維持	-9540
▁連続	-9541
▁高齢	-9542
ックリ	-9543
ールズ	-9544
amas	-9545
anch	-9546
bird	-9547
etch	-9548
hern	-9549
hess	-9550
illy	-9551
inch	-9552
laze	-9553
lymp	-9554
nics	-9555
ocks	-9556
odel	-9557
oked	-9558
onst	-9559
oops	-9560
opic	-9561
orns	-9562
oven	-9563
phan	-9564
rets	-9565
rily	-9566
sych	-9567
ties	-9568
tles	-9569
uals	-9570
urik	-9571
vant	-9572
will	-9573
ygen	-9574
zard	-9575
▁123	-9576
▁147	-9577
▁174	-9578
▁195	-9579
▁198	-9580
▁afl	-9581
▁ank	-9582
▁ard	-9583
▁ast	-9584
▁bab	-9585
▁bak	-9586
▁bug	-9587
▁bum	-9588
▁bun	-9589
▁cds	-9590
▁ens	-9591
▁etc	-9592
▁fro	-9593
▁fuk	-9594
▁ful	-9595
▁hig	-9596
▁ich	-9597
▁idl	-9598
▁ink	-9599
▁伊	-9600
▁埃	-9601
▁婚	-9602
▁既	-9603
▁汁	-9604
▁綿	-9605
らえ	-9606
ュニ	-9607
遥か	-9608
alf	-9609
cil	-9610
gal	-9611
ims	-9612
ole	-9613
omy	-9614
ota	-9615
rim	-9616
▁79	-9617
▁あお	-9618
▁あか	-9619
▁あん	-9620
▁うか	-9621
▁うや	-9622
▁こま	-9623
▁そい	-9624
▁とお	-9625
▁もど	-9626
▁もは	-9627
▁よけ	-9628
▁よさ	-9629
▁よせ	-9630
▁一定	-9631
▁改訂	-9632
▁既に	-9633
▁衛星	-9634
▁走り	-9635
▁遥か	-9636
ュニケ	-9637
edic	-9638
egal	-9639
ites	-9640
itis	-9641
oman	-9642
oped	-9643
ouch	-9644
▁120	-9645
▁jul	-9646
▁jun	-9647
▁kim	-9648
▁lax	-9649
▁lun	-9650
▁lux	-9651
▁mas	-9652
▁mel	-9653
▁mim	-9654
▁moz	-9655
▁odd	-9656
▁pal	-9657
▁pan	-9658
▁pit	-9659
▁pos	-9660
▁pus	-9661
▁rad	-9662
▁rib	-9663
▁rot	-9664
▁rub	-9665
▁scr	-9666
▁sen	-9667
▁shy	-9668
▁sop	-9669
▁tag	-9670
▁tid	-9671
▁tra	-9672
▁ver	-9673
▁vol	-9674
▁zoo	-9675
▁あきれ	-9676
▁あわせ	-9677
▁いまだ	-9678
▁うずう	-9679
▁うまい	-9680
▁うやむ	-9681
▁うらや	-9682
▁おいで	-9683
▁おなか	-9684
▁おびえ	-9685
▁おまけ	-9686
▁かがめ	-9687
▁かげん	-9688
▁かしこ	-9689
▁かわる	-9690
▁きびし	-9691
▁くつろ	-9692
▁こっち	-9693
▁ごめん	-9694
▁ささげ	-9695
▁さっき	-9696
▁しつけ	-9697
▁しぶし	-9698
▁じっと	-9699
▁+	-9700
▁候	-9701
やめ	-9702
ズミ	-9703
レオ	-9704
軌道	-9705
難う	-9706
ara	-9707
asc	-9708
boy	-9709
bre	-9710
don	-9711
ien	-9712
nes	-9713
ori	-9714
▁iq	-9715
▁ly	-9716
▁oz	-9717
▁pi	-9718
▁かき	-9719
▁かぎ	-9720
▁しわ	-9721
▁すす	-9722
▁すら	-9723
▁とっ	-9724
▁とめ	-9725
▁とん	-9726
▁はた	-9727
▁まく	-9728
▁まれ	-9729
▁ヒョ	-9730
▁上昇	-9731
▁二十	-9732
▁候補	-9733
▁単独	-9734
▁家屋	-9735
▁手探	-9736
▁手間	-9737
▁抑制	-9738
▁早寝	-9739
▁燃料	-9740
▁軌道	-9741
▁辞め	-9742
▁込め	-9743
▁運行	-9744
▁遠足	-9745
けなし	-9746
mate	-9747
quit	-9748
wise	-9749
▁dim	-9750
▁fle	-9751
▁gap	-9752
▁heh	-9753
▁kum	-9754
▁lap	-9755
▁lis	-9756
▁lyn	-9757
▁rej	-9758
▁tar	-9759
▁tos	-9760
▁あたし	-9761
▁すぐれ	-9762
▁すこし	-9763
▁すっぱ	-9764
▁せめて	-9765
▁そちら	-9766
▁たがい	-9767
▁たって	-9768
▁つづけ	-9769
▁つぶや	-9770
▁つまり	-9771
▁でかけ	-9772
▁でっち	-9773
▁とかく	-9774
▁とんで	-9775
▁どころ	-9776
▁どなり	-9777
▁どんど	-9778
▁なぞな	-9779
▁はした	-9780
▁はるか	-9781
▁はるば	-9782
▁ばかげ	-9783
▁ひいき	-9784
▁ひとと	-9785
▁ぶつか	-9786
▁ぶどう	-9787
▁ぶらぶ	-9788
▁ほとほ	-9789
▁ほんと	-9790
▁まこと	-9791
▁まとも	-9792
▁むなし	-9793
▁めでと	-9794
▁めんど	-9795
▁もたれ	-9796
▁ろうそ	-9797
▁アウト	-9798
▁ウイス	-9799
▁丁	-9800
▁創	-9801
▁浜	-9802
▁灯	-9803
▁烏	-9804
▁甲	-9805
▁磁	-9806
▁福	-9807
▁称	-9808
▁稲	-9809
▁窮	-9810
▁縁	-9811
▁肥	-9812
▁葬	-9813
▁補	-9814
▁貼	-9815
▁跡	-9816
▁轟	-9817
▁遺	-9818
▁陣	-9819
▁露	-9820
▁頬	-9821
▁麻	-9822
あげ	-9823
らけ	-9824
チャ	-9825
hen	-9826
▁はね	-9827
▁ひじ	-9828
▁まあ	-9829
▁主人	-9830
▁喜劇	-9831
▁大会	-9832
▁始発	-9833
▁急ぎ	-9834
▁木造	-9835
▁権力	-9836
▁減ら	-9837
▁登場	-9838
▁破産	-9839
▁規模	-9840
ique	-9841
line	-9842
▁log	-9843
▁unb	-9844
▁unn	-9845
▁おさめ	-9846
▁しかた	-9847
▁ウッド	-9848
▁エッセ	-9849
▁オオカ	-9850
▁オリン	-9851
▁オーケ	-9852
▁オート	-9853
▁カオス	-9854
▁ガール	-9855
▁キープ	-9856
▁ギター	-9857
▁ケリー	-9858
▁ケース	-9859
▁コスト	-9860
▁コンク	-9861
▁ゴール	-9862
▁ジミー	-9863
▁ジャン	-9864
▁ジョー	-9865
▁スパイ	-9866
▁ズボン	-9867
▁センス	-9868
▁ソフト	-9869
▁ソング	-9870
▁チェス	-9871
▁チャー	-9872
▁ティー	-9873
▁トマト	-9874
▁トーナ	-9875
▁ネズミ	-9876
▁バック	-9877
▁パート	-9878
▁ヒョウ	-9879
▁ファイ	-9880
▁ブライ	-9881
▁ブラウ	-9882
▁ブラジ	-9883
▁ブーツ	-9884
▁プラン	-9885
▁プロセ	-9886
▁ベティ	-9887
▁ペンス	-9888
▁マック	-9889
▁メガネ	-9890
▁モール	-9891
▁ルール	-9892
▁レース	-9893
▁ロシア	-9894
▁一押し	-9895
▁世の中	-9896
▁乗り込	-9897
▁仕立て	-9898
▁仲直り	-9899
▁亜	-9900
▁促	-9901
▁凍	-9902
▁剥	-9903
▁厚	-9904
▁双	-9905
▁執	-9906
▁宣	-9907
▁寮	-9908
▁尺	-9909
▁帯	-9910
▁弓	-9911
▁徒	-9912
▁悔	-9913
▁憤	-9914
▁懐	-9915
▁掲	-9916
▁敷	-9917
▁標	-9918
▁洞	-9919
▁蛇	-9920
▁誓	-9921
▁隔	-9922
▁需	-9923
い取	-9924
い込	-9925
うべ	-9926
ざけ	-9927
たわ	-9928
だせ	-9929
もの	-9930
レラ	-9931
哀れ	-9932
売り	-9933
洗い	-9934
遂行	-9935
▁うろ	-9936
▁しの	-9937
▁しみ	-9938
▁せき	-9939
▁ひそ	-9940
▁兄弟	-9941
▁吸収	-9942
▁哀れ	-9943
▁基づ	-9944
▁強化	-9945
▁当時	-9946
▁操縦	-9947
▁教養	-9948
▁江戸	-9949
▁町中	-9950
▁警備	-9951
▁辛抱	-9952
▁遂行	-9953
▁野望	-9954
▁隔て	-9955
▁需要	-9956
まみれ	-9957
illa	-9958
▁133	-9959
▁あちら	-9960
▁ゆうべ	-9961
▁サラダ	-9962
▁セット	-9963
▁ダイビ	-9964
▁バター	-9965
▁分かれ	-9966
▁割り込	-9967
▁北海道	-9968
▁取っ手	-9969
▁取り扱	-9970
▁取り残	-9971
▁口ぶり	-9972
▁口答え	-9973
▁召し使	-9974
▁同じく	-9975
▁吹き出	-9976
▁噛みつ	-9977
▁大した	-9978
▁大勢い	-9979
▁奪い取	-9980
▁安っぽ	-9981
▁小切手	-9982
▁尽くし	-9983
▁山登り	-9984
▁平らげ	-9985
▁引き継	-9986
▁引っ張	-9987
▁微笑み	-9988
▁心遣い	-9989
▁思い付	-9990
▁手の内	-9991
▁手探り	-9992
▁抜け出	-9993
▁抱きし	-9994
▁持ち出	-9995
▁持ち歩	-9996
▁振り返	-9997
▁支払い	-9998
▁日照り	-9999
▁ム	-10000
▁堪	-10001
▁宅	-10002
▁溝	-10003
▁類	-10004
ぬけ	-10005
ばた	-10006
ぼう	-10007
イテ	-10008
ウム	-10009
カル	-10010
カン	-10011
ケル	-10012
ダル	-10013
デル	-10014
ドウ	-10015
ニク	-10016
ブリ	-10017
リコ	-10018
ルコ	-10019
ーウ	-10020
蓄え	-10021
pal	-10022
▁しめ	-10023
▁ひっ	-10024
▁アヤ	-10025
▁トヨ	-10026
▁ムー	-10027
▁保存	-10028
▁多量	-10029
▁対策	-10030
▁年々	-10031
▁恥じ	-10032
▁日間	-10033
▁汚し	-10034
▁清水	-10035
▁由来	-10036
▁目指	-10037
▁移植	-10038
▁蓄え	-10039
▁評判	-10040
▁農作	-10041
▁違法	-10042
easy	-10043
roll	-10044
veal	-10045
▁era	-10046
▁ted	-10047
▁vot	-10048
▁どなた	-10049
▁むこう	-10050
▁トヨタ	-10051
▁レッス	-10052
▁明後日	-10053
▁暮らせ	-10054
▁曲がり	-10055
▁書き込	-10056
▁最寄り	-10057
▁有頂天	-10058
▁木の実	-10059
▁楽しめ	-10060
▁横たわ	-10061
▁決まり	-10062
▁無くな	-10063
▁片付け	-10064
▁申し分	-10065
▁疑わし	-10066
▁真面目	-10067
▁確かめ	-10068
▁突っ込	-10069
▁船乗り	-10070
▁見分け	-10071
▁見当た	-10072
▁見渡せ	-10073
▁解き明	-10074
▁詰め込	-10075
▁語り合	-10076
▁読み返	-10077
▁転がり	-10078
▁連れ出	-10079
▁連れ去	-10080
▁過ぎ去	-10081
▁金儲け	-10082
▁集まり	-10083
▁雇い主	-10084
▁静けさ	-10085
▁飛び込	-10086
▁食べれ	-10087
▁鮮やか	-10088
クション	-10089
グランド	-10090
トロール	-10091
ベーター	-10092
リエット	-10093
ables	-10094
agoya	-10095
akesp	-10096
alley	-10097
ander	-10098
andom	-10099
▁°	-10100
▁巧	-10101
▁極	-10102
▁沖	-10103
▁没	-10104
▁添	-10105
▁熊	-10106
▁狙	-10107
▁療	-10108
▁瞬	-10109
▁縮	-10110
▁胃	-10111
▁膝	-10112
▁菌	-10113
▁蝙	-10114
▁詫	-10115
▁請	-10116
▁軒	-10117
▁郊	-10118
▁隊	-10119
▁駄	-10120
あが	-10121
くわ	-10122
さつ	-10123
っ子	-10124
わめ	-10125
侮辱	-10126
涼し	-10127
磨き	-10128
陶器	-10129
障り	-10130
項目	-10131
飢饉	-10132
▁いす	-10133
▁予言	-10134
▁侮辱	-10135
▁動産	-10136
▁帰れ	-10137
▁敬意	-10138
▁新人	-10139
▁水道	-10140
▁涼し	-10141
▁添え	-10142
▁用紙	-10143
▁田園	-10144
▁療養	-10145
▁瞬間	-10146
▁続き	-10147
▁蝙蝠	-10148
▁視野	-10149
▁詫び	-10150
▁請求	-10151
▁道具	-10152
▁郊外	-10153
▁陶器	-10154
▁隊長	-10155
▁音痴	-10156
▁項目	-10157
▁飢饉	-10158
▁駄目	-10159
erer	-10160
itar	-10161
▁かぎり	-10162
▁ちらり	-10163
▁つかえ	-10164
▁もはや	-10165
▁切り倒	-10166
▁目障り	-10167
▁立ち直	-10168
annel	-10169
apted	-10170
arant	-10171
ardon	-10172
atell	-10173
atoes	-10174
ators	-10175
aving	-10176
borer	-10177
chant	-10178
cient	-10179
ciled	-10180
comer	-10181
endar	-10182
eness	-10183
enged	-10184
ental	-10185
essie	-10186
etary	-10187
feree	-10188
hroom	-10189
iance	-10190
icist	-10191
icted	-10192
icule	-10193
idden	-10194
ieves	-10195
ining	-10196
inton	-10197
iques	-10198
iting	-10199
▁介	-10200
▁史	-10201
▁呈	-10202
▁城	-10203
▁塁	-10204
▁墓	-10205
▁姑	-10206
▁属	-10207
▁幅	-10208
▁復	-10209
▁悟	-10210
▁携	-10211
▁材	-10212
▁板	-10213
▁棚	-10214
▁蔵	-10215
▁辺	-10216
おい	-10217
かご	-10218
はず	-10219
る気	-10220
哲学	-10221
嘲笑	-10222
奈良	-10223
審判	-10224
幽霊	-10225
惜し	-10226
払い	-10227
▁OS	-10228
▁とが	-10229
▁タケ	-10230
▁介護	-10231
▁努め	-10232
▁医師	-10233
▁品物	-10234
▁哲学	-10235
▁嘲笑	-10236
▁奈良	-10237
▁審判	-10238
▁尽き	-10239
▁幽霊	-10240
▁惜し	-10241
▁掛け	-10242
▁接触	-10243
▁携帯	-10244
▁支出	-10245
▁暗殺	-10246
▁滅多	-10247
▁熱中	-10248
▁発電	-10249
▁登録	-10250
▁神秘	-10251
▁苦手	-10252
▁蔵書	-10253
▁調和	-10254
▁軍人	-10255
▁食料	-10256
▁骨身	-10257
リント	-10258
▁enc	-10259
▁joe	-10260
▁しきり	-10261
▁におい	-10262
▁やる気	-10263
▁ゆとり	-10264
▁カレン	-10265
▁ポップ	-10266
▁ローン	-10267
▁逃げ出	-10268
celed	-10269
itled	-10270
itute	-10271
ivery	-10272
lause	-10273
lines	-10274
mbled	-10275
mbles	-10276
momet	-10277
nific	-10278
odate	-10279
odity	-10280
oiced	-10281
oited	-10282
omise	-10283
onent	-10284
orary	-10285
oring	-10286
orous	-10287
osity	-10288
ossom	-10289
ously	-10290
pects	-10291
ribly	-10292
rical	-10293
riger	-10294
rover	-10295
sters	-10296
throp	-10297
uated	-10298
uckle	-10299
76	-10300
▁〜	-10301
▁整	-10302
▁武	-10303
かえ	-10304
きら	-10305
たび	-10306
ピア	-10307
フォ	-10308
ンク	-10309
向か	-10310
776	-10311
eds	-10312
har	-10313
rit	-10314
ura	-10315
▁くせ	-10316
▁なだ	-10317
▁まか	-10318
▁わる	-10319
▁パパ	-10320
▁ボク	-10321
▁モル	-10322
▁不意	-10323
▁代表	-10324
▁勢い	-10325
▁受付	-10326
▁各地	-10327
▁存分	-10328
▁承認	-10329
▁権威	-10330
▁火災	-10331
▁用い	-10332
▁直前	-10333
▁色々	-10334
▁賛辞	-10335
▁食欲	-10336
ereo	-10337
ette	-10338
▁hal	-10339
▁ふるま	-10340
▁ゲート	-10341
▁リリー	-10342
▁ロープ	-10343
▁噛み合	-10344
▁帰り道	-10345
▁見捨て	-10346
▁飼い犬	-10347
fects	-10348
lands	-10349
uggle	-10350
undry	-10351
uries	-10352
uriko	-10353
vable	-10354
vator	-10355
while	-10356
works	-10357
▁12.5	-10358
▁1473	-10359
▁1492	-10360
▁1639	-10361
▁1745	-10362
▁1939	-10363
▁1950	-10364
▁1970	-10365
▁1974	-10366
▁1987	-10367
▁1992	-10368
▁1995	-10369
▁1999	-10370
▁3776	-10371
▁adjo	-10372
▁aged	-10373
▁alto	-10374
▁appe	-10375
▁bags	-10376
▁barn	-10377
▁bask	-10378
▁bing	-10379
▁bolt	-10380
▁bomb	-10381
▁bond	-10382
▁bong	-10383
▁bord	-10384
▁budd	-10385
▁buff	-10386
▁bump	-10387
▁buys	-10388
▁cats	-10389
▁cave	-10390
▁chem	-10391
▁chol	-10392
▁comb	-10393
▁cups	-10394
▁cute	-10395
▁dear	-10396
▁dece	-10397
▁defe	-10398
▁deri	-10399
▁刈	-10400
▁型	-10401
▁章	-10402
▁訳	-10403
▁誌	-10404
▁領	-10405
▁騙	-10406
グラ	-10407
バマ	-10408
出し	-10409
彗星	-10410
息子	-10411
打ち	-10412
騒ぎ	-10413
▁あけ	-10414
▁かあ	-10415
▁たか	-10416
▁とこ	-10417
▁わり	-10418
▁ネタ	-10419
▁今頃	-10420
▁夕飯	-10421
▁外見	-10422
▁当機	-10423
▁彗星	-10424
▁応え	-10425
▁日記	-10426
▁爆弾	-10427
▁眠れ	-10428
▁砂漠	-10429
▁繁栄	-10430
▁複雑	-10431
▁趣旨	-10432
▁近寄	-10433
▁連合	-10434
▁陳述	-10435
イング	-10436
anna	-10437
uros	-10438
▁119	-10439
▁edo	-10440
▁ham	-10441
▁wes	-10442
▁なまけ	-10443
▁もうけ	-10444
▁オバマ	-10445
▁カバー	-10446
▁スター	-10447
▁大騒ぎ	-10448
amond	-10449
andal	-10450
leted	-10451
verty	-10452
▁accl	-10453
▁bone	-10454
▁dess	-10455
▁dict	-10456
▁dies	-10457
▁disl	-10458
▁dorm	-10459
▁drag	-10460
▁drug	-10461
▁duck	-10462
▁dues	-10463
▁elig	-10464
▁elim	-10465
▁evil	-10466
▁fasc	-10467
▁fits	-10468
▁flas	-10469
▁ford	-10470
▁fuel	-10471
▁fulf	-10472
▁glow	-10473
▁grim	-10474
▁hide	-10475
▁hokk	-10476
▁hong	-10477
▁huge	-10478
▁hump	-10479
▁idly	-10480
▁inqu	-10481
▁isol	-10482
▁jiro	-10483
▁jobs	-10484
▁kite	-10485
▁knob	-10486
▁kong	-10487
▁lawn	-10488
▁laws	-10489
▁leop	-10490
▁lest	-10491
▁lets	-10492
▁lied	-10493
▁loan	-10494
▁lots	-10495
▁lucy	-10496
▁mall	-10497
▁mats	-10498
▁mess	-10499
na	-10500
su	-10501
yl	-10502
▁州	-10503
▁蚊	-10504
たり	-10505
ジン	-10506
マイ	-10507
喝采	-10508
行き	-10509
贅沢	-10510
eer	-10511
▁あえ	-10512
▁おこ	-10513
▁つり	-10514
▁なめ	-10515
▁やん	-10516
▁キー	-10517
▁シェ	-10518
▁一貫	-10519
▁中断	-10520
▁伝説	-10521
▁余分	-10522
▁侵入	-10523
▁大戦	-10524
▁大気	-10525
▁天才	-10526
▁孤児	-10527
▁学識	-10528
▁平穏	-10529
▁曜日	-10530
▁更に	-10531
▁模様	-10532
▁滑稽	-10533
▁物音	-10534
▁相違	-10535
▁行儀	-10536
▁贅沢	-10537
▁軽率	-10538
▁迷子	-10539
▁閉店	-10540
▁高ま	-10541
んばい	-10542
シスコ	-10543
▁Mac	-10544
▁apr	-10545
▁fee	-10546
▁さがし	-10547
▁オペラ	-10548
aches	-10549
ishes	-10550
onven	-10551
rious	-10552
▁1979	-10553
▁bees	-10554
▁hate	-10555
▁mole	-10556
▁mort	-10557
▁nano	-10558
▁nara	-10559
▁nons	-10560
▁nour	-10561
▁nuts	-10562
▁pant	-10563
▁pill	-10564
▁pins	-10565
▁port	-10566
▁prim	-10567
▁pron	-10568
▁purs	-10569
▁quiz	-10570
▁raft	-10571
▁rage	-10572
▁reme	-10573
▁rode	-10574
▁rung	-10575
▁russ	-10576
▁sail	-10577
▁sept	-10578
▁sets	-10579
▁shat	-10580
▁sigh	-10581
▁silk	-10582
▁skid	-10583
▁slip	-10584
▁soul	-10585
▁surv	-10586
▁swam	-10587
▁tack	-10588
▁tank	-10589
▁text	-10590
▁ther	-10591
▁tied	-10592
▁tone	-10593
▁torn	-10594
▁toss	-10595
▁tray	-10596
▁trim	-10597
▁trop	-10598
▁unif	-10599
ah	-10600
fo	-10601
▁奉	-10602
▁稿	-10603
▁粉	-10604
▁雌	-10605
▁鬼	-10606
づく	-10607
サギ	-10608
ジャ	-10609
テト	-10610
フェ	-10611
ブス	-10612
acy	-10613
mes	-10614
oat	-10615
▁かご	-10616
▁のり	-10617
▁ミス	-10618
▁一瞬	-10619
▁両手	-10620
▁会費	-10621
▁伯母	-10622
▁全盛	-10623
▁孤独	-10624
▁安否	-10625
▁就寝	-10626
▁待て	-10627
▁投票	-10628
▁搭乗	-10629
▁支援	-10630
▁新車	-10631
▁明か	-10632
▁母語	-10633
▁片方	-10634
▁生地	-10635
▁男女	-10636
▁絵画	-10637
▁論理	-10638
▁返し	-10639
▁預金	-10640
モンド	-10641
crib	-10642
uled	-10643
▁doz	-10644
▁led	-10645
▁ufo	-10646
▁あいだ	-10647
▁つとめ	-10648
▁よけい	-10649
▁クミコ	-10650
▁スリル	-10651
▁ペース	-10652
▁マザー	-10653
▁名古屋	-10654
▁直ちに	-10655
▁言い分	-10656
agers	-10657
osite	-10658
▁nort	-10659
▁rush	-10660
▁sole	-10661
▁unit	-10662
▁wave	-10663
▁wept	-10664
▁wire	-10665
▁woke	-10666
▁wolf	-10667
▁yell	-10668
▁あいさつ	-10669
▁あら探し	-10670
▁あるいは	-10671
▁いかなる	-10672
▁うずうず	-10673
▁うぬぼれ	-10674
▁うやむや	-10675
▁くっきり	-10676
▁けっこう	-10677
▁しぶしぶ	-10678
▁すぐさま	-10679
▁すっきり	-10680
▁せっかく	-10681
▁たいそう	-10682
▁ただちに	-10683
▁たとえば	-10684
▁たびたび	-10685
▁だいたい	-10686
▁だらしな	-10687
▁ちっとも	-10688
▁つきあい	-10689
▁つきまと	-10690
▁とにかく	-10691
▁とんでも	-10692
▁どんどん	-10693
▁なおさら	-10694
▁なけなし	-10695
▁なぞなぞ	-10696
▁のこぎり	-10697
▁はるばる	-10698
▁ひととき	-10699
▁統	-10700
edy	-10701
▁ru	-10702
▁ほえ	-10703
▁人格	-10704
▁代金	-10705
▁余暇	-10706
▁冷め	-10707
▁利子	-10708
▁古典	-10709
▁妨げ	-10710
▁将軍	-10711
▁差別	-10712
▁意思	-10713
▁皮肉	-10714
▁納屋	-10715
▁陽気	-10716
eare	-10717
uous	-10718
▁jew	-10719
▁san	-10720
▁コーン	-10721
▁ライフ	-10722
itors	-10723
tured	-10724
▁dram	-10725
▁ひらめき	-10726
▁ふさわし	-10727
▁ぶらぶら	-10728
▁ほとほと	-10729
▁ぼんやり	-10730
▁まんまと	-10731
▁やかまし	-10732
▁やりくり	-10733
▁やり遂げ	-10734
▁ろうそく	-10735
▁アイデア	-10736
▁アイロン	-10737
▁アリバイ	-10738
▁エジソン	-10739
▁エッセイ	-10740
▁オオカミ	-10741
▁オランダ	-10742
▁オープン	-10743
▁カタログ	-10744
▁クッキー	-10745
▁クリック	-10746
▁コックリ	-10747
▁ショップ	-10748
▁シングル	-10749
▁ジェイン	-10750
▁ジェーム	-10751
▁ステレオ	-10752
▁スピーチ	-10753
▁スーザン	-10754
▁スーパー	-10755
▁デザート	-10756
▁デパート	-10757
▁ハンサム	-10758
▁バウンド	-10759
▁バーゲン	-10760
▁パソコン	-10761
▁ヒロイン	-10762
▁ピストル	-10763
▁フィート	-10764
▁フォード	-10765
▁フライト	-10766
▁フロント	-10767
▁ブラウス	-10768
▁ブラジル	-10769
▁ブレーク	-10770
▁ブロック	-10771
▁ブースカ	-10772
▁プロセス	-10773
▁ペーパー	-10774
▁ホームズ	-10775
▁マスター	-10776
▁ミツバチ	-10777
▁ルーシー	-10778
▁レッスン	-10779
▁ロケット	-10780
▁ロボット	-10781
▁ワープロ	-10782
▁乗り越え	-10783
▁付き合い	-10784
▁作り上げ	-10785
▁取りかか	-10786
▁取りやめ	-10787
▁取り入れ	-10788
▁取り引き	-10789
▁受け付け	-10790
▁受け取れ	-10791
▁召し使い	-10792
▁塗り立て	-10793
▁大当たり	-10794
▁居合わせ	-10795
▁引き下げ	-10796
▁引っかか	-10797
▁悪ふざけ	-10798
▁手がかり	-10799
▁抱きしめ	-10800
▁持ち上げ	-10801
▁曲がり角	-10802
▁有り難う	-10803
▁泥まみれ	-10804
▁申し上げ	-10805
▁申し込み	-10806
▁締め切り	-10807
▁聞き取れ	-10808
▁舞い上が	-10809
▁解き明か	-10810
▁言い表せ	-10811
▁追いつけ	-10812
▁通り抜け	-10813
▁飛び越え	-10814
▁駆け上が	-10815
▁騒ぎ立て	-10816
ネーション	-10817
ademic	-10818
arship	-10819
atical	-10820
atient	-10821
aughty	-10822
borers	-10823
cience	-10824
culiar	-10825
employ	-10826
ensate	-10827
enteen	-10828
etable	-10829
forced	-10830
gnancy	-10831
hargic	-10832
hrooms	-10833
icious	-10834
idency	-10835
igence	-10836
inking	-10837
itions	-10838
ituted	-10839
iverse	-10840
judice	-10841
ledged	-10842
nament	-10843
nesday	-10844
olving	-10845
orious	-10846
osophy	-10847
oughed	-10848
prints	-10849
riages	-10850
ribute	-10851
romise	-10852
undant	-10853
urable	-10854
urally	-10855
▁3,000	-10856
▁abort	-10857
▁abuse	-10858
▁acute	-10859
▁added	-10860
▁admit	-10861
▁adver	-10862
▁alarm	-10863
▁alert	-10864
▁alibi	-10865
▁alike	-10866
▁aloud	-10867
▁ankle	-10868
▁argue	-10869
▁asian	-10870
▁attic	-10871
▁award	-10872
▁awful	-10873
▁backf	-10874
▁baker	-10875
▁banks	-10876
▁basis	-10877
▁beans	-10878
▁beard	-10879
▁betty	-10880
▁bible	-10881
▁bites	-10882
▁blake	-10883
▁blaze	-10884
▁blind	-10885
▁bliss	-10886
▁blown	-10887
▁blows	-10888
▁bonds	-10889
▁brand	-10890
▁brian	-10891
▁brook	-10892
▁buska	-10893
▁chaos	-10894
▁chess	-10895
▁chest	-10896
▁chris	-10897
▁cinch	-10898
▁comet	-10899
▁comic	-10900
▁conce	-10901
▁conqu	-10902
▁crack	-10903
▁craft	-10904
▁crawl	-10905
▁crept	-10906
▁cycle	-10907
▁dated	-10908
▁dealt	-10909
▁dedic	-10910
▁diary	-10911
▁disag	-10912
▁divor	-10913
▁docum	-10914
▁dolls	-10915
▁domin	-10916
▁doors	-10917
▁draft	-10918
▁dread	-10919
▁earns	-10920
▁estim	-10921
▁exert	-10922
▁exhib	-10923
▁faded	-10924
▁false	-10925
▁fatig	-10926
▁feeds	-10927
▁final	-10928
▁fired	-10929
▁flour	-10930
▁flown	-10931
▁foods	-10932
▁forms	-10933
▁franc	-10934
▁freez	-10935
▁froze	-10936
▁fully	-10937
▁gifts	-10938
▁greek	-10939
▁grief	-10940
▁grown	-10941
▁haste	-10942
▁hated	-10943
▁heads	-10944
▁hence	-10945
▁hoped	-10946
▁horns	-10947
▁india	-10948
▁indul	-10949
▁irony	-10950
▁irreg	-10951
▁james	-10952
▁jeans	-10953
▁jimmy	-10954
▁kelly	-10955
▁knees	-10956
▁label	-10957
▁limit	-10958
▁lines	-10959
▁liter	-10960
▁logic	-10961
▁media	-10962
▁merit	-10963
▁merry	-10964
▁mixed	-10965
▁model	-10966
▁moves	-10967
▁noble	-10968
▁noisy	-10969
▁obama	-10970
▁oblig	-10971
▁olymp	-10972
▁opera	-10973
▁orbit	-10974
▁overc	-10975
▁overw	-10976
▁owing	-10977
▁owner	-10978
▁pause	-10979
▁prosp	-10980
▁prove	-10981
▁psych	-10982
▁purch	-10983
▁queen	-10984
▁quote	-10985
▁repet	-10986
▁rings	-10987
▁rival	-10988
▁roman	-10989
▁roses	-10990
▁rough	-10991
▁sadly	-10992
▁salad	-10993
▁scale	-10994
▁schoo	-10995
▁scope	-10996
▁score	-10997
▁scrap	-10998
▁sharp	-10999
▁shine	-11000
▁shout	-11001
▁shudd	-11002
▁silly	-11003
▁skate	-11004
▁skirt	-11005
▁slide	-11006
▁sorts	-11007
▁split	-11008
▁sport	-11009
▁stage	-11010
▁stare	-11011
▁sting	-11012
▁stole	-11013
▁straw	-11014
▁stung	-11015
▁sunny	-11016
▁susan	-11017
▁swear	-11018
▁sweep	-11019
▁swift	-11020
▁takeo	-11021
▁teams	-11022
▁teens	-11023
▁tells	-11024
▁tends	-11025
▁tenth	-11026
▁topic	-11027
▁trail	-11028
▁tries	-11029
▁twist	-11030
▁types	-11031
▁typew	-11032
▁unint	-11033
▁upper	-11034
▁upset	-11035
▁utter	-11036
▁verge	-11037
▁versa	-11038
▁vivid	-11039
▁waist	-11040
▁wanna	-11041
▁wheel	-11042
▁whist	-11043
▁windy	-11044
▁wines	-11045
▁wives	-11046
▁yacht	-11047
▁ひとりでに	-11048
▁アルバイト	-11049
▁ウイスキー	-11050
▁エベレスト	-11051
▁カレンダー	-11052
▁キャンセル	-11053
▁クリントン	-11054
▁ケネディー	-11055
▁コミュニケ	-11056
▁コロンブス	-11057
▁サンフラン	-11058
▁ストライキ	-11059
▁ダイエット	-11060
▁ダイビング	-11061
▁トロフィー	-11062
▁ニュートン	-11063
▁パイロット	-11064
▁パスポート	-11065
▁ブライアン	-11066
▁プレーヤー	-11067
▁ライオンズ	-11068
▁四つんばい	-11069
▁埋め合わせ	-11070
alified	-11071
amental	-11072
ception	-11073
clusion	-11074
entions	-11075
entures	-11076
ichever	-11077
irstyle	-11078
itement	-11079
licated	-11080
mometer	-11081
ortunes	-11082
ouraged	-11083
pensive	-11084
plicity	-11085
respond	-11086
roverts	-11087
ructive	-11088
verance	-11089
willing	-11090
▁30,000	-11091
▁ablaze	-11092
▁adjust	-11093
▁agents	-11094
▁amused	-11095
▁announ	-11096
▁annoys	-11097
▁anyhow	-11098
▁anyway	-11099
▁arched	-11100
▁ardent	-11101
▁assass	-11102
▁attorn	-11103
▁avoids	-11104
▁babies	-11105
▁baking	-11106
▁banana	-11107
▁barber	-11108
▁batter	-11109
▁begged	-11110
▁behalf	-11111
▁betray	-11112
▁blocks	-11113
▁blouse	-11114
▁boasts	-11115
▁boiled	-11116
▁branch	-11117
▁brazil	-11118
▁breast	-11119
▁bucket	-11120
▁cancel	-11121
▁candid	-11122
▁career	-11123
▁cattle	-11124
▁chapel	-11125
▁chosen	-11126
▁collar	-11127
▁colour	-11128
▁comedy	-11129
▁condem	-11130
▁confer	-11131
▁copies	-11132
▁covers	-11133
▁darker	-11134
▁dashed	-11135
▁defend	-11136
▁derive	-11137
▁desert	-11138
▁dining	-11139
▁disarm	-11140
▁divide	-11141
▁diving	-11142
▁drives	-11143
▁earned	-11144
▁edison	-11145
▁ensure	-11146
▁enters	-11147
▁equals	-11148
▁events	-11149
▁exceed	-11150
▁expert	-11151
▁export	-11152
▁famine	-11153
▁flames	-11154
▁forces	-11155
▁formed	-11156
▁former	-11157
▁freely	-11158
▁garage	-11159
▁gently	-11160
▁gladly	-11161
▁gloomy	-11162
▁gotten	-11163
▁guitar	-11164
▁hazard	-11165
▁heated	-11166
▁heaven	-11167
▁hiding	-11168
▁higher	-11169
▁histor	-11170
▁holmes	-11171
▁hunger	-11172
▁hunted	-11173
▁hunter	-11174
▁ichiro	-11175
▁ignore	-11176
▁intend	-11177
▁joined	-11178
▁juliet	-11179
▁kicked	-11180
▁kumiko	-11181
▁landed	-11182
▁lasted	-11183
▁laughs	-11184
▁leaped	-11185
▁legend	-11186
▁liquid	-11187
▁listed	-11188
▁locker	-11189
▁luxury	-11190
▁marked	-11191
▁member	-11192
▁mended	-11193
▁miller	-11194
▁misery	-11195
▁nagoya	-11196
▁needed	-11197
▁nerves	-11198
▁nether	-11199
▁newton	-11200
▁oppose	-11201
▁orders	-11202
▁origin	-11203
▁orphan	-11204
▁output	-11205
▁oxygen	-11206
▁pardon	-11207
▁parted	-11208
▁perish	-11209
▁permit	-11210
▁placed	-11211
▁pocket	-11212
▁poison	-11213
▁porter	-11214
▁posted	-11215
▁poster	-11216
▁priest	-11217
▁prince	-11218
▁prompt	-11219
▁proved	-11220
▁pupils	-11221
▁purple	-11222
▁raises	-11223
▁random	-11224
▁refers	-11225
▁refuse	-11226
▁remark	-11227
▁repent	-11228
▁reprod	-11229
▁resent	-11230
▁resist	-11231
▁reveal	-11232
▁reward	-11233
▁riding	-11234
▁rivers	-11235
▁robots	-11236
▁rocket	-11237
▁rotten	-11238
▁sadako	-11239
▁satell	-11240
▁savage	-11241
▁scenes	-11242
▁scheme	-11243
▁seated	-11244
▁senior	-11245
▁serves	-11246
▁sewing	-11247
▁sexual	-11248
▁shrank	-11249
▁silver	-11250
▁sketch	-11251
▁skills	-11252
▁snowed	-11253
▁sphere	-11254
▁stakes	-11255
▁stared	-11256
▁stereo	-11257
▁stores	-11258
▁stress	-11259
▁subord	-11260
▁suburb	-11261
▁suited	-11262
▁sunset	-11263
▁survey	-11264
▁switch	-11265
▁tasted	-11266
▁tohoku	-11267
▁toyota	-11268
▁tranqu	-11269
▁tribes	-11270
▁triump	-11271
▁troops	-11272
▁trophy	-11273
▁tunnel	-11274
▁turkey	-11275
▁uncons	-11276
▁undone	-11277
▁uneasy	-11278
▁unlike	-11279
▁upside	-11280
▁valley	-11281
▁valued	-11282
▁voices	-11283
▁warned	-11284
▁washes	-11285
▁weapon	-11286
▁whales	-11287
▁wheels	-11288
▁whisky	-11289
▁widely	-11290
▁writes	-11291
▁yamada	-11292
▁yelled	-11293
▁yields	-11294
▁yuriko	-11295
▁かわるがわる	-11296
▁イングランド	-11297
▁エレベーター	-11298
▁オリンピック	-11299
▁サンドイッチ	-11300
▁ジュリエット	-11301
▁ダイヤモンド	-11302
▁トーナメント	-11303
▁ミュージカル	-11304
eresting	-11305
ificance	-11306
inations	-11307
iversary	-11308
nificent	-11309
ribution	-11310
standing	-11311
▁adapted	-11312
▁adhered	-11313
▁amazing	-11314
▁amusing	-11315
▁ancient	-11316
▁anticip	-11317
▁appreci	-11318
▁aspects	-11319
▁assumed	-11320
▁athlete	-11321
▁bargain	-11322
▁battles	-11323
▁becomes	-11324
▁behaved	-11325
▁beneath	-11326
▁benefit	-11327
▁besides	-11328
▁billion	-11329
▁blocked	-11330
▁blossom	-11331
▁blushed	-11332
▁boiling	-11333
▁borders	-11334
▁buckets	-11335
▁burglar	-11336
▁camping	-11337
▁candles	-11338
▁captain	-11339
▁carpets	-11340
▁carries	-11341
▁catches	-11342
▁ceiling	-11343
▁channel	-11344
▁charges	-11345
▁cheaper	-11346
▁cheered	-11347
▁clapped	-11348
▁cleaner	-11349
▁clients	-11350
▁climate	-11351
▁clinton	-11352
▁compare	-11353
▁compass	-11354
▁concent	-11355
▁concern	-11356
▁congrat	-11357
▁contact	-11358
▁cookies	-11359
▁created	-11360
▁crossed	-11361
▁current	-11362
▁dancing	-11363
▁daytime	-11364
▁deceive	-11365
▁demonst	-11366
▁deposit	-11367
▁deprive	-11368
▁deserve	-11369
▁desired	-11370
▁despair	-11371
▁dessert	-11372
▁diamond	-11373
▁differs	-11374
▁digital	-11375
▁discrim	-11376
▁divides	-11377
▁drastic	-11378
▁dreamed	-11379
▁drought	-11380
▁earning	-11381
▁eastern	-11382
▁elbowed	-11383
▁emerged	-11384
▁enterpr	-11385
▁everest	-11386
▁exports	-11387
▁eyesore	-11388
▁fainted	-11389
▁farmers	-11390
▁flashes	-11391
▁fragile	-11392
▁gesture	-11393
▁gorilla	-11394
▁greeted	-11395
▁guarant	-11396
▁hanging	-11397
▁hardest	-11398
▁hearted	-11399
▁heroine	-11400
▁highway	-11401
▁hirosey	-11402
▁housing	-11403
▁ignored	-11404
▁illegal	-11405
▁imitate	-11406
▁implies	-11407
▁individ	-11408
▁insects	-11409
▁islands	-11410
▁italian	-11411
▁justify	-11412
▁largely	-11413
▁laundry	-11414
▁leather	-11415
▁located	-11416
▁lookout	-11417
▁manners	-11418
▁message	-11419
▁methods	-11420
▁missing	-11421
▁monster	-11422
▁mosquit	-11423
▁mozilla	-11424
▁muscles	-11425
▁musical	-11426
▁naughty	-11427
▁needles	-11428
▁nursing	-11429
▁offered	-11430
▁omitted	-11431
▁outdoor	-11432
▁outlook	-11433
▁partner	-11434
▁pencils	-11435
▁pension	-11436
▁physics	-11437
▁picnics	-11438
▁pointed	-11439
▁postman	-11440
▁poverty	-11441
▁prefect	-11442
▁prevail	-11443
▁pricked	-11444
▁produce	-11445
▁radical	-11446
▁readers	-11447
▁readily	-11448
▁reality	-11449
▁reduced	-11450
▁referee	-11451
▁refined	-11452
▁refugee	-11453
▁regards	-11454
▁repairs	-11455
▁replied	-11456
▁reports	-11457
▁resumed	-11458
▁retired	-11459
▁revised	-11460
▁roaring	-11461
▁rumored	-11462
▁russian	-11463
▁sailing	-11464
▁scandal	-11465
▁shakesp	-11466
▁sharply	-11467
▁shocked	-11468
▁shorter	-11469
▁shuttle	-11470
▁signals	-11471
▁snowing	-11472
▁stretch	-11473
▁surface	-11474
▁surgeon	-11475
▁suspect	-11476
▁swelled	-11477
▁tallest	-11478
▁teacups	-11479
▁thanked	-11480
▁thieves	-11481
▁touched	-11482
▁touches	-11483
▁transpl	-11484
▁violent	-11485
▁visitor	-11486
▁watches	-11487
▁wealthy	-11488
▁western	-11489
▁wonders	-11490
▁yoshida	-11491
▁チェックアウト	-11492
▁abundant	-11493
▁academic	-11494
▁accurate	-11495
▁actuated	-11496
▁addicted	-11497
▁advanced	-11498
▁affirmed	-11499
▁allotted	-11500
▁antiques	-11501
▁appealed	-11502
▁applause	-11503
▁approval	-11504
▁articles	-11505
▁assigned	-11506
▁athletes	-11507
▁attached	-11508
▁attempts	-11509
▁benefits	-11510
▁betrayed	-11511
▁breathed	-11512
▁brothers	-11513
▁burnable	-11514
▁bursting	-11515
▁calendar	-11516
▁campaign	-11517
▁canceled	-11518
▁carriage	-11519
▁catching	-11520
▁childish	-11521
▁choosing	-11522
▁cleaning	-11523
▁colorful	-11524
▁columbus	-11525
▁commands	-11526
▁commerce	-11527
▁composer	-11528
▁concerts	-11529
▁continue	-11530
▁counting	-11531
▁customer	-11532
▁deceived	-11533
▁definite	-11534
▁delicate	-11535
▁delivery	-11536
▁deserted	-11537
▁designed	-11538
▁destined	-11539
▁develops	-11540
▁dictator	-11541
▁director	-11542
▁disguise	-11543
▁division	-11544
▁doorknob	-11545
▁doubtful	-11546
▁dropping	-11547
▁educated	-11548
▁elevator	-11549
▁eligible	-11550
▁emphasis	-11551
▁employed	-11552
▁employee	-11553
▁engineer	-11554
▁enjoying	-11555
▁entitled	-11556
▁examined	-11557
▁examples	-11558
▁exciting	-11559
▁expanded	-11560
▁explored	-11561
▁fashions	-11562
▁fighting	-11563
▁generous	-11564
▁graduate	-11565
▁hakodate	-11566
▁handsome	-11567
▁hokkaido	-11568
▁hopeless	-11569
▁hostages	-11570
▁identify	-11571
▁identity	-11572
▁idleness	-11573
▁incompet	-11574
▁inconven	-11575
▁increase	-11576
▁indicate	-11577
▁inspired	-11578
▁internal	-11579
▁involved	-11580
▁isolated	-11581
▁laborers	-11582
▁machines	-11583
▁measures	-11584
▁memories	-11585
▁merchant	-11586
▁misunder	-11587
▁moderate	-11588
▁monetary	-11589
▁moreover	-11590
▁mornings	-11591
▁murderer	-11592
▁murmured	-11593
▁musician	-11594
▁narrowly	-11595
▁newcomer	-11596
▁nonsense	-11597
▁northern	-11598
▁obtained	-11599
▁occurred	-11600
▁opponent	-11601
▁opposite	-11602
▁overwork	-11603
▁particip	-11604
▁peaceful	-11605
▁peculiar	-11606
▁polished	-11607
▁politely	-11608
▁polluted	-11609
▁postpone	-11610
▁precious	-11611
▁predicts	-11612
▁presents	-11613
▁preserve	-11614
▁pressure	-11615
▁previous	-11616
▁prisoner	-11617
▁produced	-11618
▁profound	-11619
▁progress	-11620
▁railroad	-11621
▁rational	-11622
▁realized	-11623
▁refriger	-11624
▁regarded	-11625
▁rejoiced	-11626
▁relation	-11627
▁religion	-11628
▁reminded	-11629
▁requires	-11630
▁restored	-11631
▁restrict	-11632
▁ridicule	-11633
▁roommate	-11634
▁selected	-11635
▁shipment	-11636
▁sickness	-11637
▁software	-11638
▁sometime	-11639
▁spending	-11640
▁sprained	-11641
▁standard	-11642
▁strength	-11643
▁stronger	-11644
▁struggle	-11645
▁supplies	-11646
▁sympathy	-11647
▁teachers	-11648
▁telegram	-11649
▁tendency	-11650
▁terribly	-11651
▁textbook	-11652
▁theories	-11653
▁thirteen	-11654
▁threaten	-11655
▁throwing	-11656
▁traveled	-11657
▁traveler	-11658
▁treasure	-11659
▁tropical	-11660
▁troubled	-11661
▁unemploy	-11662
▁vanished	-11663
▁visitors	-11664
▁weekends	-11665
▁サンフランシスコ	-11666
▁accepting	-11667
▁acclaimed	-11668
▁addressed	-11669
▁affection	-11670
▁agreement	-11671
▁arguments	-11672
▁assistant	-11673
▁attentive	-11674
▁beginners	-11675
▁birthrate	-11676
▁certainly	-11677
▁chemistry	-11678
▁cigarette	-11679
▁commanded	-11680
▁commodity	-11681
▁complains	-11682
▁completed	-11683
▁confessed	-11684
▁consented	-11685
▁consulted	-11686
▁contented	-11687
▁cooperate	-11688
▁curiosity	-11689
▁decorated	-11690
▁delighted	-11691
▁desperate	-11692
▁directory	-11693
▁documents	-11694
▁effective	-11695
▁elections	-11696
▁eliminate	-11697
▁emphasize	-11698
▁employing	-11699
▁engineers	-11700
▁exercises	-11701
▁existence	-11702
▁exploited	-11703
▁expressed	-11704
▁factories	-11705
▁fireworks	-11706
▁forbidden	-11707
▁francisco	-11708
▁gangsters	-11709
▁geography	-11710
▁gradually	-11711
▁hairstyle	-11712
▁happening	-11713
▁hypocrisy	-11714
▁ignorance	-11715
▁impatient	-11716
▁including	-11717
▁increased	-11718
▁increases	-11719
▁indicated	-11720
▁indicates	-11721
▁innocence	-11722
▁insurance	-11723
▁intention	-11724
▁interpret	-11725
▁interview	-11726
▁irregular	-11727
▁lethargic	-11728
▁lightning	-11729
▁lunchtime	-11730
▁materials	-11731
▁mentioned	-11732
▁mushrooms	-11733
▁musicians	-11734
▁mysteries	-11735
▁naturally	-11736
▁necessity	-11737
▁operation	-11738
▁otherwise	-11739
▁perceived	-11740
▁perfectly	-11741
▁permitted	-11742
▁positions	-11743
▁potential	-11744
▁pregnancy	-11745
▁prejudice	-11746
▁pretended	-11747
▁principal	-11748
▁principle	-11749
▁processor	-11750
▁reception	-11751
▁recovered	-11752
▁reflected	-11753
▁religious	-11754
▁remembers	-11755
▁resembles	-11756
▁responded	-11757
▁revolving	-11758
▁scheduled	-11759
▁sensitive	-11760
▁sentences	-11761
▁september	-11762
▁seventeen	-11763
▁shattered	-11764
▁shuddered	-11765
▁signature	-11766
▁statesman	-11767
▁suspected	-11768
▁suspended	-11769
▁temporary	-11770
▁therefore	-11771
▁timetable	-11772
▁tradition	-11773
▁transform	-11774
▁uncertain	-11775
▁undertake	-11776
▁unwilling	-11777
▁wednesday	-11778
▁whichever	-11779
▁whistling	-11780
▁wrestling	-11781
▁コミュニケーション	-11782
▁accomplish	-11783
▁adventures	-11784
▁afterwards	-11785
▁altogether	-11786
▁appearance	-11787
▁applicants	-11788
▁approached	-11789
▁assignment	-11790
▁attendance	-11791
▁businesses	-11792
▁challenged	-11793
▁colleagues	-11794
▁collection	-11795
▁compensate	-11796
▁compromise	-11797
▁conclusion	-11798
▁conditions	-11799
▁conscience	-11800
▁continuous	-11801
▁correspond	-11802
▁criticized	-11803
▁department	-11804
▁developing	-11805
▁directions	-11806
▁electrical	-11807
▁excitement	-11808
▁experiment	-11809
▁frequently	-11810
▁literature	-11811
▁mysterious	-11812
▁personally	-11813
▁persuading	-11814
▁philosophy	-11815
▁prediction	-11816
▁presidency	-11817
▁principles	-11818
▁prohibited	-11819
▁protesting	-11820
▁reasonable	-11821
▁recognized	-11822
▁reconciled	-11823
▁registered	-11824
▁repetition	-11825
▁reputation	-11826
▁sentiments	-11827
▁simplicity	-11828
▁specialize	-11829
▁stimulated	-11830
▁succeeding	-11831
▁surrounded	-11832
▁suspicious	-11833
▁threatened	-11834
▁tournament	-11835
▁understood	-11836
▁worthwhile	-11837
▁accommodate	-11838
▁achievement	-11839
▁anniversary	-11840
▁approaching	-11841
▁arrangement	-11842
▁comparative	-11843
▁complaining	-11844
▁complicated	-11845
▁considerate	-11846
▁constructed	-11847
▁contributed	-11848
▁convenience	-11849
▁corporation	-11850
▁countryside	-11851
▁disarmament	-11852
▁disposition	-11853
▁distributed	-11854
▁electricity	-11855
▁embarrassed	-11856
▁expectation	-11857
▁fortunately	-11858
▁fundamental	-11859
▁grammatical	-11860
▁inexpensive	-11861
▁instructive	-11862
▁interpreted	-11863
▁investments	-11864
▁magnificent	-11865
▁misfortunes	-11866
▁motorcycles	-11867
▁necessarily	-11868
▁negotiating	-11869
▁netherlands	-11870
▁occupations	-11871
▁personality	-11872
▁punctuality	-11873
▁reluctantly	-11874
▁scholarship	-11875
▁selfishness	-11876
▁shakespeare	-11877
▁subordinate	-11878
▁supermarket	-11879
▁temperament	-11880
▁thermometer	-11881
▁thunderbird	-11882
▁transaction	-11883
▁unconscious	-11884
▁acknowledged	-11885
▁astonishment	-11886
▁championship	-11887
▁civilization	-11888
▁considerably	-11889
▁construction	-11890
▁demonstrated	-11891
▁enthusiastic	-11892
▁indifference	-11893
▁manufactures	-11894
▁newspaperman	-11895
▁perseverance	-11896
▁significance	-11897
▁congratulated	-11898
▁environmental	-11899
▁inconvenience	-11900
▁opportunities	-11901
▁relationships	-11902
▁uninteresting	-11903
▁discrimination	-11904
▁recommendation	-11905
.0.	-11906
0.1	-11907
ezz	-11908
rho	-11909
uzz	-11910
▁GM	-11911
▁MP	-11912
▁ぴか	-11913
▁ぽか	-11914
▁ぽん	-11915
▁七光	-11916
▁乳母	-11917
▁乳牛	-11918
▁亜紀	-11919
▁仮病	-11920
▁仰向	-11921
▁伊勢	-11922
▁伊藤	-11923
▁充分	-11924
▁充実	-11925
▁凍え	-11926
▁剥奪	-11927
▁剥離	-11928
▁創造	-11929
▁勢力	-11930
▁勧告	-11931
▁占い	-11932
▁双子	-11933
▁善悪	-11934
▁善行	-11935
▁執り	-11936
▁執筆	-11937
▁堪能	-11938
▁壮観	-11939
▁妨害	-11940
▁婚約	-11941
▁密告	-11942
▁密接	-11943
▁寸分	-11944
▁寸前	-11945
▁尺度	-11946
▁尻目	-11947
▁崇拝	-11948
▁巧み	-11949
▁巧妙	-11950
▁師団	-11951
▁干し	-11952
▁干渉	-11953
▁往々	-11954
▁往復	-11955
▁往生	-11956
▁徒歩	-11957
▁復習	-11958
▁徹底	-11959
▁志望	-11960
▁恒心	-11961
▁恒産	-11962
▁恩人	-11963
▁恩恵	-11964
▁悔や	-11965
▁掲げ	-11966
▁掲示	-11967
▁摂取	-11968
▁摂氏	-11969
▁整理	-11970
▁敷設	-11971
▁暴露	-11972
▁松川	-11973
▁松野	-11974
▁柔軟	-11975
▁株主	-11976
▁極度	-11977
▁極端	-11978
▁標本	-11979
▁標識	-11980
▁武器	-11981
▁武士	-11982
▁毒菌	-11983
▁沸か	-11984
▁洞察	-11985
▁浴び	-11986
▁浴場	-11987
▁溺死	-11988
▁灯火	-11989
▁烏有	-11990
▁牧草	-11991
▁狩り	-11992
▁猟銃	-11993
▁猟鳥	-11994
▁球場	-11995
▁甲板	-11996
▁監視	-11997
▁磁石	-11998
▁祈り	-11999
zae	-12000
▁Ap	-12001
▁争議	-12002
▁伴奏	-12003
▁偏差	-12004
▁偽り	-12005
▁催し	-12006
▁刑務	-12007
▁南極	-12008
▁即席	-12009
▁即座	-12010
▁吉報	-12011
▁囲い	-12012
▁境界	-12013
▁巣食	-12014
▁承知	-12015
▁承諾	-12016
▁拍車	-12017
▁揺ら	-12018
▁敬服	-12019
▁殴り	-12020
▁氷山	-12021
▁沿い	-12022
▁照れ	-12023
▁猛威	-12024
▁百科	-12025
▁眼鏡	-12026
▁福田	-12027
▁称え	-12028
▁称賛	-12029
▁稲作	-12030
▁積み	-12031
▁算出	-12032
▁算段	-12033
▁細縄	-12034
▁統一	-12035
▁統制	-12036
▁総理	-12037
▁緩め	-12038
▁縁台	-12039
▁肥満	-12040
▁臨時	-12041
▁臨機	-12042
▁至急	-12043
▁著名	-12044
▁著者	-12045
▁葬儀	-12046
▁虐げ	-12047
▁虫歯	-12048
▁虫除	-12049
▁衰え	-12050
▁衰弱	-12051
▁装置	-12052
▁補償	-12053
▁設立	-12054
▁謎め	-12055
▁谷間	-12056
▁跡地	-12057
▁辺り	-12058
▁遺伝	-12059
▁遺言	-12060
▁陣営	-12061
▁陳列	-12062
▁陽菜	-12063
▁雌熊	-12064
▁霊感	-12065
▁霊長	-12066
▁露天	-12067
▁領土	-12068
▁頬張	-12069
▁類似	-12070
▁麻薬	-12071
▁麻酔	-12072
▁黄金	-12073
あたり	-12074
いだせ	-12075
かどか	-12076
くわく	-12077
ぐるみ	-12078
げんき	-12079
ことん	-12080
ざまず	-12081
し止め	-12082
すり取	-12083
たばた	-12084
はずれ	-12085
ゅうご	-12086
ゅうち	-12087
らべら	-12088
りかご	-12089
り下げ	-12090
り抜け	-12091
るぐる	-12092
イテク	-12093
ウサギ	-12094
ガジン	-12095
コルド	-12096
ゴチャ	-12097
シスタ	-12098
ジャマ	-12099
ジャー	-12100
スクワ	-12101
ステイ	-12102
ステム	-12103
ゼルス	-12104
チョロ	-12105
ッケル	-12106
ッフェ	-12107
デルセ	-12108
ナルド	-12109
ニクス	-12110
ネシア	-12111
パイア	-12112
フェラ	-12113
フォル	-12114
プセル	-12115
ポテト	-12116
マイム	-12117
ムジン	-12118
ラグラ	-12119
ラワー	-12120
ンガポ	-12121
ンクー	-12122
ンロー	-12123
ーパン	-12124
ービー	-12125
ーベル	-12126
人息子	-12127
向かい	-12128
砂降り	-12129
0.14	-12130
adox	-12131
aham	-12132
aims	-12133
brev	-12134
cdon	-12135
fumi	-12136
gien	-12137
need	-12138
pedo	-12139
regl	-12140
roph	-12141
sett	-12142
sume	-12143
supp	-12144
suya	-12145
tori	-12146
umsy	-12147
what	-12148
wolf	-12149
yako	-12150
ylon	-12151
zuka	-12152
zuki	-12153
zzed	-12154
▁22.	-12155
▁68,	-12156
▁aki	-12157
▁biw	-12158
▁cyl	-12159
▁oxf	-12160
▁あから	-12161
▁あがり	-12162
▁あやし	-12163
▁あやな	-12164
▁あやに	-12165
▁あやま	-12166
▁いとこ	-12167
▁いとも	-12168
▁いびつ	-12169
▁うかつ	-12170
▁ええと	-12171
▁おとぎ	-12172
▁おどり	-12173
▁かき消	-12174
▁かすか	-12175
▁かみ合	-12176
▁かんじ	-12177
▁きりん	-12178
▁きわめ	-12179
▁くらべ	-12180
▁けちけ	-12181
▁こたえ	-12182
▁こらえ	-12183
▁さいご	-12184
▁さいわ	-12185
▁さかの	-12186
▁ざわめ	-12187
▁しくし	-12188
▁しのげ	-12189
▁しらけ	-12190
▁すらり	-12191
▁そびえ	-12192
▁たっぷ	-12193
▁だらけ	-12194
▁つなぎ	-12195
▁つまみ	-12196
▁とっさ	-12197
▁とっつ	-12198
▁とにも	-12199
▁依存	-12200
▁包丁	-12201
▁尾崎	-12202
▁展覧	-12203
▁底意	-12204
▁式典	-12205
▁悩ま	-12206
▁想い	-12207
▁拒絶	-12208
▁換え	-12209
▁曇り	-12210
▁曇天	-12211
▁末席	-12212
▁校庭	-12213
▁校舎	-12214
▁清涼	-12215
▁滅公	-12216
▁滅私	-12217
▁煙た	-12218
▁煙突	-12219
▁獲物	-12220
▁祝い	-12221
▁祝宴	-12222
▁筆記	-12223
▁節句	-12224
▁納め	-12225
▁薄々	-12226
▁薄着	-12227
▁衝動	-12228
▁被せ	-12229
▁被告	-12230
▁複製	-12231
▁詰ま	-12232
▁酔い	-12233
▁酸性	-12234
▁除名	-12235
▁除隊	-12236
し遂げ	-12237
っこい	-12238
まとめ	-12239
りやり	-12240
ファー	-12241
レッシ	-12242
▁うって	-12243
▁おうじ	-12244
▁こなご	-12245
▁とらえ	-12246
▁なおか	-12247
▁なだめ	-12248
▁のがれ	-12249
▁のども	-12250
▁のぼり	-12251
▁のりき	-12252
▁のろい	-12253
▁ばらま	-12254
▁ひっか	-12255
▁ぴか一	-12256
▁ぴしゃ	-12257
▁ぴった	-12258
▁ふたり	-12259
▁ぶつぶ	-12260
▁ぶらつ	-12261
▁まぬけ	-12262
▁まぶし	-12263
▁めざめ	-12264
▁めでた	-12265
▁めまい	-12266
▁もたげ	-12267
▁やせ細	-12268
▁よしみ	-12269
▁わずら	-12270
▁アベル	-12271
▁アポロ	-12272
▁イマイ	-12273
▁ウサギ	-12274
▁オウム	-12275
▁カルテ	-12276
▁カルロ	-12277
▁カンガ	-12278
▁キロメ	-12279
▁グチョ	-12280
▁グレア	-12281
▁ココア	-12282
▁コマー	-12283
▁コレラ	-12284
▁ゴチャ	-12285
▁シンデ	-12286
▁スリム	-12287
▁セザン	-12288
▁タケオ	-12289
▁タンガ	-12290
▁ダーウ	-12291
▁デイブ	-12292
▁ドカン	-12293
▁ナンセ	-12294
▁バルコ	-12295
▁バンガ	-12296
▁パラダ	-12297
▁ビーフ	-12298
▁ピンク	-12299
▁ユダ	-12300
▁ユナ	-12301
ぬがれ	-12302
ceme	-12303
ouls	-12304
▁vio	-12305
▁ブドウ	-12306
▁ヘリコ	-12307
▁ホステ	-12308
▁ボクシ	-12309
▁ポテト	-12310
▁マーガ	-12311
▁ミスプ	-12312
▁メダル	-12313
▁メッセ	-12314
▁ヤード	-12315
▁ユダヤ	-12316
▁ランプ	-12317
▁リボン	-12318
▁レトル	-12319
▁レベル	-12320
▁ロビー	-12321
▁ワーウ	-12322
▁七光り	-12323
▁不正直	-12324
▁丸出し	-12325
▁乳母車	-12326
▁亜紀子	-12327
▁仕返し	-12328
▁付け加	-12329
▁何もの	-12330
▁働き者	-12331
▁出くわ	-12332
▁利己心	-12333
▁合コン	-12334
▁向き直	-12335
▁吸い込	-12336
▁呼びだ	-12337
▁呼び出	-12338
▁回り道	-12339
▁執り行	-12340
▁売り出	-12341
▁夜更け	-12342
▁天引き	-12343
▁小遣い	-12344
▁差し出	-12345
▁巻き込	-12346
▁干し草	-12347
▁干上が	-12348
▁弓なり	-12349
▁待ち望	-12350
▁怠け者	-12351
▁恵まれ	-12352
▁手がけ	-12353
▁手書き	-12354
▁抱きつ	-12355
▁抱き合	-12356
▁拾い集	-12357
▁振り向	-12358
▁振り回	-12359
▁木登り	-12360
▁本降り	-12361
▁欠かせ	-12362
▁毒々し	-12363
▁気のど	-12364
▁泣き崩	-12365
▁泳ぎ切	-12366
▁満タン	-12367
▁皿洗い	-12368
▁目くそ	-12369
▁目くば	-12370
▁目覚し	-12371
▁目覚め	-12372
▁相応し	-12373
▁空き地	-12374
▁空っぽ	-12375
▁突き出	-12376
▁突き破	-12377
▁突き進	-12378
▁締めく	-12379
▁羽振り	-12380
▁職探し	-12381
▁若々し	-12382
▁裏返し	-12383
▁見まわ	-12384
▁読みふ	-12385
▁踏み荒	-12386
▁踏み込	-12387
▁辛うじ	-12388
▁迷い込	-12389
▁追い払	-12390
▁閉じこ	-12391
▁雲行き	-12392
▁震わせ	-12393
▁靴磨き	-12394
▁頑張れ	-12395
▁食い気	-12396
▁飼い主	-12397
▁駆け寄	-12398
いぐるみ	-12399
▁充電	-12400
▁繰り	-12401
▁草花	-12402
▁西欧	-12403
▁誠心	-12404
▁誠意	-12405
▁魔女	-12406
▁魔王	-12407
こちな	-12408
ちょう	-12409
クトロ	-12410
ルシャ	-12411
ーナー	-12412
ーラー	-12413
段取り	-12414
bels	-12415
comm	-12416
▁emm	-12417
▁hym	-12418
▁うなり	-12419
▁おさま	-12420
▁さまよ	-12421
▁すりへ	-12422
▁ぜひご	-12423
▁はしゃ	-12424
▁はじま	-12425
▁ふだん	-12426
▁めざと	-12427
▁エラー	-12428
▁ガシャ	-12429
▁ケータ	-12430
▁プレイ	-12431
▁ボーナ	-12432
▁リンク	-12433
▁一休み	-12434
▁今ごろ	-12435
▁出しゃ	-12436
▁待ち遠	-12437
▁段取り	-12438
▁気取り	-12439
▁繰り広	-12440
▁草取り	-12441
▁見ごろ	-12442
▁近ごろ	-12443
きらぼう	-12444
っちゅう	-12445
ばらばら	-12446
ゅうたん	-12447
ゅうちょ	-12448
インドウ	-12449
ウンサー	-12450
クセント	-12451
グレッシ	-12452
シフェラ	-12453
スタイル	-12454
スマルク	-12455
ダンサー	-12456
ッキング	-12457
テロール	-12458
ディアン	-12459
デルセン	-12460
ドナルド	-12461
フォード	-12462
ポイント	-12463
リフォル	-12464
ルフサー	-12465
ロチョロ	-12466
ンジニア	-12467
ンゼルス	-12468
ントゲン	-12469
ンニング	-12470
ーニング	-12471
abuki	-12472
akura	-12473
anael	-12474
asium	-12475
awara	-12476
azuko	-12477
bbies	-12478
bbing	-12479
belie	-12480
break	-12481
cdona	-12482
cribe	-12483
ctica	-12484
earls	-12485
eenth	-12486
garet	-12487
genet	-12488
henom	-12489
holic	-12490
inema	-12491
iracy	-12492
izuko	-12493
jamas	-12494
kirts	-12495
lecks	-12496
ogurt	-12497
orrho	-12498
ratch	-12499
▁ぎら	-12500
▁丸太	-12501
▁含め	-12502
▁告訴	-12503
▁在住	-12504
▁在籍	-12505
▁契機	-12506
▁常識	-12507
▁張り	-12508
▁忍び	-12509
▁怠惰	-12510
▁控除	-12511
▁森林	-12512
▁植え	-12513
▁植わ	-12514
▁毛先	-12515
▁洋服	-12516
▁洋館	-12517
▁済ま	-12518
▁狭ま	-12519
▁鼻声	-12520
hyth	-12521
▁ぎらぎ	-12522
▁張り裂	-12523
▁忍び込	-12524
hythm	-12525
rocer	-12526
shake	-12527
udges	-12528
uffed	-12529
ungal	-12530
worms	-12531
▁22.6	-12532
▁aims	-12533
▁akin	-12534
▁asyl	-12535
▁bowl	-12536
▁coop	-12537
▁cozy	-12538
▁duff	-12539
▁emma	-12540
▁fuku	-12541
▁goro	-12542
▁gymn	-12543
▁hawk	-12544
▁hymn	-12545
▁janu	-12546
▁jeep	-12547
▁jews	-12548
▁jigs	-12549
▁koku	-12550
▁limb	-12551
▁lisa	-12552
▁migr	-12553
▁noah	-12554
▁ogas	-12555
▁omit	-12556
▁onto	-12557
▁owes	-12558
▁rebu	-12559
▁ribs	-12560
▁rubb	-12561
▁ruin	-12562
▁shoe	-12563
▁soph	-12564
▁tale	-12565
▁taro	-12566
▁tidy	-12567
▁tort	-12568
▁trem	-12569
▁unne	-12570
▁yawn	-12571
▁あてはま	-12572
▁あんまり	-12573
▁いつくし	-12574
▁いまさら	-12575
▁うなり声	-12576
▁うろたえ	-12577
▁おとぎ話	-12578
▁かえって	-12579
▁かみなり	-12580
▁ぎこちな	-12581
▁ぎらぎら	-12582
▁ぐるぐる	-12583
▁こなごな	-12584
▁さいわい	-12585
▁さかさま	-12586
▁さかのぼ	-12587
▁しくしく	-12588
▁しゅうご	-12589
▁せき止め	-12590
▁たかぶり	-12591
▁たぶんこ	-12592
▁ちらちら	-12593
▁とことん	-12594
▁なめらか	-12595
▁にっこり	-12596
▁ばたばた	-12597
▁ばらばら	-12598
▁ひざまず	-12599
▁譲歩	-12600
トピー	-12601
ラスチ	-12602
ルギー	-12603
ammy	-12604
anny	-12605
hism	-12606
umbo	-12607
▁うんと	-12608
▁きのこ	-12609
▁とりあ	-12610
▁とりお	-12611
▁はいり	-12612
▁エレン	-12613
▁カラス	-12614
▁キャプ	-12615
▁ファミ	-12616
▁分け前	-12617
▁分け合	-12618
▁満ち足	-12619
▁真っす	-12620
▁諸国民	-12621
レルギー	-12622
dding	-12623
ickey	-12624
inata	-12625
ismar	-12626
▁cafe	-12627
▁dumb	-12628
▁gunf	-12629
▁guns	-12630
▁tumb	-12631
▁いらくさ	-12632
▁きっぱり	-12633
▁とりおろ	-12634
▁とりかか	-12635
▁ひっかか	-12636
▁ひょっと	-12637
▁ぴしゃり	-12638
▁ふるまい	-12639
▁べらべら	-12640
▁ぽかんと	-12641
▁またまた	-12642
▁またもと	-12643
▁まぬがれ	-12644
▁めんどう	-12645
▁もっぱら	-12646
▁やりとり	-12647
▁やり取り	-12648
▁ゆすり取	-12649
▁ゆりかご	-12650
▁わくわく	-12651
▁アイデン	-12652
▁アシスタ	-12653
▁アトピー	-12654
▁アドレス	-12655
▁イコール	-12656
▁イマイチ	-12657
▁イースト	-12658
▁ウィリー	-12659
▁ウエイト	-12660
▁ウエスト	-12661
▁エアコン	-12662
▁オックス	-12663
▁オーケー	-12664
▁カップル	-12665
▁カプセル	-12666
▁カンガル	-12667
▁ガシャッ	-12668
▁キャシー	-12669
▁キートン	-12670
▁クラウン	-12671
▁クーラー	-12672
▁グレアム	-12673
▁ケネディ	-12674
▁ケンブリ	-12675
▁コロンボ	-12676
▁サンドウ	-12677
▁サンドラ	-12678
▁シェイク	-12679
▁システム	-12680
▁シャトル	-12681
▁ショベル	-12682
▁シンガポ	-12683
▁ジャパン	-12684
▁ジャンボ	-12685
▁ジュディ	-12686
▁ジョーダ	-12687
▁スイッチ	-12688
▁スケッチ	-12689
▁スタイン	-12690
▁スタジア	-12691
▁スタンド	-12692
▁スタート	-12693
▁スプーン	-12694
▁セザンヌ	-12695
▁ソフトウ	-12696
▁タイムズ	-12697
▁ターナー	-12698
▁ダメージ	-12699
▁ヒマ	-12700
▁及び	-12701
▁及ぼ	-12702
▁和ら	-12703
▁和子	-12704
▁和睦	-12705
▁圧し	-12706
▁圧倒	-12707
▁圧制	-12708
▁圧力	-12709
▁圧縮	-12710
▁恋し	-12711
▁恋愛	-12712
▁恋歌	-12713
▁折り	-12714
▁掘り	-12715
▁採点	-12716
▁採集	-12717
▁根拠	-12718
▁根源	-12719
▁池田	-12720
▁狂気	-12721
▁編み	-12722
▁編成	-12723
▁羽目	-12724
▁胸板	-12725
▁腰痛	-12726
▁辛苦	-12727
▁雇用	-12728
▁預言	-12729
▁ヒット	-12730
▁ヒマラ	-12731
▁ヒント	-12732
▁掘り出	-12733
▁編み物	-12734
ermat	-12735
▁りんごと	-12736
▁セールス	-12737
▁ダンサー	-12738
▁チャンピ	-12739
▁テキスト	-12740
▁デイラー	-12741
▁デザイン	-12742
▁データベ	-12743
▁トラブル	-12744
▁トントン	-12745
▁トースト	-12746
▁ナイター	-12747
▁ニッケル	-12748
▁ハミング	-12749
▁ハンター	-12750
▁パジャマ	-12751
▁パラグラ	-12752
▁ヒマラヤ	-12753
▁ファイル	-12754
▁フルート	-12755
▁フレッド	-12756
▁ブッシュ	-12757
▁ブラウン	-12758
▁ブラック	-12759
▁ブランド	-12760
▁ブルマー	-12761
▁ブレーキ	-12762
▁プリント	-12763
▁プレゼン	-12764
▁プログラ	-12765
▁ヘリコプ	-12766
▁ペルシャ	-12767
▁ホステス	-12768
▁ホークス	-12769
▁ポップコ	-12770
▁マイケル	-12771
▁マガジン	-12772
▁ムーリエ	-12773
▁モスクワ	-12774
▁モンロー	-12775
▁ユナイテ	-12776
▁ライフワ	-12777
▁ラジウム	-12778
▁ラッシュ	-12779
▁リムジン	-12780
▁リリース	-12781
▁リンデル	-12782
▁ルームメ	-12783
▁レトルト	-12784
▁ロジャー	-12785
▁一まとめ	-12786
▁付け加え	-12787
▁作りかえ	-12788
▁切り離せ	-12789
▁厚かまし	-12790
▁取り戻せ	-12791
▁取り扱い	-12792
▁取り消し	-12793
▁召しあが	-12794
▁叱りつけ	-12795
▁呼び入れ	-12796
▁土砂降り	-12797
▁巻き上げ	-12798
▁引き取り	-12799
▁ヘア	-12800
▁ヘビ	-12801
▁並み	-12802
▁並外	-12803
▁宝刀	-12804
▁宝塚	-12805
▁形式	-12806
▁形成	-12807
▁快方	-12808
▁戸外	-12809
▁接近	-12810
▁描写	-12811
▁損な	-12812
▁改築	-12813
▁改造	-12814
▁改革	-12815
▁昇給	-12816
▁減少	-12817
▁焼死	-12818
▁百姓	-12819
▁紙幣	-12820
▁複数	-12821
▁課税	-12822
▁課長	-12823
▁避難	-12824
かかえ	-12825
かくに	-12826
り返し	-12827
アログ	-12828
ィッチ	-12829
プロン	-12830
viol	-12831
▁mai	-12832
▁urb	-12833
▁zin	-12834
▁うわべ	-12835
▁すくな	-12836
▁アンケ	-12837
▁アンソ	-12838
▁アンバ	-12839
▁ギャン	-12840
▁ステラ	-12841
▁ディズ	-12842
▁デッチ	-12843
▁マッチ	-12844
▁メロン	-12845
▁ローフ	-12846
▁ローラ	-12847
▁並外れ	-12848
▁出会い	-12849
▁屋根裏	-12850
▁足取り	-12851
▁釣り針	-12852
かくにも	-12853
chins	-12854
ebted	-12855
ocrat	-12856
▁zinc	-12857
▁ともかく	-12858
▁エプロン	-12859
▁ステート	-12860
▁ローリー	-12861
▁引き止め	-12862
▁引き留め	-12863
▁張り裂け	-12864
▁待ち遠し	-12865
▁思いだせ	-12866
▁思い付き	-12867
▁成し遂げ	-12868
▁戸締まり	-12869
▁投げ捨て	-12870
▁折り返し	-12871
▁振る舞え	-12872
▁書き表せ	-12873
▁朝っぱら	-12874
▁泣き崩れ	-12875
▁消し止め	-12876
▁満ち足り	-12877
▁無駄遣い	-12878
▁目くばせ	-12879
▁目覚まし	-12880
▁真っすぐ	-12881
▁真向かい	-12882
▁立ちあが	-12883
▁立ち向か	-12884
▁締めくく	-12885
▁締め付け	-12886
▁繰り広げ	-12887
▁落ち着け	-12888
▁見いだせ	-12889
▁見積もり	-12890
▁言いなり	-12891
▁読みふけ	-12892
▁踏みはず	-12893
▁踏み荒ら	-12894
▁転がり込	-12895
▁追いかけ	-12896
▁通りぬけ	-12897
▁酔っぱら	-12898
▁閉じこめ	-12899
▁柔道	-12900
ぼっこ	-12901
▁aug	-12902
▁ホラー	-12903
▁打ち破	-12904
▁打ち込	-12905
▁押しの	-12906
▁落とし	-12907
▁迎え酒	-12908
ートルズ	-12909
chida	-12910
tract	-12911
▁....	-12912
▁zest	-12913
▁はしゃに	-12914
▁キャンペ	-12915
▁ネッシー	-12916
▁ノートル	-12917
▁手あたり	-12918
▁押しのけ	-12919
▁立ち込め	-12920
▁飾り付け	-12921
▁駆り立て	-12922
っきらぼう	-12923
なたぼっこ	-12924
イクリング	-12925
イフラワー	-12926
クドナルド	-12927
グレッシブ	-12928
サンゼルス	-12929
テーション	-12930
ナウンサー	-12931
パーティー	-12932
ライポテト	-12933
ラスチック	-12934
ーナリスト	-12935
addled	-12936
aholic	-12937
ammals	-12938
anette	-12939
araoke	-12940
archer	-12941
atican	-12942
atsuya	-12943
austed	-12944
aximum	-12945
azzled	-12946
btedly	-12947
cluded	-12948
comers	-12949
cutive	-12950
elsius	-12951
ernity	-12952
gitive	-12953
ichest	-12954
icitis	-12955
ioneer	-12956
iruses	-12957
ituals	-12958
lantic	-12959
locked	-12960
morrho	-12961
normal	-12962
ooming	-12963
opedia	-12964
piracy	-12965
player	-12966
rauded	-12967
riment	-12968
rophys	-12969
ructed	-12970
rudges	-12971
sening	-12972
skirts	-12973
supply	-12974
urosis	-12975
▁.....	-12976
▁22.68	-12977
▁April	-12978
▁adjac	-12979
▁akiji	-12980
▁akiko	-12981
▁akita	-12982
▁aloof	-12983
▁angel	-12984
▁apron	-12985
▁ayako	-12986
▁bathh	-12987
▁batht	-12988
▁beeth	-12989
▁belly	-12990
▁boats	-12991
▁bowed	-12992
▁bribe	-12993
▁bulld	-12994
▁bumpk	-12995
▁burnt	-12996
▁camps	-12997
▁categ	-12998
▁cathy	-12999
▁希少	-13000
▁廃液	-13001
▁応変	-13002
▁応急	-13003
▁推定	-13004
▁推薦	-13005
▁握り	-13006
▁混ぜ	-13007
▁混同	-13008
▁混血	-13009
▁温暖	-13010
▁温泉	-13011
▁激怒	-13012
▁礼状	-13013
▁税率	-13014
▁肩幅	-13015
▁裏切	-13016
▁裏手	-13017
▁裏道	-13018
▁諸島	-13019
▁逆説	-13020
▁鍵盤	-13021
▁際立	-13022
▁雑草	-13023
▁雑貨	-13024
くまし	-13025
ナーズ	-13026
ノイド	-13027
ムーズ	-13028
ーズン	-13029
▁180	-13030
▁cez	-13031
▁いやい	-13032
▁おぼれ	-13033
▁アルク	-13034
▁サイド	-13035
▁トレー	-13036
▁バレー	-13037
▁ペテン	-13038
▁ポーズ	-13039
▁ワイド	-13040
▁吹き倒	-13041
▁吹き込	-13042
▁嘘っぱ	-13043
▁打ちひ	-13044
▁打ち勝	-13045
▁打ち寄	-13046
やかまし	-13047
レノイド	-13048
ubric	-13049
▁bapt	-13050
▁dots	-13051
▁いやいや	-13052
▁おぼれ死	-13053
▁たくまし	-13054
▁コナーズ	-13055
▁シーズン	-13056
▁スペース	-13057
▁スムーズ	-13058
▁吹きかけ	-13059
▁吹きつけ	-13060
▁吹き付け	-13061
▁嘘っぱち	-13062
▁打ちひし	-13063
▁打ち上げ	-13064
▁打ち寄せ	-13065
ronics	-13066
ronted	-13067
▁cease	-13068
▁choir	-13069
▁clung	-13070
▁couch	-13071
▁creep	-13072
▁cyber	-13073
▁danny	-13074
▁decks	-13075
▁derby	-13076
▁diagn	-13077
▁drawn	-13078
▁drugs	-13079
▁earli	-13080
▁eaves	-13081
▁eggpl	-13082
▁emiss	-13083
▁emmet	-13084
▁encir	-13085
▁essay	-13086
▁facil	-13087
▁faith	-13088
▁flags	-13089
▁float	-13090
▁flung	-13091
▁forks	-13092
▁fouls	-13093
▁freed	-13094
▁fukui	-13095
▁funny	-13096
▁globe	-13097
▁glows	-13098
▁gunna	-13099
▁モモ	-13100
▁例外	-13101
▁停止	-13102
▁側近	-13103
▁加減	-13104
▁加算	-13105
▁各々	-13106
▁各人	-13107
▁各国	-13108
▁各週	-13109
▁各駅	-13110
▁業者	-13111
▁浜辺	-13112
▁滑り	-13113
cycl	-13114
cyon	-13115
rael	-13116
stra	-13117
▁egy	-13118
▁icy	-13119
▁syn	-13120
▁syr	-13121
▁おじぎ	-13122
▁ちゃぼ	-13123
▁つかの	-13124
▁ヨーグ	-13125
▁嘘つき	-13126
▁外出せ	-13127
▁戸締り	-13128
▁月曜日	-13129
▁滑り台	-13130
▁行き先	-13131
▁閉め出	-13132
eches	-13133
fying	-13134
irror	-13135
utral	-13136
vency	-13137
▁furs	-13138
▁maps	-13139
▁symb	-13140
▁つかの間	-13141
▁オースト	-13142
▁モーター	-13143
▁ヨーグル	-13144
▁書き上げ	-13145
▁書き付け	-13146
▁気晴らし	-13147
▁見晴らし	-13148
ckoned	-13149
eering	-13150
gament	-13151
urches	-13152
▁bathe	-13153
▁egypt	-13154
▁enric	-13155
▁hawks	-13156
▁hooky	-13157
▁immor	-13158
▁input	-13159
▁jumbo	-13160
▁kathy	-13161
▁libel	-13162
▁lobby	-13163
▁lucif	-13164
▁maids	-13165
▁megur	-13166
▁melon	-13167
▁mimic	-13168
▁misle	-13169
▁mixer	-13170
▁mortg	-13171
▁nerve	-13172
▁nests	-13173
▁nobel	-13174
▁nomin	-13175
▁nylon	-13176
▁onsen	-13177
▁ozaki	-13178
▁panic	-13179
▁patio	-13180
▁paula	-13181
▁petro	-13182
▁poems	-13183
▁pools	-13184
▁proof	-13185
▁pulls	-13186
▁rolls	-13187
▁safar	-13188
▁saori	-13189
▁sazae	-13190
▁scarf	-13191
▁scrup	-13192
▁seeds	-13193
▁shotg	-13194
▁skidd	-13195
▁snake	-13196
▁sneak	-13197
▁socks	-13198
▁sonny	-13199
募金	-13200
▁なな	-13201
▁任務	-13202
▁任期	-13203
▁共通	-13204
▁共鳴	-13205
▁募金	-13206
▁北方	-13207
▁北欧	-13208
▁固ま	-13209
▁定め	-13210
▁定住	-13211
▁定形	-13212
▁就任	-13213
▁島流	-13214
▁左側	-13215
▁愚行	-13216
▁治虫	-13217
▁率先	-13218
▁生計	-13219
▁組み	-13220
▁肉屋	-13221
▁荷造	-13222
▁講堂	-13223
▁講座	-13224
▁貯蓄	-13225
▁配分	-13226
▁配送	-13227
▁順番	-13228
▁こころ	-13229
▁ななめ	-13230
▁はたら	-13231
▁やたら	-13232
▁り立て	-13233
▁占い師	-13234
▁固まり	-13235
▁島流し	-13236
▁組み込	-13237
▁荷造り	-13238
▁面白み	-13239
▁飛び立	-13240
inery	-13241
ocery	-13242
tably	-13243
▁benc	-13244
▁mimi	-13245
▁spec	-13246
▁turk	-13247
▁そうそう	-13248
▁コーディ	-13249
▁取り立て	-13250
▁申し立て	-13251
allery	-13252
icably	-13253
rative	-13254
▁aides	-13255
▁filth	-13256
▁squee	-13257
▁steps	-13258
▁sucks	-13259
▁suitc	-13260
▁synch	-13261
▁syrin	-13262
▁tacky	-13263
▁tanks	-13264
▁teddy	-13265
▁thumb	-13266
▁tires	-13267
▁toolk	-13268
▁tools	-13269
▁toson	-13270
▁tresp	-13271
▁trunk	-13272
▁tuned	-13273
▁twigs	-13274
▁typho	-13275
▁unbal	-13276
▁unbro	-13277
▁undou	-13278
▁unfav	-13279
▁unreg	-13280
▁urban	-13281
▁veget	-13282
▁votes	-13283
▁wales	-13284
▁weeds	-13285
▁wiser	-13286
▁yamam	-13287
▁yeast	-13288
▁うらやまし	-13289
▁かみ合わせ	-13290
▁しゅうごう	-13291
▁じゅうたん	-13292
▁たぶんこの	-13293
▁だらしなさ	-13294
▁ちゅうちょ	-13295
▁でっちあげ	-13296
▁でっち上げ	-13297
▁どなりつけ	-13298
▁なだめすか	-13299
▁摘	-13300
ひそ	-13301
らは	-13302
直ぐ	-13303
▁くた	-13304
▁リキ	-13305
▁リサ	-13306
▁レフ	-13307
▁個々	-13308
▁命中	-13309
▁寄り	-13310
▁寄稿	-13311
▁悪性	-13312
▁摘み	-13313
▁普及	-13314
▁未定	-13315
▁王女	-13316
▁秋田	-13317
▁耐久	-13318
▁軽べ	-13319
▁軽快	-13320
▁農園	-13321
▁農夫	-13322
▁隣人	-13323
ずから	-13324
らはら	-13325
ェンス	-13326
ニーカ	-13327
ーカー	-13328
穏やか	-13329
aoko	-13330
chet	-13331
▁tex	-13332
▁くたく	-13333
▁クイズ	-13334
▁スカー	-13335
▁ダニー	-13336
▁ノイズ	-13337
▁パンチ	-13338
▁付き物	-13339
▁冷やか	-13340
▁感じ取	-13341
▁日暮れ	-13342
▁穏やか	-13343
▁言い争	-13344
▁買い与	-13345
▁軽べつ	-13346
▁近づけ	-13347
のずから	-13348
agged	-13349
angan	-13350
edged	-13351
igged	-13352
ousin	-13353
▁besm	-13354
▁いろんな	-13355
▁くたくた	-13356
▁はらはら	-13357
▁ひそひそ	-13358
▁ひとりぼ	-13359
▁スカーフ	-13360
▁ディック	-13361
▁フェンス	-13362
▁ベーカー	-13363
▁リキッド	-13364
▁レフリー	-13365
▁真っ直ぐ	-13366
▁見合わせ	-13367
▁買い与え	-13368
acific	-13369
angany	-13370
unicip	-13371
▁bossy	-13372
▁filed	-13373
▁germs	-13374
▁lurch	-13375
▁naoko	-13376
▁texas	-13377
▁おのずから	-13378
▁ぬいぐるみ	-13379
▁ひとり息子	-13380
▁ひょっこり	-13381
▁アクション	-13382
▁アクセント	-13383
▁アポイント	-13384
▁アルコール	-13385
▁アルフィー	-13386
▁アレルギー	-13387
▁アンソニー	-13388
▁イヤリング	-13389
▁ウインドウ	-13390
▁エアポート	-13391
▁エンジニア	-13392
▁エンパイア	-13393
▁カンガルー	-13394
▁カンニング	-13395
▁キャッシー	-13396
▁キャプテン	-13397
▁クッション	-13398
▁ケンブリッ	-13399
ika	-13400
▁ナオ	-13401
▁ナタ	-13402
▁劇作	-13403
▁委ね	-13404
▁居眠	-13405
▁構え	-13406
▁構内	-13407
▁構文	-13408
▁構造	-13409
▁次ぎ	-13410
▁爆裂	-13411
▁片道	-13412
▁産出	-13413
▁短め	-13414
▁競売	-13415
▁給水	-13416
▁給油	-13417
▁茶道	-13418
▁認識	-13419
▁適度	-13420
▁釣れ	-13421
▁隠滅	-13422
▁静め	-13423
ぎやか	-13424
だやか	-13425
るやか	-13426
暮らし	-13427
iale	-13428
iked	-13429
ikin	-13430
▁aik	-13431
▁いじめ	-13432
▁まじめ	-13433
▁ナオコ	-13434
▁ナタナ	-13435
▁取り出	-13436
▁居眠り	-13437
educe	-13438
▁eyeb	-13439
▁haik	-13440
▁peck	-13441
▁scot	-13442
▁おだやか	-13443
▁にぎやか	-13444
▁むずかし	-13445
▁ゆるやか	-13446
▁ブロンド	-13447
ialect	-13448
ikinis	-13449
▁aikid	-13450
▁arend	-13451
▁fairy	-13452
▁haiku	-13453
▁haunt	-13454
▁lasts	-13455
▁melts	-13456
▁かわいらし	-13457
▁コマーシャ	-13458
▁コンクール	-13459
▁コンコルド	-13460
▁サーファー	-13461
▁シェイクス	-13462
▁シェークス	-13463
▁シンデレラ	-13464
▁ジェームス	-13465
▁ジャネット	-13466
▁ステッカー	-13467
▁セクション	-13468
▁セルフサー	-13469
▁ソフトウェ	-13470
▁ソレノイド	-13471
▁タイプライ	-13472
▁ダイアログ	-13473
▁チャーリー	-13474
▁チャールズ	-13475
▁ディズニー	-13476
▁デッチ上げ	-13477
▁ドライバー	-13478
▁ナンセンス	-13479
▁バスケット	-13480
▁バルコニー	-13481
▁パトロール	-13482
▁パラグラフ	-13483
▁ビートルズ	-13484
▁ファイバー	-13485
▁ファミリー	-13486
▁フライング	-13487
▁ボクシング	-13488
▁ミュージシ	-13489
▁ムーディー	-13490
▁ムーリエル	-13491
▁メッセージ	-13492
▁モーニング	-13493
▁ヨーグルト	-13494
▁ルシフェラ	-13495
▁レントゲン	-13496
▁ワーウルフ	-13497
▁一人暮らし	-13498
▁口やかまし	-13499
エル	-13500
▁しび	-13501
▁仰天	-13502
▁先進	-13503
▁冷凍	-13504
▁冷酷	-13505
▁冷静	-13506
▁勤労	-13507
▁大工	-13508
▁姿見	-13509
▁工芸	-13510
▁延着	-13511
▁晴ら	-13512
▁晴雨	-13513
▁火星	-13514
▁牛後	-13515
▁特急	-13516
▁石垣	-13517
▁石炭	-13518
▁破片	-13519
▁等分	-13520
▁精密	-13521
▁誇示	-13522
▁追跡	-13523
▁退役	-13524
▁重力	-13525
▁首位	-13526
▁騒が	-13527
▁髪形	-13528
▁鳴管	-13529
ッドナ	-13530
ラエル	-13531
obal	-13532
▁ebb	-13533
▁しびれ	-13534
▁みじめ	-13535
▁サーバ	-13536
▁乗り損	-13537
▁騒がし	-13538
スラエル	-13539
レーター	-13540
archy	-13541
ldays	-13542
othal	-13543
times	-13544
▁bere	-13545
▁fier	-13546
▁fled	-13547
▁judy	-13548
▁mend	-13549
▁vote	-13550
▁ポスター	-13551
▁ミッドナ	-13552
▁乗り損な	-13553
▁成り上が	-13554
カレーター	-13555
atural	-13556
erella	-13557
venues	-13558
▁absur	-13559
▁dates	-13560
▁enrap	-13561
▁locom	-13562
▁osame	-13563
▁イスラエル	-13564
▁ギャンブル	-13565
▁バンガロー	-13566
▁問い合わせ	-13567
▁怒鳴りつけ	-13568
▁成り上がり	-13569
▁打ち合わせ	-13570
▁抱きかかえ	-13571
スカレーター	-13572
alistic	-13573
amakura	-13574
amorous	-13575
anthrop	-13576
aptured	-13577
arctica	-13578
cdonald	-13579
changed	-13580
chestra	-13581
cluster	-13582
culates	-13583
entific	-13584
estrain	-13585
etrated	-13586
gienist	-13587
glected	-13588
hausted	-13589
henomen	-13590
holders	-13591
ialects	-13592
ignific	-13593
inctive	-13594
initive	-13595
iolable	-13596
irofumi	-13597
itering	-13598
itorium	-13599
びん	-13600
りく	-13601
▁しぶ	-13602
▁ほほ	-13603
▁もぐ	-13604
▁一日	-13605
▁保護	-13606
▁保障	-13607
▁制服	-13608
▁四半	-13609
▁押え	-13610
▁末日	-13611
▁汚職	-13612
▁浮気	-13613
▁禁煙	-13614
▁糸目	-13615
▁脱ぎ	-13616
▁脱出	-13617
▁脱却	-13618
▁脱落	-13619
▁若作	-13620
▁視床	-13621
▁部品	-13622
▁郵送	-13623
▁食前	-13624
りくど	-13625
ッドラ	-13626
boys	-13627
ckey	-13628
grav	-13629
umpt	-13630
▁ほほの	-13631
▁花びん	-13632
▁若作り	-13633
▁auto	-13634
▁curl	-13635
▁curt	-13636
▁doub	-13637
▁egot	-13638
▁fury	-13639
▁kush	-13640
▁slee	-13641
▁ヘッドラ	-13642
▁回りくど	-13643
▁押えつけ	-13644
▁脱ぎ捨て	-13645
atures	-13646
ground	-13647
▁ballp	-13648
▁curfe	-13649
▁disgr	-13650
▁hered	-13651
▁tests	-13652
▁trump	-13653
lection	-13654
llously	-13655
neyland	-13656
noticed	-13657
olences	-13658
olution	-13659
omesick	-13660
parable	-13661
pective	-13662
pitated	-13663
reglass	-13664
ripture	-13665
section	-13666
sembled	-13667
sequent	-13668
settled	-13669
tracted	-13670
umption	-13671
ungalow	-13672
uscript	-13673
violent	-13674
▁15,000	-13675
▁abomin	-13676
▁absorb	-13677
▁aching	-13678
▁aggrav	-13679
▁albums	-13680
▁alecks	-13681
▁allows	-13682
▁analog	-13683
▁anthem	-13684
▁arendt	-13685
▁asylum	-13686
▁atopic	-13687
▁austri	-13688
▁baller	-13689
▁ballet	-13690
▁ballpo	-13691
▁besmir	-13692
▁births	-13693
▁blacks	-13694
▁bombed	-13695
▁boring	-13696
▁bounds	-13697
▁bowing	-13698
▁bridle	-13699
eys	-13700
yss	-13701
▁一姫	-13702
▁五感	-13703
▁出頭	-13704
▁到達	-13705
▁半値	-13706
▁半年	-13707
▁参り	-13708
▁横切	-13709
▁知覚	-13710
▁軽ん	-13711
▁酒類	-13712
ぎ付け	-13713
み付け	-13714
ケード	-13715
ヌード	-13716
▁dio	-13717
▁oys	-13718
▁こいつ	-13719
▁アップ	-13720
▁ション	-13721
▁ジャム	-13722
▁ヌード	-13723
▁時おり	-13724
▁見付け	-13725
リケード	-13726
agger	-13727
airly	-13728
quent	-13729
uddle	-13730
▁ache	-13731
▁benz	-13732
▁chop	-13733
▁diox	-13734
▁せき払い	-13735
▁取り付け	-13736
▁立ち上が	-13737
alists	-13738
rossed	-13739
▁abyss	-13740
▁camer	-13741
▁dereg	-13742
▁roger	-13743
▁バリケード	-13744
▁パートナー	-13745
athized	-13746
hearing	-13747
inquent	-13748
nalists	-13749
▁battle	-13750
▁briefc	-13751
▁buffal	-13752
▁buffet	-13753
▁bummer	-13754
▁bumped	-13755
▁bundle	-13756
▁buzzed	-13757
▁calves	-13758
▁carbon	-13759
▁centre	-13760
▁cezann	-13761
▁chiefs	-13762
▁choked	-13763
▁chopst	-13764
▁chores	-13765
▁cinema	-13766
▁circle	-13767
▁claims	-13768
▁closer	-13769
▁clumsy	-13770
▁cooler	-13771
▁costly	-13772
▁counse	-13773
▁cousin	-13774
▁craved	-13775
▁creams	-13776
▁creeps	-13777
▁cultiv	-13778
▁curfew	-13779
▁dander	-13780
▁debate	-13781
▁degree	-13782
▁denies	-13783
▁dental	-13784
▁dermat	-13785
▁devote	-13786
▁devout	-13787
▁dialog	-13788
▁divine	-13789
▁doubts	-13790
▁dragon	-13791
▁dramat	-13792
▁duffer	-13793
▁duties	-13794
▁editor	-13795
▁elbows	-13796
▁elders	-13797
▁embass	-13798
▁embezz	-13799
タビ	-13800
ロバ	-13801
▁グッ	-13802
▁原住	-13803
▁原文	-13804
▁原本	-13805
▁吹雪	-13806
▁圧勝	-13807
▁広め	-13808
▁広告	-13809
▁村人	-13810
▁案の	-13811
▁異例	-13812
▁異存	-13813
▁種族	-13814
▁職場	-13815
▁許容	-13816
▁負荷	-13817
▁賞金	-13818
スロバ	-13819
ンブル	-13820
軟らか	-13821
orus	-13822
ucet	-13823
▁おもい	-13824
▁しゃく	-13825
▁しゃち	-13826
▁ただた	-13827
▁はいは	-13828
▁グッズ	-13829
▁ソース	-13830
▁ダブル	-13831
▁ハンド	-13832
▁バブル	-13833
▁似合い	-13834
▁原住民	-13835
▁案の定	-13836
▁腰掛け	-13837
▁軟らか	-13838
コスロバ	-13839
タビュー	-13840
clude	-13841
ially	-13842
omime	-13843
ovels	-13844
▁brun	-13845
▁caps	-13846
▁cush	-13847
▁evap	-13848
▁しゃちほ	-13849
▁ただただ	-13850
▁つき合い	-13851
▁はいはい	-13852
▁ハンドバ	-13853
コスロバキ	-13854
▁arise	-13855
▁confu	-13856
▁crows	-13857
▁overl	-13858
▁pairs	-13859
▁realm	-13860
▁rural	-13861
▁wield	-13862
▁しゃちほこ	-13863
▁ウィンブル	-13864
コスロバキア	-13865
achment	-13866
endants	-13867
othalam	-13868
quially	-13869
ruption	-13870
▁aikido	-13871
▁chairs	-13872
▁chorus	-13873
▁encycl	-13874
▁enroll	-13875
▁evapor	-13876
▁exists	-13877
▁extern	-13878
▁faucet	-13879
▁fields	-13880
▁fierce	-13881
▁filthy	-13882
▁flatly	-13883
▁frayed	-13884
▁garlic	-13885
▁gazing	-13886
▁global	-13887
▁golfer	-13888
▁graham	-13889
▁greece	-13890
▁greene	-13891
▁greeng	-13892
▁groped	-13893
▁hakush	-13894
▁halves	-13895
▁hamlet	-13896
▁harmon	-13897
▁hinata	-13898
▁hoping	-13899
識別	-13900
議会	-13901
pis	-13902
rol	-13903
▁ウチ	-13904
▁ウト	-13905
▁再生	-13906
▁再見	-13907
▁再起	-13908
▁同日	-13909
▁女中	-13910
▁定番	-13911
▁定職	-13912
▁悲報	-13913
▁暖流	-13914
▁気色	-13915
▁消火	-13916
▁滞り	-13917
▁生意	-13918
▁素っ	-13919
▁素足	-13920
▁色づ	-13921
▁識別	-13922
▁議員	-13923
▁貴女	-13924
▁転げ	-13925
▁転勤	-13926
▁転用	-13927
▁転職	-13928
▁途端	-13929
リンズ	-13930
▁やり手	-13931
▁ウトッ	-13932
▁ウール	-13933
▁オンス	-13934
▁ジェレ	-13935
▁ジープ	-13936
▁市議会	-13937
▁現われ	-13938
▁生意気	-13939
▁素っ気	-13940
オリンズ	-13941
atisf	-13942
pisod	-13943
▁fief	-13944
▁judo	-13945
▁mosc	-13946
▁waka	-13947
▁ひっきり	-13948
▁ウィンド	-13949
▁ジェレミ	-13950
▁素っ気な	-13951
aneous	-13952
onesia	-13953
pisode	-13954
satisf	-13955
▁poets	-13956
▁punch	-13957
▁recur	-13958
▁steer	-13959
▁uncon	-13960
▁wakah	-13961
▁ウィンドウ	-13962
▁assets	-13963
▁handsh	-13964
▁hopped	-13965
▁horror	-13966
▁iceber	-13967
▁imagin	-13968
▁immeas	-13969
▁inferi	-13970
▁inquir	-13971
▁instit	-13972
▁insuff	-13973
▁irises	-13974
▁israel	-13975
▁jagged	-13976
▁jigsaw	-13977
▁jockey	-13978
▁joking	-13979
▁joyful	-13980
▁kazuko	-13981
▁kissed	-13982
▁kissho	-13983
▁knives	-13984
▁lament	-13985
▁levels	-13986
▁lisbon	-13987
▁loosen	-13988
▁loudly	-13989
▁lyndon	-13990
▁mascul	-13991
▁mayumi	-13992
▁meguro	-13993
▁mental	-13994
▁metrop	-13995
▁milder	-13996
▁mildly	-13997
▁mirror	-13998
▁mixing	-13999
ぐら	-14000
たど	-14001
らつ	-14002
▁cf	-14003
▁ずら	-14004
▁アキ	-14005
▁ゴマ	-14006
▁冷え	-14007
▁収益	-14008
▁収量	-14009
▁収集	-14010
▁大望	-14011
▁忠誠	-14012
▁感服	-14013
▁投合	-14014
▁未だ	-14015
▁治ま	-14016
▁独尊	-14017
▁登り	-14018
▁登頂	-14019
▁突破	-14020
▁規約	-14021
▁重軽	-14022
たどし	-14023
ぱらつ	-14024
corn	-14025
▁のろし	-14026
▁ぱらつ	-14027
▁アキラ	-14028
▁インカ	-14029
▁インパ	-14030
▁ショッ	-14031
▁ネット	-14032
▁胸ぐら	-14033
▁重軽傷	-14034
どたどし	-14035
idesp	-14036
ornia	-14037
otone	-14038
▁cfit	-14039
▁drew	-14040
▁taka	-14041
▁vacu	-14042
▁インター	-14043
▁ショッピ	-14044
▁持ちきり	-14045
▁生まれ変	-14046
orters	-14047
▁court	-14048
▁displ	-14049
▁guilt	-14050
▁humor	-14051
▁midst	-14052
▁motiv	-14053
▁seine	-14054
▁spoon	-14055
▁sweat	-14056
▁wages	-14057
▁witch	-14058
▁たどたどし	-14059
▁インパクト	-14060
▁生まれ変わ	-14061
ifornia	-14062
▁cocked	-14063
▁facial	-14064
▁fooled	-14065
▁hummed	-14066
▁mortal	-14067
▁motion	-14068
▁motive	-14069
▁neighb	-14070
▁nettle	-14071
▁noises	-14072
▁nurses	-14073
▁online	-14074
▁organs	-14075
▁overwe	-14076
▁oxford	-14077
▁palace	-14078
▁patrol	-14079
▁pearls	-14080
▁pecked	-14081
▁pigged	-14082
▁pilots	-14083
▁portra	-14084
▁potato	-14085
▁puddle	-14086
▁punish	-14087
▁pursue	-14088
▁pushed	-14089
▁quoted	-14090
▁racing	-14091
▁rankle	-14092
▁rebels	-14093
▁reconf	-14094
▁relies	-14095
▁rhythm	-14096
▁ribbon	-14097
▁robert	-14098
▁ruined	-14099
より	-14100
ガン	-14101
ーデ	-14102
cst	-14103
▁リス	-14104
▁会釈	-14105
▁伝記	-14106
▁保管	-14107
▁借家	-14108
▁円高	-14109
▁割り	-14110
▁可愛	-14111
▁可決	-14112
▁右隣	-14113
▁夕暮	-14114
▁嫌悪	-14115
▁嫌疑	-14116
▁守り	-14117
▁守れ	-14118
▁客席	-14119
▁指数	-14120
▁昔々	-14121
▁暮改	-14122
▁演奏	-14123
▁番人	-14124
▁突入	-14125
▁自首	-14126
▁苦情	-14127
▁観客	-14128
▁誤解	-14129
▁身元	-14130
▁身震	-14131
▁道程	-14132
んより	-14133
プライ	-14134
ーデン	-14135
▁ven	-14136
▁いろづ	-14137
▁ながめ	-14138
▁ドリス	-14139
▁割り当	-14140
▁夕暮れ	-14141
▁身震い	-14142
adash	-14143
cstas	-14144
etual	-14145
▁davy	-14146
▁melt	-14147
▁sash	-14148
▁つくづく	-14149
▁どんより	-14150
▁ガーデン	-14151
▁サプライ	-14152
▁リスボン	-14153
▁割り当て	-14154
▁取り上げ	-14155
adashi	-14156
ectual	-14157
etched	-14158
petual	-14159
▁clash	-14160
▁moody	-14161
▁paral	-14162
▁stool	-14163
▁suits	-14164
▁trash	-14165
▁valid	-14166
entured	-14167
▁ecstas	-14168
▁fluent	-14169
▁manual	-14170
▁nessie	-14171
▁parall	-14172
▁paraly	-14173
▁rushed	-14174
▁safari	-14175
▁sandra	-14176
▁sashim	-14177
▁savour	-14178
▁scores	-14179
▁screwd	-14180
▁seduce	-14181
▁seized	-14182
▁sermon	-14183
▁sexism	-14184
▁shocks	-14185
▁shrine	-14186
▁simult	-14187
▁skirts	-14188
▁sloven	-14189
▁slower	-14190
▁soaked	-14191
▁societ	-14192
▁solely	-14193
▁source	-14194
▁souven	-14195
▁sprout	-14196
▁sticks	-14197
▁sticky	-14198
▁stimul	-14199
ッサ	-14200
ペン	-14201
nia	-14202
voc	-14203
▁ぬれ	-14204
▁左手	-14205
▁救援	-14206
▁散漫	-14207
▁異議	-14208
▁白紙	-14209
▁眠た	-14210
▁確固	-14211
▁社員	-14212
▁覚め	-14213
▁調節	-14214
▁謝罪	-14215
▁賛美	-14216
▁逃走	-14217
▁遊べ	-14218
▁遊具	-14219
▁閉ざ	-14220
▁青々	-14221
▁顔色	-14222
▁食券	-14223
▁鳥取	-14224
▁鳥肉	-14225
▁鳥類	-14226
ッサと	-14227
ラップ	-14228
▁dot	-14229
▁jaw	-14230
▁paw	-14231
▁あらた	-14232
▁ありつ	-14233
▁じゃこ	-14234
▁めかし	-14235
▁アイル	-14236
▁プール	-14237
▁引きこ	-14238
▁引きつ	-14239
▁引き伸	-14240
▁賛美歌	-14241
ャンペン	-14242
hesia	-14243
ocate	-14244
omnia	-14245
versy	-14246
▁deer	-14247
▁seaw	-14248
▁troy	-14249
▁ありった	-14250
▁じゃこれ	-14251
▁サッサと	-14252
▁引きこも	-14253
▁引き伸ば	-14254
resent	-14255
▁havoc	-14256
▁hitom	-14257
▁skies	-14258
▁あらためて	-14259
▁ありったけ	-14260
▁シャンペン	-14261
▁スクラップ	-14262
▁引き伸ばし	-14263
cessive	-14264
roversy	-14265
▁assure	-14266
▁delays	-14267
▁hitomi	-14268
▁millim	-14269
▁plural	-14270
▁signed	-14271
▁stingy	-14272
▁stitch	-14273
▁stools	-14274
▁storms	-14275
▁stormy	-14276
▁superv	-14277
▁suzuki	-14278
▁syrinx	-14279
▁takaki	-14280
▁takaok	-14281
▁tariff	-14282
▁territ	-14283
▁tested	-14284
▁tezuka	-14285
▁thinly	-14286
▁tigers	-14287
▁tomato	-14288
▁trades	-14289
▁treaty	-14290
▁typing	-14291
▁unbrok	-14292
▁unconv	-14293
▁unfold	-14294
▁unique	-14295
▁vacuum	-14296
▁vanity	-14297
▁versed	-14298
▁versus	-14299
▁革	-14300
ked	-14301
▁80	-14302
▁ミリ	-14303
▁不変	-14304
▁内乱	-14305
▁内戦	-14306
▁内服	-14307
▁包み	-14308
▁味気	-14309
▁接待	-14310
▁散ら	-14311
▁暗黒	-14312
▁材料	-14313
▁深々	-14314
▁返信	-14315
▁返済	-14316
▁返答	-14317
▁配当	-14318
▁針金	-14319
▁銀河	-14320
keda	-14321
oors	-14322
rued	-14323
stru	-14324
▁いかせ	-14325
▁おくれ	-14326
▁さえぎ	-14327
▁はずみ	-14328
▁ままで	-14329
▁スクリ	-14330
▁ダスト	-14331
▁パント	-14332
▁ミート	-14333
▁ライト	-14334
▁大喝采	-14335
ihood	-14336
inned	-14337
ivors	-14338
olize	-14339
▁shru	-14340
▁solo	-14341
▁たいがい	-14342
▁ジョーク	-14343
ispens	-14344
isture	-14345
lihood	-14346
strual	-14347
▁flows	-14348
▁ikeda	-14349
▁lorry	-14350
▁milit	-14351
▁milky	-14352
▁parad	-14353
▁photo	-14354
▁seize	-14355
▁スクリュー	-14356
opolize	-14357
▁banker	-14358
▁disloc	-14359
▁drains	-14360
▁essays	-14361
▁headqu	-14362
▁shrugg	-14363
▁stored	-14364
▁trials	-14365
▁victim	-14366
▁volume	-14367
▁volunt	-14368
▁voting	-14369
▁waiter	-14370
▁warped	-14371
▁whites	-14372
▁widesp	-14373
▁wooden	-14374
▁wrestl	-14375
▁yoshio	-14376
▁いたずらっ子	-14377
▁しょっちゅう	-14378
▁ひとりぼっち	-14379
▁ぶっきらぼう	-14380
▁アイルランド	-14381
▁アグレッシブ	-14382
▁アシスタント	-14383
▁アンバランス	-14384
▁インタビュー	-14385
▁インディアン	-14386
▁オーケストラ	-14387
▁オーストリア	-14388
▁キャンディー	-14389
▁キャンペーン	-14390
▁キロメートル	-14391
▁ケンブリッジ	-14392
▁ケータリング	-14393
▁コントロール	-14394
▁ゴチャゴチャ	-14395
▁サイクリング	-14396
▁シンガポール	-14397
▁スーパーマー	-14398
▁ソフトウェア	-14399
ぶれ	-14400
臓器	-14401
elp	-14402
fee	-14403
▁のど	-14404
▁ふい	-14405
▁ふく	-14406
▁ふけ	-14407
▁ふふ	-14408
▁ふれ	-14409
▁めい	-14410
▁めが	-14411
▁めげ	-14412
▁ポン	-14413
▁ポー	-14414
▁レポ	-14415
▁人び	-14416
▁体壊	-14417
▁力士	-14418
▁危う	-14419
▁夏中	-14420
▁局部	-14421
▁歌え	-14422
▁臓器	-14423
▁辞儀	-14424
▁辞典	-14425
▁速記	-14426
ネージ	-14427
held	-14428
▁あぶれ	-14429
▁ふくら	-14430
▁めいめ	-14431
▁めがね	-14432
▁キング	-14433
▁キーン	-14434
▁ポスト	-14435
▁ポーラ	-14436
▁マーテ	-14437
▁ミラー	-14438
▁レイン	-14439
▁ロング	-14440
▁人びと	-14441
▁思い描	-14442
▁浮かび	-14443
▁生き物	-14444
ネージャ	-14445
amper	-14446
reced	-14447
▁biwa	-14448
▁damp	-14449
▁eyel	-14450
▁genu	-14451
▁olds	-14452
▁repe	-14453
▁yelp	-14454
▁めいめい	-14455
▁ジョーン	-14456
▁バランス	-14457
▁生まれつ	-14458
ネージャー	-14459
amples	-14460
ormous	-14461
preced	-14462
ritten	-14463
▁alfee	-14464
▁angin	-14465
▁armed	-14466
▁avail	-14467
▁cared	-14468
▁famed	-14469
▁knock	-14470
▁pathe	-14471
▁swims	-14472
▁tramp	-14473
▁マーテイン	-14474
▁レポーター	-14475
▁浮かび上が	-14476
redient	-14477
▁angina	-14478
▁chased	-14479
▁choles	-14480
▁client	-14481
▁eyelid	-14482
▁flared	-14483
▁knight	-14484
▁orient	-14485
▁pamper	-14486
▁pathet	-14487
▁proced	-14488
▁roared	-14489
▁spared	-14490
▁タンガニーカ	-14491
▁チャーミング	-14492
▁テレビスター	-14493
▁データベース	-14494
▁トレーニング	-14495
▁ハンドバッグ	-14496
▁パントマイム	-14497
▁フライポテト	-14498
▁プラスチック	-14499
立ち	-14500
▁たこ	-14501
▁やや	-14502
▁デブ	-14503
▁代り	-14504
▁代理	-14505
▁修正	-14506
▁写し	-14507
▁古び	-14508
▁古城	-14509
▁大陸	-14510
▁家計	-14511
▁役者	-14512
▁特異	-14513
▁特長	-14514
▁特集	-14515
▁私的	-14516
▁窓側	-14517
▁粉砕	-14518
▁美観	-14519
▁老婆	-14520
▁花嫁	-14521
▁花束	-14522
▁表明	-14523
▁足元	-14524
▁足挫	-14525
▁通読	-14526
▁雪男	-14527
agne	-14528
chel	-14529
gger	-14530
robe	-14531
word	-14532
▁一人子	-14533
▁逆立ち	-14534
osage	-14535
ouver	-14536
uplic	-14537
▁fret	-14538
▁inso	-14539
▁insp	-14540
▁jord	-14541
▁koun	-14542
▁subs	-14543
▁代わり映	-14544
▁飲み込み	-14545
chelor	-14546
▁dozed	-14547
▁exemp	-14548
▁insof	-14549
▁intim	-14550
▁parag	-14551
▁spark	-14552
▁sword	-14553
▁theat	-14554
▁代わり映え	-14555
ardrobe	-14556
▁breakd	-14557
▁cutest	-14558
▁deaths	-14559
▁dosage	-14560
▁duplic	-14561
▁exempt	-14562
▁favour	-14563
▁inspir	-14564
▁jordan	-14565
▁kounos	-14566
▁プログラマー	-14567
▁ヘッドライト	-14568
▁ヘリコプター	-14569
▁ホームステイ	-14570
▁ポップコーン	-14571
▁マネージャー	-14572
▁ミスプリント	-14573
▁メイフラワー	-14574
▁ユナイテッド	-14575
▁ライフワーク	-14576
▁ロサンゼルス	-14577
▁生まれつきよ	-14578
ancouver	-14579
andering	-14580
aneously	-14581
arkation	-14582
athanael	-14583
communic	-14584
election	-14585
enditure	-14586
esthesia	-14587
fectious	-14588
gredient	-14589
inforced	-14590
itecture	-14591
onograph	-14592
oquially	-14593
plicable	-14594
ractions	-14595
secutive	-14596
structed	-14597
unicipal	-14598
usements	-14599
ィン	-14600
uls	-14601
▁んば	-14602
▁ブー	-14603
▁万病	-14604
▁主治	-14605
▁二番	-14606
▁交番	-14607
▁再婚	-14608
▁半数	-14609
▁協調	-14610
▁味わ	-14611
▁山本	-14612
▁愛欲	-14613
▁愛犬	-14614
▁横滑	-14615
▁満々	-14616
▁満員	-14617
▁直後	-14618
▁直訳	-14619
▁競馬	-14620
▁苦痛	-14621
▁落着	-14622
▁転載	-14623
▁遠ざ	-14624
▁選出	-14625
▁頭上	-14626
▁頭金	-14627
akaz	-14628
azer	-14629
elly	-14630
rots	-14631
▁apo	-14632
▁いつも	-14633
▁ブーム	-14634
▁ブーメ	-14635
▁横滑り	-14636
▁遠ざか	-14637
anren	-14638
encer	-14639
lazer	-14640
▁cord	-14641
▁dime	-14642
▁inat	-14643
▁pist	-14644
blazer	-14645
inates	-14646
ulsory	-14647
▁apert	-14648
▁eleph	-14649
▁honey	-14650
▁inatt	-14651
▁incap	-14652
▁incas	-14653
▁jelly	-14654
▁query	-14655
▁sakaz	-14656
▁stell	-14657
▁ダーウィン	-14658
▁ブーメラン	-14659
idanren	-14660
▁abbrev	-14661
▁apollo	-14662
▁blanks	-14663
▁eighth	-14664
▁expans	-14665
▁groups	-14666
▁hosted	-14667
▁mistak	-14668
▁pistol	-14669
▁stella	-14670
▁thread	-14671
ustrated	-14672
▁300,000	-14673
▁abashed	-14674
▁abbrevi	-14675
▁abusing	-14676
▁accrued	-14677
▁adjoins	-14678
▁admires	-14679
▁adverse	-14680
▁agitate	-14681
▁airplan	-14682
▁airsick	-14683
▁allergy	-14684
▁altered	-14685
▁amiable	-14686
▁analogy	-14687
▁angelic	-14688
▁angrily	-14689
▁annoyed	-14690
▁appeals	-14691
▁arrives	-14692
▁assured	-14693
▁auction	-14694
▁audible	-14695
▁austria	-14696
▁awarded	-14697
▁baloney	-14698
▁barbers	-14699
そり	-14700
ナル	-14701
リダ	-14702
abb	-14703
hab	-14704
▁主催	-14705
▁安定	-14706
▁安藤	-14707
▁専制	-14708
▁性交	-14709
▁性差	-14710
▁意地	-14711
▁提起	-14712
▁支え	-14713
▁支障	-14714
▁文学	-14715
▁旅館	-14716
▁歓声	-14717
▁残高	-14718
▁終電	-14719
▁見本	-14720
▁面接	-14721
っそり	-14722
ソナル	-14723
abby	-14724
atab	-14725
ethe	-14726
orde	-14727
▁rus	-14728
▁ぞっと	-14729
▁テレア	-14730
▁性差別	-14731
▁言いつ	-14732
▁通り過	-14733
adays	-14734
ainty	-14735
dered	-14736
forts	-14737
inhab	-14738
lyard	-14739
▁copp	-14740
▁hint	-14741
▁rabb	-14742
▁stab	-14743
▁summ	-14744
▁sumo	-14745
▁tamp	-14746
▁wins	-14747
▁こっそり	-14748
▁テレアポ	-14749
▁フロリダ	-14750
▁言いつか	-14751
▁通り過ぎ	-14752
▁飛び降り	-14753
closed	-14754
ferent	-14755
istine	-14756
▁datab	-14757
▁entre	-14758
▁fails	-14759
▁slopp	-14760
▁solen	-14761
▁typed	-14762
▁パーソナル	-14763
▁ボーイング	-14764
ildered	-14765
▁boxing	-14766
▁copper	-14767
▁dainty	-14768
▁distur	-14769
▁entrep	-14770
▁reform	-14771
▁refres	-14772
▁shabby	-14773
▁soleno	-14774
▁walker	-14775
etheless	-14776
wildered	-14777
▁basking	-14778
▁bathtub	-14779
▁biggest	-14780
▁bikinis	-14781
▁blazing	-14782
▁blindly	-14783
▁blurred	-14784
▁bottles	-14785
▁bravely	-14786
▁breaths	-14787
▁british	-14788
▁browned	-14789
▁bumpkin	-14790
▁butcher	-14791
▁cancell	-14792
▁capable	-14793
▁capsule	-14794
▁carrots	-14795
▁central	-14796
▁challen	-14797
▁chatter	-14798
▁checked	-14799
ec	-14800
▁岸	-14801
とい	-14802
ウチ	-14803
ecd	-14804
▁っこ	-14805
▁世間	-14806
▁公定	-14807
▁判事	-14808
▁夜陰	-14809
▁平凡	-14810
▁平行	-14811
▁強盗	-14812
▁強面	-14813
▁快晴	-14814
▁木曜	-14815
▁木石	-14816
▁木立	-14817
▁海域	-14818
▁海歓	-14819
▁海辺	-14820
▁海面	-14821
▁熱意	-14822
▁現地	-14823
▁相性	-14824
▁真理	-14825
▁足首	-14826
▁野党	-14827
▁難破	-14828
▁難関	-14829
▁頼み	-14830
lesc	-14831
▁aid	-14832
▁けんた	-14833
▁カウチ	-14834
▁海歓び	-14835
orida	-14836
▁bypr	-14837
▁oecd	-14838
▁おととい	-14839
▁スプレー	-14840
ertile	-14841
▁invad	-14842
▁larry	-14843
▁towns	-14844
▁tremb	-14845
lescope	-14846
▁byprod	-14847
▁crunch	-14848
▁indign	-14849
▁shined	-14850
▁tanker	-14851
▁townsf	-14852
isations	-14853
▁cherish	-14854
▁chipped	-14855
▁chizuko	-14856
▁cholera	-14857
▁chuckle	-14858
▁closely	-14859
▁clouded	-14860
▁clubbed	-14861
▁coached	-14862
▁columbo	-14863
▁commute	-14864
▁complim	-14865
▁concept	-14866
▁condemn	-14867
▁confirm	-14868
▁conform	-14869
▁confuci	-14870
▁confuse	-14871
▁connect	-14872
▁convert	-14873
▁convict	-14874
▁cordial	-14875
▁corners	-14876
▁council	-14877
▁cracked	-14878
▁crashed	-14879
▁crawled	-14880
▁crimson	-14881
▁crosser	-14882
▁crowned	-14883
▁crushed	-14884
▁cupcake	-14885
▁curious	-14886
▁cutting	-14887
▁damaged	-14888
▁dangers	-14889
▁dealing	-14890
▁debated	-14891
▁decayed	-14892
▁defects	-14893
▁defense	-14894
▁defiant	-14895
▁deliver	-14896
▁denying	-14897
▁derived	-14898
▁derives	-14899
▁エク	-14900
▁エマ	-14901
▁エメ	-14902
▁サラ	-14903
▁サル	-14904
▁ブイ	-14905
▁ホノ	-14906
▁リズ	-14907
▁上達	-14908
▁人里	-14909
▁公債	-14910
▁公害	-14911
▁公明	-14912
▁公正	-14913
▁公私	-14914
▁公表	-14915
▁公開	-14916
▁共和	-14917
▁原典	-14918
▁市長	-14919
▁所感	-14920
▁所持	-14921
▁所蔵	-14922
▁技能	-14923
▁東西	-14924
▁気軽	-14925
▁着席	-14926
▁芸能	-14927
▁茶割	-14928
▁説き	-14929
▁進出	-14930
▁過分	-14931
▁過労	-14932
▁過度	-14933
▁非売	-14934
ぎつけ	-14935
リエネ	-14936
avig	-14937
rete	-14938
ucts	-14939
vial	-14940
▁しから	-14941
▁エクサ	-14942
▁ホノル	-14943
▁リズム	-14944
▁取り乱	-14945
▁取り分	-14946
▁取り合	-14947
▁取り崩	-14948
▁取り計	-14949
▁取り返	-14950
▁寝ころ	-14951
▁茶割り	-14952
▁説き伏	-14953
▁非売品	-14954
わり合い	-14955
リエネー	-14956
lower	-14957
uiled	-14958
▁3000	-14959
▁cans	-14960
▁heav	-14961
▁moss	-14962
▁pors	-14963
▁slim	-14964
▁slop	-14965
▁こぎつけ	-14966
▁エクササ	-14967
▁エメット	-14968
▁ストロー	-14969
▁ホノルル	-14970
▁取り計ら	-14971
▁説き伏せ	-14972
flower	-14973
ucture	-14974
▁disks	-14975
▁drier	-14976
▁drift	-14977
▁fewer	-14978
▁inher	-14979
▁navig	-14980
▁アリエネー	-14981
▁関わり合い	-14982
▁adjoin	-14983
▁budded	-14984
▁engage	-14985
▁injure	-14986
▁parent	-14987
▁server	-14988
▁slopes	-14989
▁エクササイズ	-14990
▁designs	-14991
▁desires	-14992
▁devices	-14993
▁dioxide	-14994
▁disgust	-14995
▁dispute	-14996
▁disturb	-14997
▁diverse	-14998
▁divided	-14999
▁凡	-15000
さか	-15001
ici	-15002
▁いば	-15003
▁じみ	-15004
▁とま	-15005
▁むす	-15006
▁健脚	-15007
▁凡打	-15008
▁口頭	-15009
▁寝つ	-15010
▁寝床	-15011
▁寝過	-15012
▁尋問	-15013
▁憤り	-15014
▁戦い	-15015
▁戦場	-15016
▁戦後	-15017
▁戦時	-15018
▁戦歴	-15019
▁戦死	-15020
▁戦艦	-15021
▁戦術	-15022
▁投稿	-15023
▁書留	-15024
▁期限	-15025
▁東向	-15026
▁灰皿	-15027
▁照明	-15028
▁重な	-15029
▁重ね	-15030
▁重点	-15031
▁重視	-15032
▁金属	-15033
▁飛散	-15034
ったい	-15035
mail	-15036
vals	-15037
ycle	-15038
▁vag	-15039
▁いばり	-15040
▁むすこ	-15041
▁アント	-15042
▁コース	-15043
▁パーク	-15044
▁ユリコ	-15045
▁分かち	-15046
▁向かい	-15047
▁寝過ご	-15048
▁引き抜	-15049
▁東向き	-15050
ージット	-15051
athon	-15052
inety	-15053
water	-15054
▁musc	-15055
▁おとなし	-15056
▁かき分け	-15057
▁もったい	-15058
▁アントレ	-15059
▁分かち合	-15060
▁燃えさか	-15061
incere	-15062
▁cooks	-15063
▁curve	-15064
▁goals	-15065
▁infer	-15066
▁mains	-15067
▁meals	-15068
▁postc	-15069
▁vague	-15070
▁いばりちら	-15071
iciency	-15072
ributes	-15073
▁morals	-15074
▁ninety	-15075
▁scared	-15076
▁surren	-15077
▁upward	-15078
▁チャージット	-15079
▁airmail	-15080
▁divorce	-15081
▁doubted	-15082
▁dragons	-15083
▁drawing	-15084
▁drinker	-15085
▁dumbest	-15086
▁editors	-15087
▁egotist	-15088
▁elderly	-15089
▁embassy	-15090
▁emotion	-15091
▁empires	-15092
▁emulate	-15093
▁enables	-15094
▁encircl	-15095
▁endless	-15096
▁endowed	-15097
▁enemies	-15098
▁evident	-15099
下さ	-15100
ubs	-15101
▁えり	-15102
▁えん	-15103
▁ケア	-15104
▁ビキ	-15105
▁ビタ	-15106
▁マヤ	-15107
▁マラ	-15108
▁マリ	-15109
▁他山	-15110
▁休め	-15111
▁休息	-15112
▁休養	-15113
▁割引	-15114
▁建築	-15115
▁急性	-15116
▁操作	-15117
▁潜水	-15118
▁真剣	-15119
▁終始	-15120
▁自販	-15121
▁赤紙	-15122
▁路線	-15123
▁通勤	-15124
▁間接	-15125
▁願書	-15126
ずらし	-15127
ぼらし	-15128
▁phr	-15129
▁あらし	-15130
▁えっと	-15131
▁ただし	-15132
▁ほとり	-15133
▁エージ	-15134
▁ケート	-15135
▁ビキニ	-15136
▁ビタミ	-15137
すぼらし	-15138
ッシック	-15139
ensus	-15140
owder	-15141
thand	-15142
▁cubs	-15143
▁eyed	-15144
▁mars	-15145
▁めずらし	-15146
▁エージェ	-15147
▁バンクー	-15148
▁ビタミン	-15149
▁マラソン	-15150
▁マリリン	-15151
▁降り下さ	-15152
berals	-15153
ension	-15154
health	-15155
itored	-15156
powder	-15157
velous	-15158
▁charl	-15159
▁chron	-15160
▁marve	-15161
▁metal	-15162
▁opens	-15163
▁みすぼらし	-15164
healthy	-15165
iberals	-15166
orthand	-15167
▁absurd	-15168
▁census	-15169
▁charms	-15170
▁farmer	-15171
▁formul	-15172
▁owners	-15173
▁phrase	-15174
▁ruling	-15175
▁エージェント	-15176
▁クラッシック	-15177
▁バンクーバー	-15178
andished	-15179
needless	-15180
▁charlie	-15181
▁cheated	-15182
▁chronic	-15183
▁classes	-15184
▁classic	-15185
▁exagger	-15186
▁exclude	-15187
▁excuses	-15188
▁expires	-15189
▁explore	-15190
▁extract	-15191
▁factors	-15192
▁failing	-15193
▁fatigue	-15194
▁feeding	-15195
▁fertile	-15196
▁fetched	-15197
▁fifteen	-15198
▁fifties	-15199
▁司	-15200
もじ	-15201
躍起	-15202
▁65	-15203
▁えこ	-15204
▁にこ	-15205
▁ふし	-15206
▁ロイ	-15207
▁ロミ	-15208
▁予見	-15209
▁免れ	-15210
▁全国	-15211
▁公立	-15212
▁冷夏	-15213
▁切ら	-15214
▁助手	-15215
▁司祭	-15216
▁合金	-15217
▁対抗	-15218
▁居宅	-15219
▁心酔	-15220
▁応対	-15221
▁快活	-15222
▁所帯	-15223
▁早朝	-15224
▁有力	-15225
▁有効	-15226
▁有益	-15227
▁温ま	-15228
▁灯り	-15229
▁血圧	-15230
▁要因	-15231
▁走行	-15232
▁躍起	-15233
▁風月	-15234
▁風物	-15235
▁風習	-15236
リーナ	-15237
bled	-15238
▁にこに	-15239
▁ひもじ	-15240
▁ふしだ	-15241
▁パティ	-15242
▁パーツ	-15243
▁ロック	-15244
▁ロミオ	-15245
▁受け継	-15246
▁苦しめ	-15247
ぐり抜け	-15248
ティティ	-15249
レリーナ	-15250
lming	-15251
▁cope	-15252
▁glim	-15253
▁sank	-15254
▁vary	-15255
▁にこにこ	-15256
▁ふしだら	-15257
▁めんどり	-15258
atible	-15259
bledon	-15260
inical	-15261
ricult	-15262
▁glimp	-15263
▁slope	-15264
▁くぐり抜け	-15265
▁バレリーナ	-15266
actions	-15267
helming	-15268
▁explod	-15269
▁thrill	-15270
▁violet	-15271
imbledon	-15272
▁affects	-15273
▁charles	-15274
▁contend	-15275
▁exposed	-15276
▁filling	-15277
▁flights	-15278
▁florida	-15279
▁fluency	-15280
▁freedom	-15281
▁freeing	-15282
▁freezer	-15283
▁freight	-15284
▁freshly	-15285
▁fulfill	-15286
▁funeral	-15287
▁furious	-15288
▁gardens	-15289
▁glaring	-15290
▁glimpse	-15291
▁grabbed	-15292
▁grinned	-15293
▁gripped	-15294
▁grocery	-15295
▁guessed	-15296
▁gunfire	-15297
▁handles	-15298
▁happier	-15299
さこ	-15300
ざめ	-15301
▁ga	-15302
▁くも	-15303
▁さぞ	-15304
▁じい	-15305
▁タン	-15306
▁チキ	-15307
▁チズ	-15308
▁ラン	-15309
▁ロバ	-15310
▁両州	-15311
▁両頬	-15312
▁信二	-15313
▁内部	-15314
▁十二	-15315
▁古代	-15316
▁同一	-15317
▁天文	-15318
▁始終	-15319
▁安静	-15320
▁度胸	-15321
▁当日	-15322
▁当社	-15323
▁文房	-15324
▁早く	-15325
▁物体	-15326
▁発声	-15327
▁発達	-15328
▁発音	-15329
▁背広	-15330
▁脱力	-15331
▁表面	-15332
▁足踏	-15333
▁軍事	-15334
▁近藤	-15335
▁近視	-15336
▁近郊	-15337
▁近頃	-15338
アント	-15339
clos	-15340
▁alt	-15341
▁かけら	-15342
▁みさこ	-15343
▁アリス	-15344
▁チキン	-15345
▁チズコ	-15346
▁チュー	-15347
▁仕込み	-15348
▁十二分	-15349
▁同一視	-15350
▁大して	-15351
▁見上げ	-15352
▁足踏み	-15353
▁青ざめ	-15354
イアント	-15355
▁gait	-15356
▁lawy	-15357
▁parr	-15358
▁perm	-15359
▁インフレ	-15360
▁タンカー	-15361
▁チューリ	-15362
▁ロバート	-15363
▁手当たり	-15364
acious	-15365
ricade	-15366
▁mustn	-15367
▁perfe	-15368
▁refut	-15369
▁weigh	-15370
closure	-15371
▁eighty	-15372
▁junior	-15373
▁nightm	-15374
▁parrot	-15375
▁preser	-15376
▁smokes	-15377
▁waking	-15378
▁weighs	-15379
▁クライアント	-15380
▁チューリップ	-15381
▁benches	-15382
▁blessed	-15383
▁drunken	-15384
▁heaters	-15385
▁heavier	-15386
▁hobbies	-15387
▁hostile	-15388
▁humming	-15389
▁iceberg	-15390
▁immense	-15391
▁immoral	-15392
▁implant	-15393
▁incapac	-15394
▁indulge	-15395
▁inquiry	-15396
▁insight	-15397
▁instant	-15398
▁intense	-15399
ぼそ	-15400
pro	-15401
▁のせ	-15402
▁の毛	-15403
▁メモ	-15404
▁二の	-15405
▁二郎	-15406
▁出世	-15407
▁受動	-15408
▁受諾	-15409
▁変身	-15410
▁変革	-15411
▁夜景	-15412
▁待合	-15413
▁推し	-15414
▁機器	-15415
▁機関	-15416
▁次号	-15417
▁死後	-15418
▁水牛	-15419
▁水田	-15420
▁水色	-15421
▁水面	-15422
▁注目	-15423
▁生気	-15424
▁空想	-15425
▁空飛	-15426
▁箱舟	-15427
▁草食	-15428
▁親睦	-15429
▁話中	-15430
▁週給	-15431
▁量り	-15432
▁頂け	-15433
そぼそ	-15434
イール	-15435
ロリー	-15436
affe	-15437
ayan	-15438
proc	-15439
scap	-15440
ulip	-15441
▁fox	-15442
▁sip	-15443
▁いため	-15444
▁ひかえ	-15445
▁ほどけ	-15446
▁オール	-15447
▁デスク	-15448
▁二の舞	-15449
▁推し進	-15450
angar	-15451
ulips	-15452
▁caut	-15453
▁pudd	-15454
▁warn	-15455
▁whip	-15456
▁ぼそぼそ	-15457
▁カロリー	-15458
▁ホイール	-15459
▁推し進め	-15460
alayan	-15461
ciproc	-15462
ctopic	-15463
hesion	-15464
scapes	-15465
▁belts	-15466
▁spain	-15467
クトロニクス	-15468
angaroo	-15469
▁column	-15470
▁dealer	-15471
▁deceit	-15472
▁sleeps	-15473
▁tulips	-15474
▁venice	-15475
▁beatles	-15476
▁beautif	-15477
▁caution	-15478
▁dresses	-15479
▁ectopic	-15480
▁giraffe	-15481
▁invader	-15482
▁involve	-15483
▁january	-15484
▁joining	-15485
▁karaoke	-15486
▁kicking	-15487
▁kidding	-15488
▁knuckle	-15489
▁labeled	-15490
▁leaning	-15491
▁lending	-15492
▁lengths	-15493
▁leopard	-15494
▁leveler	-15495
▁limited	-15496
▁listens	-15497
▁literal	-15498
▁locking	-15499
わさ	-15500
ドア	-15501
逃げ	-15502
▁下宿	-15503
▁体操	-15504
▁友だ	-15505
▁合切	-15506
▁合気	-15507
▁合間	-15508
▁喝采	-15509
▁弁論	-15510
▁月並	-15511
▁歩き	-15512
▁歩合	-15513
▁歩調	-15514
▁水質	-15515
▁理屈	-15516
▁着想	-15517
▁終戦	-15518
▁終結	-15519
▁美的	-15520
▁試練	-15521
▁賢者	-15522
▁道の	-15523
▁道楽	-15524
▁道理	-15525
▁道筋	-15526
▁長命	-15527
▁長身	-15528
セット	-15529
プット	-15530
izut	-15531
▁diz	-15532
▁とてつ	-15533
▁はかり	-15534
▁入り込	-15535
▁友だち	-15536
▁合わさ	-15537
▁月並み	-15538
▁歩き回	-15539
▁道のり	-15540
リセット	-15541
chiko	-15542
izuta	-15543
raphs	-15544
▁clut	-15545
▁mann	-15546
▁sunr	-15547
▁swap	-15548
▁tact	-15549
▁じっくり	-15550
▁持ち逃げ	-15551
active	-15552
agging	-15553
etting	-15554
ignity	-15555
inting	-15556
utions	-15557
▁bakes	-15558
▁dizzy	-15559
▁patty	-15560
▁reign	-15561
▁swine	-15562
▁tract	-15563
▁アウトドア	-15564
▁インプット	-15565
▁チャンピオ	-15566
▁プリセット	-15567
itioner	-15568
▁adored	-15569
▁detour	-15570
▁impact	-15571
▁mizuta	-15572
▁preced	-15573
▁takesh	-15574
▁weekly	-15575
▁チャンピオン	-15576
▁boarded	-15577
▁compact	-15578
▁dignity	-15579
▁locomot	-15580
▁lottery	-15581
▁lovable	-15582
▁loyalty	-15583
▁lunched	-15584
▁lunches	-15585
▁majored	-15586
▁mammals	-15587
▁mastery	-15588
▁matched	-15589
▁maximum	-15590
▁mending	-15591
▁mileage	-15592
▁milkman	-15593
▁minceme	-15594
▁mineral	-15595
▁miracle	-15596
▁misfort	-15597
▁mission	-15598
▁mochida	-15599
eem	-15600
ixt	-15601
mbr	-15602
▁pc	-15603
▁さわ	-15604
▁アザ	-15605
▁上方	-15606
▁乗せ	-15607
▁予習	-15608
▁作業	-15609
▁名医	-15610
▁名簿	-15611
▁外泊	-15612
▁大聖	-15613
▁天の	-15614
▁女房	-15615
▁宝く	-15616
▁専務	-15617
▁帰り	-15618
▁帰省	-15619
▁悲鳴	-15620
▁救助	-15621
▁楽々	-15622
▁横棒	-15623
▁正々	-15624
▁正大	-15625
▁正気	-15626
▁正装	-15627
▁無断	-15628
▁病人	-15629
▁病室	-15630
▁若干	-15631
▁若返	-15632
▁裏側	-15633
▁要旨	-15634
▁野性	-15635
▁関税	-15636
カイン	-15637
bile	-15638
ondo	-15639
▁pcs	-15640
▁からく	-15641
▁きらい	-15642
▁アザラ	-15643
▁人込み	-15644
▁大聖堂	-15645
▁宝くじ	-15646
▁引きは	-15647
▁思い切	-15648
▁正気づ	-15649
notes	-15650
users	-15651
▁dash	-15652
▁fixt	-15653
▁アザラシ	-15654
▁コカイン	-15655
▁引きはが	-15656
iantly	-15657
mbrand	-15658
ondays	-15659
rewell	-15660
▁blond	-15661
▁kondo	-15662
▁smear	-15663
▁tense	-15664
mbrandt	-15665
▁advise	-15666
▁blonde	-15667
▁busied	-15668
▁defens	-15669
▁esteem	-15670
▁hollow	-15671
▁ladder	-15672
▁misako	-15673
▁mobile	-15674
▁fixture	-15675
▁moments	-15676
▁mondays	-15677
▁murders	-15678
▁natives	-15679
▁natsume	-15680
▁neutral	-15681
▁nodding	-15682
▁notions	-15683
▁obliged	-15684
▁obliges	-15685
▁olympic	-15686
▁operate	-15687
▁overlap	-15688
▁oysters	-15689
▁pacific	-15690
▁packing	-15691
▁painful	-15692
▁pajamas	-15693
▁paralyz	-15694
▁passers	-15695
▁passive	-15696
▁peoples	-15697
▁percept	-15698
▁persian	-15699
roe	-15700
▁nh	-15701
▁おわ	-15702
▁まざ	-15703
▁カキ	-15704
▁カギ	-15705
▁カテ	-15706
▁カ所	-15707
▁ギョ	-15708
▁協会	-15709
▁後世	-15710
▁後回	-15711
▁後姿	-15712
▁意図	-15713
▁意外	-15714
▁意訳	-15715
▁早晩	-15716
▁母乳	-15717
▁母国	-15718
▁滞留	-15719
▁西部	-15720
▁軍備	-15721
▁連ド	-15722
たまり	-15723
hets	-15724
icha	-15725
ifty	-15726
lets	-15727
▁dip	-15728
▁loa	-15729
▁nhk	-15730
▁たまわ	-15731
▁はばた	-15732
▁まざる	-15733
▁カテゴ	-15734
▁ギョッ	-15735
▁値上げ	-15736
▁底意地	-15737
▁後回し	-15738
▁連ドラ	-15739
アメリカ	-15740
▁asks	-15741
▁crad	-15742
▁cris	-15743
▁curb	-15744
▁dipl	-15745
▁jere	-15746
▁loaf	-15747
▁pole	-15748
▁polo	-15749
▁prec	-15750
▁stro	-15751
▁surf	-15752
▁wits	-15753
▁さらさら	-15754
▁とりどり	-15755
▁ギョッと	-15756
▁水たまり	-15757
ichael	-15758
ilated	-15759
▁impot	-15760
▁meets	-15761
▁nifty	-15762
▁カテゴリー	-15763
astated	-15764
▁abated	-15765
▁cradle	-15766
▁crisis	-15767
▁diplom	-15768
▁finest	-15769
▁impart	-15770
▁jeremy	-15771
▁jessie	-15772
▁monroe	-15773
▁polish	-15774
▁stated	-15775
▁stings	-15776
▁strain	-15777
▁strove	-15778
imilated	-15779
▁defused	-15780
▁diploma	-15781
▁handout	-15782
▁michael	-15783
▁outlets	-15784
▁petrole	-15785
▁phoning	-15786
▁picking	-15787
▁pilings	-15788
▁pitcher	-15789
▁pitiful	-15790
▁plainer	-15791
▁plainly	-15792
▁planted	-15793
▁plastic	-15794
▁playboy	-15795
▁pledged	-15796
▁pockets	-15797
▁porsche	-15798
▁pottery	-15799
▁T	-15800
つう	-15801
uir	-15802
▁あな	-15803
▁円盤	-15804
▁労使	-15805
▁地上	-15806
▁地名	-15807
▁心待	-15808
▁心情	-15809
▁怪物	-15810
▁悪事	-15811
▁悪名	-15812
▁悪意	-15813
▁悪用	-15814
▁悪賢	-15815
▁指名	-15816
▁有無	-15817
▁特色	-15818
▁産休	-15819
▁盗み	-15820
▁立見	-15821
▁立身	-15822
▁笑顔	-15823
▁経路	-15824
▁船積	-15825
▁起訴	-15826
▁通せ	-15827
▁通学	-15828
▁通訳	-15829
▁通貨	-15830
▁運び	-15831
▁靴下	-15832
▁高々	-15833
▁高め	-15834
▁高名	-15835
▁高生	-15836
alys	-15837
▁ふつう	-15838
▁みつけ	-15839
▁フリー	-15840
▁心待ち	-15841
▁考え出	-15842
▁船積み	-15843
▁運び出	-15844
ounan	-15845
uirie	-15846
▁puts	-15847
▁ジュニア	-15848
alysis	-15849
incing	-15850
itable	-15851
orable	-15852
uiriel	-15853
▁crane	-15854
▁finds	-15855
▁fours	-15856
▁kuros	-15857
▁yards	-15858
vitable	-15859
▁dipped	-15860
▁shinji	-15861
▁stable	-15862
evitable	-15863
▁betters	-15864
▁muiriel	-15865
▁partial	-15866
▁precise	-15867
▁preface	-15868
▁pricing	-15869
▁primary	-15870
▁profits	-15871
▁promote	-15872
▁prosper	-15873
▁provoke	-15874
▁punches	-15875
▁pursued	-15876
▁pushing	-15877
▁quicker	-15878
▁reaches	-15879
▁rebuilt	-15880
▁recycle	-15881
▁refrain	-15882
▁regrets	-15883
▁relaxed	-15884
▁remarks	-15885
▁replace	-15886
▁resting	-15887
▁restore	-15888
▁retinal	-15889
▁returns	-15890
▁reviews	-15891
▁richest	-15892
▁rituals	-15893
▁rivalry	-15894
▁rodents	-15895
▁routine	-15896
▁rubbish	-15897
▁rushing	-15898
▁sachiko	-15899
熟達	-15900
eue	-15901
▁ひけ	-15902
▁ひげ	-15903
▁ティ	-15904
▁テン	-15905
▁バタ	-15906
▁パッ	-15907
▁ビュ	-15908
▁促進	-15909
▁包容	-15910
▁取材	-15911
▁同化	-15912
▁同感	-15913
▁同月	-15914
▁同道	-15915
▁国務	-15916
▁国勢	-15917
▁国境	-15918
▁国旗	-15919
▁国歌	-15920
▁国王	-15921
▁国籍	-15922
▁国語	-15923
▁国連	-15924
▁居残	-15925
▁成敗	-15926
▁成果	-15927
▁戦闘	-15928
▁教科	-15929
▁書店	-15930
▁月給	-15931
▁決議	-15932
▁流し	-15933
▁浅学	-15934
▁無人	-15935
▁無力	-15936
▁無名	-15937
▁無害	-15938
▁熟達	-15939
▁白黒	-15940
▁立案	-15941
▁組合	-15942
▁結び	-15943
▁結末	-15944
▁結論	-15945
▁視線	-15946
avel	-15947
tise	-15948
▁tob	-15949
▁ティム	-15950
▁テンポ	-15951
▁手出し	-15952
イキング	-15953
ェールズ	-15954
erang	-15955
ravel	-15956
▁chew	-15957
▁clue	-15958
▁gour	-15959
▁grun	-15960
▁item	-15961
▁laun	-15962
▁owed	-15963
▁resc	-15964
▁toba	-15965
▁結びつけ	-15966
arried	-15967
forest	-15968
▁backb	-15969
▁beset	-15970
▁erase	-15971
▁gourd	-15972
▁grows	-15973
▁plant	-15974
▁queue	-15975
▁ウェールズ	-15976
▁ビュッフェ	-15977
▁メイキング	-15978
forests	-15979
married	-15980
omerang	-15981
ostered	-15982
▁commas	-15983
▁empire	-15984
▁housew	-15985
▁mature	-15986
▁tobacc	-15987
fortable	-15988
hemistry	-15989
▁baseman	-15990
▁calling	-15991
▁grunted	-15992
▁kindred	-15993
▁rescued	-15994
▁samples	-15995
▁satisfy	-15996
▁scarcer	-15997
▁scraped	-15998
▁scrappy	-15999
▁麗	-16000
ags	-16001
eji	-16002
▁ぎざ	-16003
▁ぽた	-16004
▁むだ	-16005
▁コネ	-16006
▁ソプ	-16007
▁乗船	-16008
▁八百	-16009
▁封建	-16010
▁小判	-16011
▁小魚	-16012
▁川下	-16013
▁断念	-16014
▁晩御	-16015
▁歌い	-16016
▁真似	-16017
▁脱走	-16018
▁裁縫	-16019
▁観察	-16020
▁魚釣	-16021
▁麗し	-16022
くらべ	-16023
ミット	-16024
リート	-16025
▁opt	-16026
▁rac	-16027
▁sir	-16028
▁ぎざぎ	-16029
▁ひとみ	-16030
▁ほうび	-16031
▁ぽたぽ	-16032
▁わが家	-16033
▁ソプラ	-16034
▁ナイト	-16035
▁晩御飯	-16036
▁歌い手	-16037
▁追い返	-16038
▁魚釣り	-16039
aging	-16040
backs	-16041
hance	-16042
riter	-16043
▁fuse	-16044
▁obsc	-16045
▁suck	-16046
▁ぎざぎざ	-16047
▁ぽたぽた	-16048
▁サミット	-16049
▁ソプラノ	-16050
▁拾い集め	-16051
▁見くらべ	-16052
arying	-16053
idered	-16054
▁appet	-16055
▁brags	-16056
▁bride	-16057
▁coats	-16058
▁dared	-16059
▁disad	-16060
▁disch	-16061
▁grade	-16062
▁grind	-16063
▁gross	-16064
▁notre	-16065
▁terry	-16066
トネーション	-16067
ittance	-16068
varying	-16069
▁append	-16070
▁backse	-16071
▁himeji	-16072
▁indict	-16073
▁insane	-16074
▁racial	-16075
▁serial	-16076
▁stance	-16077
▁trance	-16078
▁コンクリート	-16079
▁ショッピング	-16080
▁conners	-16081
▁dischar	-16082
▁enhance	-16083
▁hateful	-16084
▁obscure	-16085
▁oppress	-16086
▁options	-16087
▁scratch	-16088
▁screwed	-16089
▁seasons	-16090
▁seclude	-16091
▁secrets	-16092
▁sending	-16093
▁serving	-16094
▁shaving	-16095
▁shinano	-16096
▁shotgun	-16097
▁shouted	-16098
▁singles	-16099
Pod	-16100
▁93	-16101
▁ごう	-16102
▁ごき	-16103
▁ご飯	-16104
▁ちな	-16105
▁ちび	-16106
▁ちま	-16107
▁カシ	-16108
▁ジグ	-16109
▁スイ	-16110
▁スキ	-16111
▁スコ	-16112
▁スピ	-16113
▁丁重	-16114
▁不定	-16115
▁不服	-16116
▁不眠	-16117
▁不良	-16118
▁先導	-16119
▁公言	-16120
▁分布	-16121
▁右脚	-16122
▁工作	-16123
▁手腕	-16124
▁打て	-16125
▁整え	-16126
▁昇格	-16127
▁校長	-16128
▁目印	-16129
▁観念	-16130
▁電卓	-16131
ades	-16132
osek	-16133
uchi	-16134
ulse	-16135
▁bub	-16136
▁しっぽ	-16137
▁ちびち	-16138
▁コンパ	-16139
▁ジグソ	-16140
gment	-16141
icies	-16142
irled	-16143
oseki	-16144
rades	-16145
▁bish	-16146
▁hose	-16147
▁iPod	-16148
▁miso	-16149
▁tart	-16150
▁ごきげん	-16151
▁ちびちび	-16152
▁ジグソー	-16153
▁スイート	-16154
▁スキャン	-16155
▁スコット	-16156
▁スピード	-16157
asters	-16158
istics	-16159
▁meyer	-16160
▁shops	-16161
▁wrist	-16162
missive	-16163
▁bicycl	-16164
▁bishop	-16165
▁blends	-16166
▁bubble	-16167
▁makeup	-16168
▁mickey	-16169
▁proves	-16170
▁soseki	-16171
▁tartar	-16172
▁スキャンダル	-16173
oundings	-16174
▁barking	-16175
▁impulse	-16176
▁intends	-16177
▁marking	-16178
▁politic	-16179
▁servant	-16180
▁skating	-16181
▁sketchy	-16182
▁slander	-16183
▁slapped	-16184
▁slashed	-16185
▁sleeved	-16186
▁smaller	-16187
▁smiling	-16188
▁snapped	-16189
▁sneaked	-16190
▁sobbing	-16191
▁soldier	-16192
▁sounded	-16193
▁spacing	-16194
▁sparked	-16195
▁spencer	-16196
▁spurred	-16197
▁squares	-16198
▁stabbed	-16199
バレ	-16200
モア	-16201
致命	-16202
▁じゅ	-16203
▁ずば	-16204
▁ずれ	-16205
▁べス	-16206
▁クマ	-16207
▁コラ	-16208
▁サフ	-16209
▁下手	-16210
▁下落	-16211
▁下調	-16212
▁下車	-16213
▁下院	-16214
▁不利	-16215
▁余儀	-16216
▁全人	-16217
▁全会	-16218
▁全市	-16219
▁全校	-16220
▁前例	-16221
▁前方	-16222
▁前期	-16223
▁前衛	-16224
▁勤務	-16225
▁収ま	-16226
▁口外	-16227
▁名札	-16228
▁外食	-16229
▁多様	-16230
▁子宮	-16231
▁子犬	-16232
▁必然	-16233
▁必需	-16234
▁方位	-16235
▁方式	-16236
▁方策	-16237
▁硬度	-16238
▁美容	-16239
▁致命	-16240
▁送料	-16241
▁食器	-16242
リット	-16243
▁dew	-16244
▁ide	-16245
▁あっさ	-16246
▁コラム	-16247
▁サファ	-16248
▁下調べ	-16249
▁全人生	-16250
▁端書き	-16251
▁飛び乗	-16252
メリット	-16253
▁isod	-16254
▁joan	-16255
▁mick	-16256
▁tren	-16257
▁twin	-16258
▁あっさり	-16259
▁じゅっぷ	-16260
▁ずば抜け	-16261
▁サファリ	-16262
▁ネタバレ	-16263
▁ユーモア	-16264
▁押し分け	-16265
inning	-16266
▁agent	-16267
▁click	-16268
▁isoda	-16269
▁じゅっぷん	-16270
▁デメリット	-16271
▁accent	-16272
▁approp	-16273
▁ideals	-16274
▁reduce	-16275
▁totter	-16276
▁trends	-16277
▁bounced	-16278
▁cruelty	-16279
▁harmony	-16280
▁standst	-16281
▁staring	-16282
▁starved	-16283
▁steamed	-16284
▁strateg	-16285
▁strengt	-16286
▁strings	-16287
▁striped	-16288
▁subways	-16289
▁suffers	-16290
▁suitcas	-16291
▁summary	-16292
▁sunrise	-16293
▁surfers	-16294
▁swiftly	-16295
▁tactics	-16296
▁tadashi	-16297
▁takaoka	-16298
▁takeshi	-16299
▁あせ	-16300
▁ごま	-16301
▁ぼう	-16302
▁アピ	-16303
▁上回	-16304
▁上映	-16305
▁上等	-16306
▁上部	-16307
▁上陸	-16308
▁主役	-16309
▁入門	-16310
▁分科	-16311
▁初期	-16312
▁勤ま	-16313
▁厳罰	-16314
▁外用	-16315
▁年下	-16316
▁年輩	-16317
▁年配	-16318
▁持田	-16319
▁新た	-16320
▁新作	-16321
▁最長	-16322
▁無口	-16323
▁生け	-16324
▁空家	-16325
▁財団	-16326
▁間中	-16327
クター	-16328
eler	-16329
tell	-16330
town	-16331
vene	-16332
▁hay	-16333
▁ごまか	-16334
▁しゃが	-16335
▁じゃん	-16336
▁ひそか	-16337
▁生け捕	-16338
▁積み荷	-16339
ティーブ	-16340
athed	-16341
oused	-16342
ouses	-16343
▁2.0.	-16344
▁abel	-16345
▁gods	-16346
▁leis	-16347
▁アピール	-16348
▁生け捕り	-16349
eathed	-16350
uctory	-16351
▁brass	-16352
▁dough	-16353
▁stalk	-16354
▁suite	-16355
▁tempo	-16356
▁tough	-16357
▁trous	-16358
▁urawa	-16359
▁スティーブ	-16360
▁トラクター	-16361
▁adores	-16362
▁basket	-16363
▁matsuk	-16364
▁proven	-16365
▁reader	-16366
▁roused	-16367
▁turner	-16368
queathed	-16369
▁jeweler	-16370
▁leisure	-16371
▁lighten	-16372
▁offense	-16373
▁tangany	-16374
▁tatsuya	-16375
▁terrain	-16376
▁theatre	-16377
▁thirdly	-16378
▁tidings	-16379
▁tighten	-16380
▁tipping	-16381
▁tobacco	-16382
▁toiling	-16383
▁tongues	-16384
▁tornado	-16385
▁torpedo	-16386
▁torture	-16387
▁totaled	-16388
▁totally	-16389
▁tottori	-16390
▁towards	-16391
▁tractor	-16392
▁trading	-16393
▁traitor	-16394
▁tremble	-16395
▁trifled	-16396
▁trifles	-16397
▁trigger	-16398
▁triumph	-16399
イナ	-16400
誉め	-16401
▁かい	-16402
▁しろ	-16403
▁ずぶ	-16404
▁みつ	-16405
▁バッ	-16406
▁ビア	-16407
▁一昨	-16408
▁健二	-16409
▁区域	-16410
▁博文	-16411
▁好機	-16412
▁学業	-16413
▁急務	-16414
▁愚者	-16415
▁新調	-16416
▁早速	-16417
▁来り	-16418
▁空虚	-16419
▁記述	-16420
▁誉め	-16421
▁貨物	-16422
▁造花	-16423
っとと	-16424
っとり	-16425
てなし	-16426
ューズ	-16427
ects	-16428
rows	-16429
▁boe	-16430
▁ずぶぬ	-16431
▁みつか	-16432
▁わっと	-16433
▁バッテ	-16434
▁ピカピ	-16435
▁ブルド	-16436
▁ベスト	-16437
▁入れ歯	-16438
▁引きず	-16439
inkle	-16440
order	-16441
umble	-16442
umers	-16443
uther	-16444
▁acid	-16445
▁cure	-16446
▁dine	-16447
▁link	-16448
▁maya	-16449
▁orch	-16450
▁pink	-16451
▁pure	-16452
▁vine	-16453
▁うっとり	-16454
▁きっかり	-16455
▁ずぶぬれ	-16456
▁とっとと	-16457
▁もてなし	-16458
▁シューズ	-16459
▁チャイナ	-16460
▁ピカピカ	-16461
▁掛け売り	-16462
▁食べごろ	-16463
ingale	-16464
ounted	-16465
▁adore	-16466
▁drain	-16467
▁links	-16468
▁romeo	-16469
▁satoy	-16470
▁spect	-16471
▁weren	-16472
▁バッテリー	-16473
▁ブルドッグ	-16474
ainting	-16475
artment	-16476
▁ascrib	-16477
▁boeing	-16478
▁border	-16479
▁diseas	-16480
▁luther	-16481
▁tumble	-16482
▁contain	-16483
▁orchard	-16484
▁panting	-16485
▁schools	-16486
▁twinkle	-16487
▁unbelie	-16488
▁uniform	-16489
▁uninhab	-16490
▁upwards	-16491
▁urchins	-16492
▁urinate	-16493
▁useless	-16494
▁ushered	-16495
▁vending	-16496
▁victims	-16497
▁viruses	-16498
▁visible	-16499
▁C	-16500
▁虚	-16501
なわ	-16502
入り	-16503
nie	-16504
sub	-16505
▁CF	-16506
▁ねじ	-16507
▁ねだ	-16508
▁ねー	-16509
▁ゆけ	-16510
▁住み	-16511
▁優等	-16512
▁先駆	-16513
▁地価	-16514
▁実業	-16515
▁届け	-16516
▁戦略	-16517
▁気体	-16518
▁気味	-16519
▁気楽	-16520
▁気詰	-16521
▁気遣	-16522
▁気難	-16523
▁気骨	-16524
▁生存	-16525
▁生理	-16526
▁航行	-16527
▁虚心	-16528
▁証明	-16529
▁試用	-16530
▁誤ら	-16531
▁運痴	-16532
▁館内	-16533
なわち	-16534
んがり	-16535
スティ	-16536
▁CFI	-16537
▁bra	-16538
▁cog	-16539
▁lob	-16540
▁こまめ	-16541
▁ねだり	-16542
▁ほどよ	-16543
▁サイト	-16544
▁出入り	-16545
▁大変心	-16546
▁気難し	-16547
スティナ	-16548
arity	-16549
subas	-16550
▁CFIT	-16551
▁agre	-16552
▁anym	-16553
▁arch	-16554
▁cape	-16555
▁clay	-16556
▁clen	-16557
▁coch	-16558
▁coin	-16559
▁mart	-16560
▁nude	-16561
▁stap	-16562
▁wool	-16563
▁こんがり	-16564
▁すなわち	-16565
▁つりあげ	-16566
▁気詰まり	-16567
subasa	-16568
▁arnie	-16569
▁brood	-16570
▁roast	-16571
▁sheep	-16572
▁システィナ	-16573
▁チャンネル	-16574
entious	-16575
▁agreea	-16576
▁clench	-16577
▁cochle	-16578
▁martin	-16579
▁singap	-16580
▁staple	-16581
▁visits	-16582
▁woolen	-16583
▁agreeab	-16584
▁anymore	-16585
▁bravery	-16586
▁brooded	-16587
▁chapter	-16588
▁clarity	-16589
▁cochlea	-16590
▁kushiro	-16591
▁lobster	-16592
▁tourist	-16593
▁tsubasa	-16594
▁wagging	-16595
▁weeding	-16596
▁whirled	-16597
▁winters	-16598
▁wishing	-16599
液体	-16600
▁こだ	-16601
▁へら	-16602
▁マジ	-16603
▁事物	-16604
▁二三	-16605
▁反証	-16606
▁名案	-16607
▁呼ば	-16608
▁回数	-16609
▁恵一	-16610
▁手中	-16611
▁手塚	-16612
▁手当	-16613
▁手本	-16614
▁手相	-16615
▁手袋	-16616
▁手首	-16617
▁本国	-16618
▁本心	-16619
▁本校	-16620
▁本物	-16621
▁本能	-16622
▁本鈴	-16623
▁歯車	-16624
▁液体	-16625
▁生え	-16626
▁生じ	-16627
▁知能	-16628
▁確立	-16629
▁職人	-16630
▁証言	-16631
▁財務	-16632
yday	-16633
▁rig	-16634
▁いつ頃	-16635
▁こだわ	-16636
▁ひと言	-16637
▁ものす	-16638
▁テリー	-16639
▁マジボ	-16640
▁ミック	-16641
▁尽くめ	-16642
▁殴り倒	-16643
ifest	-16644
▁feud	-16645
▁inte	-16646
▁intr	-16647
▁shel	-16648
▁stif	-16649
▁teas	-16650
▁ものすご	-16651
▁ノーベル	-16652
▁マジボケ	-16653
▁呼ばわり	-16654
▁feast	-16655
▁inton	-16656
▁kimon	-16657
▁ogata	-16658
▁rigid	-16659
▁saver	-16660
▁teres	-16661
▁villa	-16662
▁feudal	-16663
[...]
