<unk>	0
<s>	0
</s>	0
▁t	-0
he	-1
▁.	-2
▁a	-3
▁i	-4
▁w	-5
▁s	-6
▁the	-7
ou	-8
re	-9
▁m	-10
in	-11
▁h	-12
on	-13
▁b	-14
▁c	-15
▁to	-16
er	-17
▁f	-18
▁he	-19
at	-20
▁d	-21
en	-22
or	-23
an	-24
is	-25
▁p	-26
▁y	-27
▁o	-28
ed	-29
▁l	-30
os	-31
ing	-32
as	-33
ap	-34
▁you	-35
▁th	-36
ll	-37
es	-38
▁&	-39
ar	-40
▁in	-41
▁is	-42
▁n	-43
▁g	-44
▁of	-45
it	-46
apos	-47
ot	-48
om	-49
ve	-50
▁,	-51
▁be	-52
le	-53
ay	-54
▁e	-55
▁an	-56
ic	-57
▁we	-58
ow	-59
▁ha	-60
et	-61
▁it	-62
ld	-63
▁on	-64
▁for	-65
▁?	-66
us	-67
▁was	-68
ent	-69
im	-70
▁st	-71
▁re	-72
oo	-73
ver	-74
▁she	-75
ke	-76
al	-77
▁r	-78
ion	-79
▁that	-80
▁me	-81
▁his	-82
▁wh	-83
ch	-84
▁my	-85
gh	-86
id	-87
▁do	-88
▁wit	-89
▁with	-90
▁this	-91
ad	-92
ter	-93
▁have	-94
ill	-95
ce	-96
▁not	-97
her	-98
▁as	-99
out	-100
▁at	-101
▁u	-102
▁li	-103
ly	-104
ut	-105
am	-106
ct	-107
▁su	-108
▁and	-109
ir	-110
▁are	-111
▁her	-112
▁sh	-113
ght	-114
▁ne	-115
ain	-116
ould	-117
▁can	-118
qu	-119
▁j	-120
ri	-121
▁se	-122
ome	-123
se	-124
▁will	-125
▁your	-126
op	-127
▁k	-128
▁him	-129
all	-130
▁go	-131
ea	-132
st	-133
ook	-134
ur	-135
▁so	-136
ul	-137
one	-138
very	-139
▁what	-140
ore	-141
▁ab	-142
▁fr	-143
our	-144
▁ch	-145
▁tr	-146
ake	-147
▁whe	-148
▁wor	-149
ge	-150
oun	-151
▁up	-152
▁there	-153
ess	-154
ation	-155
▁by	-156
▁man	-157
il	-158
▁pr	-159
▁has	-160
▁all	-161
est	-162
▁ex	-163
▁had	-164
▁no	-165
▁de	-166
▁out	-167
ard	-168
▁from	-169
ong	-170
▁they	-171
▁sp	-172
ight	-173
ood	-174
ust	-175
▁en	-176
ck	-177
th	-178
un	-179
ind	-180
▁com	-181
ant	-182
▁don	-183
fe	-184
and	-185
▁al	-186
▁tim	-187
ers	-188
▁con	-189
▁pl	-190
ate	-191
ud	-192
▁when	-193
red	-194
▁get	-195
▁like	-196
ble	-197
end	-198
ast	-199
ame	-200
▁v	-201
ish	-202
▁un	-203
ase	-204
quot	-205
art	-206
ear	-207
▁see	-208
ice	-209
ak	-210
ist	-211
ort	-212
▁us	-213
▁am	-214
ol	-215
ry	-216
ive	-217
res	-218
▁time	-219
▁good	-220
if	-221
▁but	-222
▁about	-223
now	-224
▁fe	-225
▁our	-226
ays	-227
▁int	-228
▁were	-229
pp	-230
day	-231
▁sa	-232
▁af	-233
▁fa	-234
cc	-235
▁new	-236
▁te	-237
ig	-238
are	-239
▁let	-240
▁look	-241
▁very	-242
▁did	-243
other	-244
▁than	-245
▁cl	-246
▁too	-247
▁work	-248
▁ple	-249
▁should	-250
▁how	-251
ep	-252
▁any	-253
▁co	-254
▁ar	-255
▁car	-256
ather	-257
▁stud	-258
▁if	-259
▁know	-260
▁off	-261
ity	-262
ie	-263
▁ag	-264
▁ro	-265
mp	-266
▁br	-267
ound	-268
lf	-269
▁ad	-270
ink	-271
ure	-272
▁bo	-273
▁or	-274
▁pro	-275
▁every	-276
▁been	-277
ine	-278
▁one	-279
▁some	-280
ount	-281
▁who	-282
▁year	-283
ost	-284
hing	-285
▁please	-286
um	-287
ect	-288
ild	-289
ool	-290
ree	-291
▁could	-292
row	-293
▁qu	-294
der	-295
▁pe	-296
alk	-297
el	-298
▁@	-299
▁peop	-300
-@	-301
ade	-302
ass	-303
▁@-@	-304
▁long	-305
▁want	-306
▁would	-307
▁people	-308
▁more	-309
▁!	-310
ite	-311
ous	-312
▁ke	-313
▁book	-314
▁comp	-315
hed	-316
own	-317
▁le	-318
▁after	-319
▁ba	-320
▁got	-321
▁hel	-322
▁read	-323
ult	-324
ough	-325
▁exp	-326
ven	-327
ther	-328
▁here	-329
▁take	-330
itt	-331
▁sch	-332
▁make	-333
▁must	-334
▁tw	-335
ning	-336
▁bus	-337
▁help	-338
▁made	-339
ren	-340
▁jo	-341
▁day	-342
▁many	-343
▁may	-344
▁come	-345
age	-346
ved	-347
▁dr	-348
self	-349
▁acc	-350
▁way	-351
▁school	-352
ick	-353
oss	-354
▁well	-355
oney	-356
▁eng	-357
▁tom	-358
▁wr	-359
▁old	-360
▁went	-361
ment	-362
ving	-363
▁bet	-364
▁money	-365
eak	-366
uch	-367
▁bu	-368
reat	-369
▁now	-370
▁down	-371
▁much	-372
app	-373
ves	-374
▁home	-375
▁part	-376
ose	-377
▁bec	-378
▁tea	-379
ies	-380
▁sm	-381
▁hard	-382
▁over	-383
▁think	-384
ance	-385
apan	-386
▁dis	-387
▁wat	-388
▁japan	-389
od	-390
ally	-391
▁speak	-392
▁app	-393
ought	-394
pt	-395
ide	-396
use	-397
▁does	-398
ark	-399
▁child	-400
ag	-401
ary	-402
▁gr	-403
▁engl	-404
▁last	-405
▁their	-406
ac	-407
▁other	-408
urn	-409
fore	-410
ue	-411
ress	-412
ways	-413
▁res	-414
▁into	-415
ise	-416
▁say	-417
▁room	-418
▁always	-419
ouse	-420
▁before	-421
ave	-422
▁life	-423
▁play	-424
▁again	-425
ried	-426
ove	-427
▁aw	-428
▁la	-429
▁ear	-430
▁two	-431
▁such	-432
▁english	-433
ms	-434
ang	-435
▁mat	-436
▁call	-437
▁going	-438
▁house	-439
▁father	-440
orrow	-441
wn	-442
ach	-443
ict	-444
▁dif	-445
ci	-446
▁bl	-447
▁came	-448
▁nothing	-449
ory	-450
▁fri	-451
▁put	-452
▁happ	-453
▁better	-454
▁keep	-455
▁soon	-456
▁1	-457
able	-458
▁just	-459
ft	-460
▁fl	-461
▁train	-462
ire	-463
▁tell	-464
▁them	-465
▁mother	-466
ated	-467
ence	-468
▁count	-469
▁right	-470
▁today	-471
ings	-472
▁lea	-473
▁pre	-474
▁str	-475
▁said	-476
▁friend	-477
▁op	-478
▁boy	-479
▁pol	-480
▁meet	-481
▁rain	-482
ty	-483
irst	-484
ff	-485
ause	-486
ich	-487
▁po	-488
ents	-489
▁att	-490
▁imp	-491
ts	-492
▁cr	-493
▁ask	-494
▁fin	-495
▁best	-496
▁hand	-497
▁pers	-498
▁took	-499
ro	-500
omet	-501
▁back	-502
xt	-503
ere	-504
▁away	-505
▁walk	-506
▁never	-507
ng	-508
not	-509
ond	-510
▁ten	-511
▁feel	-512
▁first	-513
▁study	-514
▁young	-515
mb	-516
ten	-517
ittle	-518
▁plan	-519
▁teac	-520
▁great	-521
▁where	-522
▁little	-523
ied	-524
▁care	-525
▁next	-526
▁only	-527
▁cannot	-528
▁tomorrow	-529
ful	-530
ek	-531
▁run	-532
ile	-533
man	-534
▁wa	-535
ange	-536
▁mor	-537
▁sun	-538
▁won	-539
thing	-540
▁need	-541
▁show	-542
▁talk	-543
▁morning	-544
▁without	-545
orm	-546
▁sw	-547
ited	-548
ition	-549
▁kind	-550
▁years	-551
ign	-552
akes	-553
▁fam	-554
▁often	-555
▁somet	-556
▁three	-557
▁teacher	-558
act	-559
▁ac	-560
ting	-561
▁eas	-562
▁left	-563
▁week	-564
▁under	-565
▁because	-566
iz	-567
oy	-568
aut	-569
▁bel	-570
▁rec	-571
▁give	-572
ds	-573
bod	-574
▁mo	-575
body	-576
erest	-577
▁beaut	-578
ily	-579
iss	-580
▁fo	-581
▁act	-582
ock	-583
▁id	-584
▁gir	-585
▁mon	-586
▁live	-587
▁mind	-588
▁turn	-589
▁person	-590
▁proble	-591
ip	-592
ok	-593
ace	-594
▁sc	-595
ness	-596
▁adv	-597
▁beg	-598
▁war	-599
▁yes	-600
▁matter	-601
▁interest	-602
ky	-603
hes	-604
▁cat	-605
▁cle	-606
▁far	-607
▁per	-608
▁diff	-609
▁news	-610
cl	-611
ffe	-612
ident	-613
▁didn	-614
▁pres	-615
ese	-616
ctor	-617
ious	-618
iver	-619
▁lot	-620
▁why	-621
▁girl	-622
▁late	-623
▁once	-624
▁pass	-625
▁children	-626
ans	-627
igh	-628
▁des	-629
▁rep	-630
aking	-631
▁hour	-632
▁night	-633
ope	-634
ull	-635
▁gl	-636
ible	-637
ired	-638
▁thr	-639
▁cont	-640
▁even	-641
▁find	-642
▁being	-643
▁party	-644
▁these	-645
▁which	-646
▁meeting	-647
led	-648
eric	-649
ject	-650
▁dog	-651
▁min	-652
▁saw	-653
icult	-654
▁gave	-655
▁stay	-656
▁wind	-657
terday	-658
▁americ	-659
▁around	-660
▁letter	-661
▁yesterday	-662
air	-663
ank	-664
get	-665
ted	-666
ical	-667
iful	-668
ions	-669
▁leave	-670
▁enough	-671
▁through	-672
▁difficult	-673
ens	-674
▁air	-675
▁mar	-676
▁met	-677
▁rem	-678
ished	-679
▁days	-680
▁start	-681
▁station	-682
▁beautiful	-683
au	-684
ub	-685
mer	-686
vel	-687
▁che	-688
▁job	-689
iness	-690
▁watch	-691
▁compan	-692
▁students	-693
▁something	-694
▁ey	-695
▁lo	-696
▁ob	-697
▁ph	-698
alth	-699
aren	-700
▁bre	-701
▁own	-702
▁vis	-703
▁char	-704
▁door	-705
▁each	-706
▁books	-707
▁class	-708
▁doctor	-709
oke	-710
▁ho	-711
ince	-712
▁bad	-713
▁buy	-714
▁sur	-715
▁used	-716
▁japanese	-717
aid	-718
cle	-719
▁mr	-720
ward	-721
▁eat	-722
▁mus	-723
▁reg	-724
▁set	-725
▁son	-726
▁ever	-727
▁wait	-728
▁drink	-729
▁heard	-730
by	-731
ail	-732
als	-733
anc	-734
ath	-735
▁gu	-736
ccess	-737
▁cons	-738
▁exam	-739
▁supp	-740
▁water	-741
▁world	-742
▁company	-743
▁success	-744
▁weather	-745
te	-746
ack	-747
ner	-748
ork	-749
▁sl	-750
ceed	-751
less	-752
▁open	-753
▁belie	-754
▁found	-755
▁paren	-756
▁seems	-757
▁short	-758
▁times	-759
▁brother	-760
▁country	-761
▁looking	-762
▁problem	-763
av	-764
uct	-765
▁ang	-766
▁dri	-767
▁few	-768
▁ser	-769
ister	-770
▁high	-771
▁stre	-772
▁since	-773
▁police	-774
▁another	-775
▁parents	-776
les	-777
▁fact	-778
▁five	-779
▁sing	-780
▁told	-781
▁business	-782
lic	-783
leep	-784
llow	-785
▁inv	-786
▁lar	-787
▁city	-788
▁comm	-789
ations	-790
▁coffe	-791
▁light	-792
▁while	-793
pr	-794
ert	-795
ian	-796
▁ill	-797
▁ind	-798
▁ran	-799
▁rel	-800
▁ret	-801
▁spe	-802
▁easy	-803
▁hear	-804
▁miss	-805
▁most	-806
▁pain	-807
▁quest	-808
▁coffee	-809
▁things	-810
▁friends	-811
iv	-812
ix	-813
oth	-814
▁big	-815
▁dec	-816
▁ref	-817
▁suc	-818
▁sum	-819
▁use	-820
aught	-821
feren	-822
▁fail	-823
▁tele	-824
▁true	-825
▁asked	-826
▁happy	-827
▁music	-828
▁stand	-829
▁health	-830
▁against	-831
▁succeed	-832
00	-833
og	-834
orts	-835
osed	-836
▁beh	-837
▁ent	-838
▁hot	-839
▁hur	-840
▁sat	-841
▁cold	-842
▁comes	-843
▁minut	-844
▁month	-845
▁having	-846
ars	-847
int	-848
oup	-849
ense	-850
ered	-851
form	-852
▁eff	-853
▁its	-854
▁pay	-855
▁try	-856
▁win	-857
▁wom	-858
▁dist	-859
▁fore	-860
▁less	-861
▁doesn	-862
▁those	-863
▁wrong	-864
▁really	-865
▁street	-866
▁anything	-867
ab	-868
opp	-869
▁ap	-870
▁bir	-871
▁dep	-872
▁inc	-873
▁isn	-874
▁arri	-875
▁coll	-876
▁love	-877
▁seen	-878
▁still	-879
▁thought	-880
hn	-881
ber	-882
enc	-883
eri	-884
ons	-885
aper	-886
ates	-887
ised	-888
read	-889
ular	-890
▁cor	-891
▁fish	-892
▁john	-893
▁mist	-894
▁resp	-895
▁story	-896
ossible	-897
▁happen	-898
▁sister	-899
az	-900
ph	-901
ell	-902
uth	-903
▁gi	-904
ries	-905
▁ele	-906
▁ins	-907
▁busy	-908
▁face	-909
▁full	-910
▁game	-911
▁idea	-912
▁lost	-913
▁name	-914
▁sure	-915
▁town	-916
▁break	-917
▁place	-918
▁tried	-919
▁change	-920
▁couldn	-921
gg	-922
sw	-923
up	-924
ross	-925
▁cut	-926
▁sec	-927
▁answ	-928
▁baby	-929
▁done	-930
▁gone	-931
▁park	-932
▁river	-933
▁sleep	-934
▁small	-935
▁surpr	-936
▁looked	-937
▁window	-938
kyo	-939
ord	-940
▁abs	-941
▁add	-942
▁adm	-943
▁bed	-944
▁hun	-945
▁lau	-946
▁sub	-947
▁unt	-948
▁doll	-949
▁eyes	-950
▁free	-951
▁rest	-952
▁same	-953
▁build	-954
▁quite	-955
▁thank	-956
▁tired	-957
▁tokyo	-958
▁across	-959
▁others	-960
▁getting	-961
▁accident	-962
▁differen	-963
▁everyone	-964
▁yourself	-965
ife	-966
med	-967
ret	-968
cept	-969
ever	-970
▁hon	-971
▁sit	-972
▁disc	-973
▁expl	-974
▁food	-975
▁four	-976
▁goes	-977
▁hope	-978
▁pict	-979
▁hours	-980
▁large	-981
▁until	-982
▁bought	-983
▁myself	-984
▁america	-985
▁himself	-986
amp	-987
ced	-988
ared	-989
ased	-990
ient	-991
ream	-992
▁gen	-993
▁men	-994
▁pat	-995
stand	-996
▁able	-997
▁dark	-998
▁kept	-999
▁swim	-1000
▁then	-1001
ention	-1002
▁earth	-1003
▁lives	-1004
▁called	-1005
▁follow	-1006
▁import	-1007
▁office	-1008
▁return	-1009
▁account	-1010
▁reading	-1011
▁everything	-1012
joy	-1013
▁kn	-1014
mber	-1015
▁nat	-1016
▁pop	-1017
▁pur	-1018
▁sol	-1019
▁ter	-1020
ision	-1021
▁head	-1022
▁near	-1023
▁early	-1024
▁enjoy	-1025
▁inter	-1026
▁novel	-1027
▁store	-1028
▁write	-1029
▁expect	-1030
▁family	-1031
▁forget	-1032
▁wonder	-1033
▁minutes	-1034
▁finished	-1035
ize	-1036
ned	-1037
oud	-1038
ains	-1039
orry	-1040
▁end	-1041
▁lik	-1042
▁tri	-1043
▁bank	-1044
▁cond	-1045
▁fall	-1046
▁prom	-1047
▁snow	-1048
▁wife	-1049
iction	-1050
▁visit	-1051
ination	-1052
▁caught	-1053
▁summer	-1054
een	-1055
ors	-1056
uck	-1057
ball	-1058
▁mil	-1059
▁num	-1060
▁sal	-1061
▁ton	-1062
ually	-1063
uring	-1064
▁bill	-1065
▁fire	-1066
▁list	-1067
▁opin	-1068
▁post	-1069
▁trou	-1070
▁word	-1071
▁carry	-1072
▁dress	-1073
▁sorry	-1074
▁trave	-1075
▁words	-1076
osition	-1077
▁sunday	-1078
▁believe	-1079
▁question	-1080
▁speaking	-1081
ru	-1082
▁ed	-1083
▁im	-1084
▁ty	-1085
ater	-1086
enty	-1087
ided	-1088
ital	-1089
road	-1090
ults	-1091
vers	-1092
▁age	-1093
▁emp	-1094
▁med	-1095
ained	-1096
ented	-1097
ustom	-1098
▁base	-1099
▁case	-1100
▁fast	-1101
▁angry	-1102
▁death	-1103
▁knows	-1104
▁thing	-1105
▁forward	-1106
▁picture	-1107
▁understand	-1108
aw	-1109
ax	-1110
ib	-1111
hip	-1112
oes	-1113
▁sk	-1114
cess	-1115
▁afr	-1116
▁ass	-1117
▁del	-1118
▁det	-1119
▁din	-1120
▁law	-1121
▁both	-1122
▁desk	-1123
▁flow	-1124
▁hold	-1125
▁mark	-1126
▁nice	-1127
▁poor	-1128
▁alone	-1129
▁begin	-1130
▁gener	-1131
▁quick	-1132
▁uncle	-1133
▁advice	-1134
▁attend	-1135
▁coming	-1136
▁during	-1137
▁turned	-1138
▁talking	-1139
▁countries	-1140
oc	-1141
aff	-1142
ety	-1143
fer	-1144
ics	-1145
its	-1146
ual	-1147
eace	-1148
ined	-1149
oice	-1150
ured	-1151
ures	-1152
work	-1153
▁art	-1154
▁bur	-1155
▁fut	-1156
▁pub	-1157
▁six	-1158
▁tou	-1159
illed	-1160
▁cook	-1161
▁lear	-1162
▁mine	-1163
▁sign	-1164
▁song	-1165
▁stop	-1166
▁wish	-1167
▁writ	-1168
▁looks	-1169
▁makes	-1170
▁paper	-1171
▁peace	-1172
▁phone	-1173
▁sight	-1174
▁truth	-1175
▁white	-1176
▁abroad	-1177
▁answer	-1178
▁future	-1179
▁honest	-1180
▁inform	-1181
▁number	-1182
▁travel	-1183
▁decided	-1184
▁diction	-1185
▁opinion	-1186
▁building	-1187
ia	-1188
lt	-1189
▁;	-1190
ash	-1191
avy	-1192
ege	-1193
ple	-1194
ched	-1195
▁ext	-1196
▁par	-1197
▁sky	-1198
▁val	-1199
clock	-1200
ember	-1201
ility	-1202
ready	-1203
▁boys	-1204
▁conc	-1205
▁fell	-1206
▁fine	-1207
▁lead	-1208
▁rich	-1209
▁temp	-1210
▁clean	-1211
▁laugh	-1212
▁ready	-1213
▁shall	-1214
▁woman	-1215
▁dinner	-1216
▁public	-1217
▁strong	-1218
▁already	-1219
▁college	-1220
▁playing	-1221
▁student	-1222
▁whether	-1223
▁baseball	-1224
▁possible	-1225
em	-1226
bed	-1227
ech	-1228
nis	-1229
rew	-1230
cted	-1231
ween	-1232
▁box	-1233
▁exc	-1234
▁hum	-1235
▁mom	-1236
▁opp	-1237
▁red	-1238
▁tak	-1239
▁yen	-1240
anger	-1241
▁clim	-1242
▁cour	-1243
▁deep	-1244
▁felt	-1245
▁gard	-1246
▁mary	-1247
▁mean	-1248
▁prop	-1249
▁says	-1250
▁sick	-1251
▁tall	-1252
▁agree	-1253
▁began	-1254
▁catch	-1255
▁heart	-1256
▁heavy	-1257
▁known	-1258
▁order	-1259
▁reser	-1260
▁table	-1261
▁became	-1262
▁making	-1263
▁nobody	-1264
▁taking	-1265
▁tennis	-1266
▁between	-1267
▁foreign	-1268
▁tonight	-1269
▁different	-1270
▁important	-1271
adi	-1272
den	-1273
era	-1274
ial	-1275
icy	-1276
oon	-1277
orn	-1278
osp	-1279
▁el	-1280
▁tv	-1281
ages	-1282
amed	-1283
cial	-1284
outh	-1285
ters	-1286
▁bit	-1287
▁fun	-1288
▁mid	-1289
▁mov	-1290
▁swe	-1291
▁tax	-1292
▁vac	-1293
▁yet	-1294
ached	-1295
ently	-1296
▁dead	-1297
▁deal	-1298
▁wasn	-1299
▁york	-1300
▁along	-1301
▁dream	-1302
▁lived	-1303
▁sense	-1304
▁shoes	-1305
▁garden	-1306
▁seeing	-1307
▁speech	-1308
▁evening	-1309
▁married	-1310
▁present	-1311
▁strange	-1312
▁remember	-1313
▁studying	-1314
▁president	-1315
▁dictionary	-1316
pl	-1317
ane	-1318
ief	-1319
iew	-1320
ears	-1321
lete	-1322
unch	-1323
▁aff	-1324
▁bri	-1325
▁ken	-1326
▁ste	-1327
affic	-1328
itten	-1329
ivers	-1330
ondon	-1331
▁dire	-1332
▁held	-1333
▁paid	-1334
▁reas	-1335
▁requ	-1336
▁road	-1337
▁side	-1338
▁tree	-1339
▁clear	-1340
▁given	-1341
▁means	-1342
▁mount	-1343
▁ought	-1344
▁sever	-1345
▁sound	-1346
▁touch	-1347
▁afraid	-1348
▁custom	-1349
▁easily	-1350
▁expens	-1351
▁experi	-1352
▁listen	-1353
▁living	-1354
▁london	-1355
▁worked	-1356
▁address	-1357
▁arrived	-1358
▁dollars	-1359
▁mistake	-1360
▁running	-1361
▁someone	-1362
▁traffic	-1363
▁trouble	-1364
▁everybody	-1365
▁examination	-1366
000	-1367
aka	-1368
con	-1369
ets	-1370
isf	-1371
ont	-1372
ute	-1373
▁es	-1374
aged	-1375
airs	-1376
ames	-1377
ield	-1378
ored	-1379
used	-1380
▁ago	-1381
▁cap	-1382
▁fav	-1383
▁leg	-1384
ities	-1385
rench	-1386
▁club	-1387
▁conf	-1388
▁crow	-1389
▁hosp	-1390
▁inst	-1391
▁pian	-1392
▁prod	-1393
▁real	-1394
▁shop	-1395
▁smok	-1396
▁thir	-1397
▁vill	-1398
▁wall	-1399
gether	-1400
vision	-1401
▁drive	-1402
▁girls	-1403
▁hotel	-1404
▁likes	-1405
▁might	-1406
▁noise	-1407
▁pract	-1408
▁taken	-1409
▁voice	-1410
▁wants	-1411
▁charac	-1412
▁danger	-1413
▁effort	-1414
▁famous	-1415
▁finish	-1416
▁french	-1417
▁leaves	-1418
▁regard	-1419
▁secret	-1420
▁teleph	-1421
▁project	-1422
▁quickly	-1423
▁several	-1424
▁interested	-1425
uc	-1426
bor	-1427
erc	-1428
ime	-1429
ott	-1430
ude	-1431
une	-1432
▁ev	-1433
,000	-1434
angu	-1435
ants	-1436
ends	-1437
ices	-1438
lves	-1439
oken	-1440
rees	-1441
rupt	-1442
ural	-1443
▁ann	-1444
▁cup	-1445
▁hat	-1446
▁typ	-1447
ating	-1448
entle	-1449
▁anim	-1450
▁coat	-1451
▁died	-1452
▁grow	-1453
▁lend	-1454
▁milk	-1455
▁prev	-1456
▁radi	-1457
▁sent	-1458
▁slow	-1459
▁team	-1460
▁tick	-1461
ertain	-1462
opping	-1463
▁broke	-1464
▁cross	-1465
▁doing	-1466
▁favor	-1467
▁front	-1468
▁langu	-1469
▁mouth	-1470
▁polit	-1471
▁treat	-1472
▁accept	-1473
▁gentle	-1474
▁missed	-1475
▁moment	-1476
▁smoking	-1477
▁subject	-1478
▁usually	-1479
▁complete	-1480
▁policeman	-1481
▁telephone	-1482
ee	-1483
ew	-1484
ji	-1485
so	-1486
ys	-1487
cei	-1488
dle	-1489
ger	-1490
▁10	-1491
▁di	-1492
▁fu	-1493
here	-1494
ists	-1495
ized	-1496
olog	-1497
ones	-1498
▁anx	-1499
▁ben	-1500
▁cam	-1501
▁col	-1502
▁fig	-1503
▁hit	-1504
▁lad	-1505
▁lie	-1506
▁pen	-1507
aring	-1508
conom	-1509
ither	-1510
mbers	-1511
opped	-1512
ories	-1513
▁also	-1514
▁appo	-1515
▁ball	-1516
▁drop	-1517
▁fool	-1518
▁foot	-1519
▁glad	-1520
▁hill	-1521
▁prep	-1522
▁pret	-1523
▁purp	-1524
▁tast	-1525
▁test	-1526
▁warm	-1527
▁accom	-1528
▁corre	-1529
▁eight	-1530
▁exerc	-1531
▁fault	-1532
▁hands	-1533
▁haven	-1534
▁human	-1535
▁lunch	-1536
▁offer	-1537
▁pleas	-1538
▁takes	-1539
▁trans	-1540
▁behind	-1541
▁closed	-1542
▁econom	-1543
▁prefer	-1544
▁rather	-1545
▁report	-1546
▁wanted	-1547
iversity	-1548
▁efforts	-1549
▁respect	-1550
▁started	-1551
▁careless	-1552
▁distance	-1553
▁happened	-1554
▁homework	-1555
▁together	-1556
▁television	-1557
▁university	-1558
▁interesting	-1559
ef	-1560
gr	-1561
ze	-1562
cap	-1563
emp	-1564
ike	-1565
oto	-1566
ule	-1567
ump	-1568
usb	-1569
uss	-1570
ayed	-1571
dden	-1572
fast	-1573
land	-1574
ming	-1575
most	-1576
pect	-1577
vern	-1578
▁aut	-1579
▁cur	-1580
▁dem	-1581
▁dou	-1582
▁hol	-1583
▁jim	-1584
apers	-1585
aster	-1586
ction	-1587
▁cent	-1588
▁coup	-1589
▁hair	-1590
▁husb	-1591
▁mach	-1592
▁move	-1593
▁send	-1594
selves	-1595
▁above	-1596
▁anger	-1597
▁apart	-1598
▁chang	-1599
▁check	-1600
▁contr	-1601
▁glass	-1602
▁point	-1603
▁press	-1604
▁radio	-1605
▁storm	-1606
▁tears	-1607
▁whole	-1608
▁almost	-1609
▁become	-1610
▁borrow	-1611
▁chance	-1612
▁govern	-1613
▁necess	-1614
▁sudden	-1615
▁certain	-1616
▁correct	-1617
▁herself	-1618
▁husband	-1619
▁illness	-1620
▁popular	-1621
▁studied	-1622
▁village	-1623
▁visited	-1624
▁working	-1625
▁hospital	-1626
▁mountain	-1627
▁problems	-1628
▁returned	-1629
▁attention	-1630
▁breakfast	-1631
▁character	-1632
▁condition	-1633
▁difficulty	-1634
br	-1635
bt	-1636
eng	-1637
gar	-1638
ior	-1639
lew	-1640
lla	-1641
loy	-1642
ote	-1643
rib	-1644
rod	-1645
ues	-1646
ush	-1647
▁ky	-1648
▁os	-1649
▁pa	-1650
arch	-1651
iled	-1652
imes	-1653
ully	-1654
▁bag	-1655
▁cry	-1656
▁div	-1657
▁hor	-1658
▁jud	-1659
▁loc	-1660
▁mag	-1661
▁ord	-1662
▁pic	-1663
▁sci	-1664
▁sil	-1665
▁sus	-1666
ances	-1667
icine	-1668
ience	-1669
ortun	-1670
where	-1671
▁bird	-1672
▁blue	-1673
▁cake	-1674
▁date	-1675
▁gets	-1676
▁hurt	-1677
▁mail	-1678
▁pick	-1679
▁ship	-1680
▁situ	-1681
▁trip	-1682
▁view	-1683
▁allow	-1684
▁among	-1685
▁bound	-1686
▁const	-1687
▁escap	-1688
▁famil	-1689
▁least	-1690
▁smoke	-1691
▁women	-1692
▁amount	-1693
▁camera	-1694
▁couple	-1695
▁failed	-1696
▁hardly	-1697
▁killed	-1698
▁longer	-1699
▁middle	-1700
▁satisf	-1701
▁saying	-1702
▁thanks	-1703
▁twenty	-1704
▁waited	-1705
▁flowers	-1706
▁members	-1707
▁product	-1708
▁respons	-1709
▁support	-1710
▁written	-1711
▁american	-1712
▁medicine	-1713
▁standing	-1714
ob	-1715
uk	-1716
got	-1717
ids	-1718
ier	-1719
ilt	-1720
irt	-1721
nic	-1722
rap	-1723
uce	-1724
unt	-1725
▁er	-1726
▁ra	-1727
ager	-1728
dred	-1729
ises	-1730
mbre	-1731
▁arg	-1732
▁arm	-1733
▁bar	-1734
▁chr	-1735
▁def	-1736
▁dev	-1737
▁eye	-1738
▁nar	-1739
▁occ	-1740
▁pri	-1741
▁sea	-1742
▁sim	-1743
ality	-1744
ciate	-1745
fully	-1746
velop	-1747
▁aren	-1748
▁bicy	-1749
▁blow	-1750
▁born	-1751
▁cars	-1752
▁crit	-1753
▁educ	-1754
▁else	-1755
▁fair	-1756
▁fort	-1757
▁half	-1758
▁hole	-1759
▁line	-1760
▁main	-1761
▁quar	-1762
▁self	-1763
▁serv	-1764
▁sold	-1765
▁tour	-1766
itting	-1767
▁breat	-1768
▁climb	-1769
▁close	-1770
▁grand	-1771
▁hurry	-1772
▁keeps	-1773
▁kyoto	-1774
▁movie	-1775
▁newsp	-1776
▁paint	-1777
▁proud	-1778
▁seven	-1779
▁umbre	-1780
intment	-1781
ulation	-1782
▁course	-1783
▁object	-1784
▁singer	-1785
▁sports	-1786
▁states	-1787
▁careful	-1788
▁carried	-1789
▁committ	-1790
▁develop	-1791
▁feeling	-1792
▁finally	-1793
▁hundred	-1794
▁pleased	-1795
▁promise	-1796
▁reached	-1797
▁serious	-1798
▁waiting	-1799
▁writing	-1800
▁mistakes	-1801
▁umbrella	-1802
▁vacation	-1803
▁situation	-1804
▁sometimes	-1805
▁succeeded	-1806
▁surprised	-1807
gn	-1808
ik	-1809
ama	-1810
ces	-1811
eas	-1812
ged	-1813
old	-1814
▁mt	-1815
cell	-1816
ency	-1817
ific	-1818
noon	-1819
port	-1820
pped	-1821
unic	-1822
urch	-1823
yond	-1824
▁100	-1825
▁bes	-1826
▁dam	-1827
▁est	-1828
▁ger	-1829
▁har	-1830
▁pie	-1831
▁spr	-1832
▁top	-1833
ature	-1834
ended	-1835
▁boss	-1836
▁bott	-1837
▁brid	-1838
▁cost	-1839
▁grad	-1840
▁jane	-1841
▁knew	-1842
▁land	-1843
▁mill	-1844
▁past	-1845
▁prof	-1846
▁rock	-1847
▁seas	-1848
▁seat	-1849
▁seem	-1850
▁sett	-1851
▁till	-1852
▁upon	-1853
▁wise	-1854
ceived	-1855
▁behav	-1856
▁bring	-1857
▁burst	-1858
▁chair	-1859
▁crowd	-1860
▁holid	-1861
▁piano	-1862
▁worth	-1863
▁absent	-1864
▁attemp	-1865
▁beyond	-1866
▁broken	-1867
▁employ	-1868
▁figure	-1869
▁income	-1870
▁introd	-1871
▁itself	-1872
▁nation	-1873
▁pretty	-1874
▁result	-1875
▁second	-1876
▁showed	-1877
▁stayed	-1878
▁temper	-1879
▁ticket	-1880
▁walked	-1881
▁ability	-1882
▁anxious	-1883
▁anybody	-1884
▁bicycle	-1885
▁convers	-1886
▁machine	-1887
▁purpose	-1888
▁exercise	-1889
▁feelings	-1890
▁kindness	-1891
▁shopping	-1892
▁watching	-1893
▁afternoon	-1894
▁committee	-1895
▁questions	-1896
▁wonderful	-1897
▁completely	-1898
▁government	-1899
▁impossible	-1900
▁appointment	-1901
▁information	-1902
▁conversation	-1903
co	-1904
bit	-1905
che	-1906
iar	-1907
iet	-1908
oko	-1909
▁oh	-1910
ably	-1911
ghed	-1912
ider	-1913
ides	-1914
inal	-1915
ling	-1916
ower	-1917
reas	-1918
rest	-1919
room	-1920
side	-1921
ster	-1922
uted	-1923
▁ash	-1924
▁bob	-1925
▁cal	-1926
▁due	-1927
▁eur	-1928
▁fif	-1929
▁fil	-1930
▁flu	-1931
▁gas	-1932
▁gre	-1933
▁inj	-1934
▁key	-1935
▁pun	-1936
▁tal	-1937
▁tot	-1938
ately	-1939
ative	-1940
ising	-1941
ments	-1942
othes	-1943
▁area	-1944
▁aunt	-1945
▁chin	-1946
▁earn	-1947
▁fear	-1948
▁form	-1949
▁gold	-1950
▁hist	-1951
▁jack	-1952
▁lady	-1953
▁lose	-1954
▁luck	-1955
▁meal	-1956
▁nine	-1957
▁none	-1958
▁rice	-1959
▁shin	-1960
▁suff	-1961
▁appre	-1962
▁birth	-1963
▁black	-1964
▁built	-1965
▁compu	-1966
▁elect	-1967
▁group	-1968
▁jones	-1969
▁later	-1970
▁osaka	-1971
▁spent	-1972
▁sugar	-1973
▁sweet	-1974
▁teach	-1975
▁works	-1976
▁wrote	-1977
cellent	-1978
▁anyone	-1979
▁apolog	-1980
▁church	-1981
▁depart	-1982
▁disapp	-1983
▁europe	-1984
▁german	-1985
▁invest	-1986
▁island	-1987
▁market	-1988
▁notice	-1989
▁papers	-1990
▁partic	-1991
▁passed	-1992
▁seemed	-1993
▁tastes	-1994
▁though	-1995
▁united	-1996
▁advance	-1997
▁clothes	-1998
▁cooking	-1999
▁earthqu	-2000
▁failure	-2001
▁leaving	-2002
▁natural	-2003
▁patient	-2004
▁request	-2005
▁results	-2006
▁special	-2007
▁telling	-2008
▁behavior	-2009
▁believed	-2010
▁consider	-2011
▁language	-2012
▁recently	-2013
▁thinking	-2014
▁whatever	-2015
▁education	-2016
▁excellent	-2017
▁expensive	-2018
▁experience	-2019
▁composition	-2020
ey	-2021
eal	-2022
ery	-2023
hem	-2024
mon	-2025
oor	-2026
per	-2027
ral	-2028
ror	-2029
ued	-2030
umn	-2031
way	-2032
▁sy	-2033
augh	-2034
ches	-2035
erve	-2036
fect	-2037
gram	-2038
hood	-2039
imed	-2040
ines	-2041
ison	-2042
oned	-2043
osal	-2044
raph	-2045
tern	-2046
ying	-2047
▁arr	-2048
▁bas	-2049
▁bat	-2050
▁equ	-2051
▁fix	-2052
▁fly	-2053
▁fur	-2054
▁god	-2055
▁hop	-2056
▁ign	-2057
▁inf	-2058
▁joy	-2059
▁map	-2060
▁mur	-2061
▁nor	-2062
▁rid	-2063
▁rob	-2064
▁rul	-2065
▁sad	-2066
▁var	-2067
ament	-2068
anced	-2069
ering	-2070
ffect	-2071
igent	-2072
inted	-2073
itted	-2074
ledge	-2075
riage	-2076
ution	-2077
▁bear	-2078
▁card	-2079
▁dest	-2080
▁fash	-2081
▁fuji	-2082
▁gate	-2083
▁grew	-2084
▁incl	-2085
▁king	-2086
▁scen	-2087
▁soup	-2088
▁span	-2089
▁step	-2090
▁wine	-2091
entist	-2092
▁alive	-2093
▁appro	-2094
▁birds	-2095
▁cause	-2096
▁daugh	-2097
▁doubt	-2098
▁enter	-2099
▁fight	-2100
▁guess	-2101
▁guest	-2102
▁moder	-2103
▁paris	-2104
▁persu	-2105
▁prize	-2106
▁solve	-2107
▁state	-2108
▁stone	-2109
▁worry	-2110
▁worse	-2111
▁beauty	-2112
▁bridge	-2113
▁bright	-2114
▁christ	-2115
▁deeply	-2116
▁direct	-2117
▁effect	-2118
▁either	-2119
▁excuse	-2120
▁france	-2121
▁helped	-2122
▁nature	-2123
▁opened	-2124
▁player	-2125
▁reason	-2126
▁reserv	-2127
▁theory	-2128
▁thinks	-2129
▁winter	-2130
▁within	-2131
▁driving	-2132
▁fishing	-2133
▁letters	-2134
▁perform	-2135
▁raining	-2136
▁singing	-2137
▁staying	-2138
▁stories	-2139
▁watched	-2140
▁communic	-2141
▁expected	-2142
▁position	-2143
▁practice	-2144
▁proposal	-2145
▁supposed	-2146
▁surprise	-2147
▁generally	-2148
▁gentleman	-2149
▁necessary	-2150
▁difference	-2151
▁themselves	-2152
cy	-2153
dy	-2154
gy	-2155
ra	-2156
▁-	-2157
apt	-2158
cum	-2159
ead	-2160
hod	-2161
ots	-2162
ric	-2163
ron	-2164
sit	-2165
uit	-2166
▁..	-2167
▁av	-2168
▁ce	-2169
▁ok	-2170
ancy	-2171
ened	-2172
ires	-2173
ldom	-2174
lied	-2175
miss	-2176
over	-2177
ract	-2178
reed	-2179
ruct	-2180
tain	-2181
▁...	-2182
▁amb	-2183
▁cir	-2184
▁cop	-2185
▁dut	-2186
▁mot	-2187
▁pet	-2188
▁ris	-2189
▁rum	-2190
▁saf	-2191
▁tow	-2192
▁tur	-2193
anded	-2194
brary	-2195
ences	-2196
ggest	-2197
ocked	-2198
olute	-2199
oming	-2200
orter	-2201
uthor	-2202
▁alth	-2203
▁bell	-2204
▁bite	-2205
▁camp	-2206
▁cult	-2207
▁fill	-2208
▁hung	-2209
▁moon	-2210
▁phys	-2211
▁poet	-2212
▁prob	-2213
▁rese	-2214
▁runs	-2215
▁safe	-2216
▁salt	-2217
▁spir	-2218
▁suit	-2219
▁taxi	-2220
▁thin	-2221
▁tong	-2222
▁vers	-2223
▁wood	-2224
ateful	-2225
idence	-2226
ograph	-2227
▁below	-2228
▁blame	-2229
▁board	-2230
▁compl	-2231
▁exact	-2232
▁fruit	-2233
▁gradu	-2234
▁habit	-2235
▁hesit	-2236
▁horse	-2237
▁learn	-2238
▁liked	-2239
▁match	-2240
▁needs	-2241
▁plane	-2242
▁plays	-2243
▁price	-2244
▁quiet	-2245
▁rules	-2246
▁smell	-2247
▁trees	-2248
▁trick	-2249
▁twice	-2250
▁waste	-2251
▁yield	-2252
▁yours	-2253
ibility	-2254
▁arrive	-2255
▁author	-2256
▁autumn	-2257
▁breath	-2258
▁clever	-2259
▁concer	-2260
▁corner	-2261
▁critic	-2262
▁detect	-2263
▁driver	-2264
▁eleven	-2265
▁engine	-2266
▁entire	-2267
▁faults	-2268
▁forgot	-2269
▁giving	-2270
▁method	-2271
▁minute	-2272
▁monday	-2273
▁picnic	-2274
▁played	-2275
▁prices	-2276
▁quarre	-2277
▁regret	-2278
▁remind	-2279
▁seldom	-2280
▁sooner	-2281
▁stands	-2282
▁taught	-2283
▁trains	-2284
▁airport	-2285
▁animals	-2286
▁ashamed	-2287
▁brought	-2288
▁concert	-2289
▁discuss	-2290
▁enjoyed	-2291
▁example	-2292
▁express	-2293
▁finding	-2294
▁hearing	-2295
▁history	-2296
▁impress	-2297
▁injured	-2298
▁instead	-2299
▁laughed	-2300
▁library	-2301
▁mention	-2302
▁ordered	-2303
▁quality	-2304
▁reasons	-2305
▁sitting	-2306
▁stopped	-2307
▁studies	-2308
▁suggest	-2309
▁walking	-2310
▁absolute	-2311
▁although	-2312
▁ambition	-2313
▁daughter	-2314
▁drinking	-2315
▁familiar	-2316
▁laughing	-2317
▁suddenly	-2318
▁swimming	-2319
▁knowledge	-2320
▁newspaper	-2321
▁relations	-2322
▁population	-2323
ex	-2324
ug	-2325
▁z	-2326
eth	-2327
ift	-2328
ins	-2329
iol	-2330
ocr	-2331
oof	-2332
pan	-2333
ton	-2334
ury	-2335
yer	-2336
▁ma	-2337
▁ur	-2338
ator	-2339
ergy	-2340
fort	-2341
irty	-2342
omed	-2343
oses	-2344
ript	-2345
ship	-2346
▁adj	-2347
▁aud	-2348
▁avo	-2349
▁cho	-2350
▁die	-2351
▁egg	-2352
▁env	-2353
▁fat	-2354
▁ice	-2355
▁imm	-2356
▁inn	-2357
▁lat	-2358
▁mis	-2359
▁ner	-2360
▁obs	-2361
▁pot	-2362
▁rev	-2363
▁tie	-2364
anted	-2365
asion	-2366
eared	-2367
elled	-2368
ggage	-2369
iling	-2370
inate	-2371
isted	-2372
osing	-2373
useum	-2374
vered	-2375
▁acqu	-2376
▁affe	-2377
▁arms	-2378
▁aust	-2379
▁bath	-2380
▁blew	-2381
▁conv	-2382
▁dish	-2383
▁duty	-2384
▁exch	-2385
▁feed	-2386
▁fing	-2387
▁fond	-2388
▁joke	-2389
▁kick	-2390
▁laid	-2391
▁lies	-2392
▁loss	-2393
▁math	-2394
▁meat	-2395
▁mike	-2396
▁plac	-2397
▁poem	-2398
▁poss	-2399
▁prin	-2400
▁rare	-2401
▁rate	-2402
▁ring	-2403
▁risk	-2404
▁shut	-2405
▁size	-2406
▁soci	-2407
▁typh	-2408
▁vict	-2409
▁wear	-2410
▁wide	-2411
ainted	-2412
ecture	-2413
father	-2414
▁apple	-2415
▁badly	-2416
▁bread	-2417
▁clock	-2418
▁dirty	-2419
▁ended	-2420
▁exist	-2421
▁field	-2422
▁fifty	-2423
▁floor	-2424
▁goods	-2425
▁ideas	-2426
▁judge	-2427
▁labor	-2428
▁magaz	-2429
▁marry	-2430
▁older	-2431
▁piece	-2432
▁plans	-2433
▁pound	-2434
▁rains	-2435
▁reach	-2436
▁sales	-2437
▁share	-2438
▁shirt	-2439
▁spoke	-2440
▁stamp	-2441
▁talks	-2442
▁terms	-2443
▁third	-2444
▁value	-2445
▁worst	-2446
anation	-2447
▁accord	-2448
▁affair	-2449
▁belong	-2450
▁charge	-2451
▁damage	-2452
▁except	-2453
▁flight	-2454
▁flying	-2455
▁ground	-2456
▁harder	-2457
▁leader	-2458
▁lesson	-2459
▁master	-2460
▁museum	-2461
▁myster	-2462
▁plenty	-2463
▁proper	-2464
▁record	-2465
▁safety	-2466
▁single	-2467
▁speaks	-2468
▁spread	-2469
▁spring	-2470
▁struck	-2471
▁talked	-2472
▁tongue	-2473
▁wealth	-2474
▁weight	-2475
▁wouldn	-2476
▁writer	-2477
▁changed	-2478
▁conduct	-2479
▁covered	-2480
▁england	-2481
▁escaped	-2482
▁factory	-2483
▁fashion	-2484
▁holiday	-2485
▁however	-2486
▁profess	-2487
▁program	-2488
▁regular	-2489
▁reserve	-2490
▁science	-2491
▁settled	-2492
▁treated	-2493
▁workers	-2494
▁accompan	-2495
▁anywhere	-2496
▁computer	-2497
▁decision	-2498
▁expenses	-2499
▁grateful	-2500
▁marriage	-2501
▁minister	-2502
▁opportun	-2503
▁pleasure	-2504
▁received	-2505
▁somebody	-2506
▁detective	-2507
▁prevented	-2508
▁appreciate	-2509
▁earthquake	-2510
▁particular	-2511
▁surprising	-2512
▁explanation	-2513
▁grandfather	-2514
▁responsible	-2515
amm	-2516
ask	-2517
ata	-2518
bby	-2519
cel	-2520
cul	-2521
erm	-2522
ism	-2523
key	-2524
mas	-2525
ows	-2526
ril	-2527
tle	-2528
umb	-2529
▁ca	-2530
▁da	-2531
ache	-2532
aded	-2533
cent	-2534
chen	-2535
ding	-2536
ease	-2537
iced	-2538
iety	-2539
ives	-2540
mony	-2541
ners	-2542
olen	-2543
peri	-2544
resh	-2545
uced	-2546
vere	-2547
▁ate	-2548
▁den	-2549
▁ess	-2550
▁gun	-2551
▁hid	-2552
▁kit	-2553
▁low	-2554
▁mad	-2555
▁maj	-2556
▁mer	-2557
▁pra	-2558
▁rap	-2559
▁spl	-2560
▁tan	-2561
▁unf	-2562
▁wed	-2563
cious	-2564
cript	-2565
cumst	-2566
hered	-2567
ician	-2568
lling	-2569
overy	-2570
ralia	-2571
uable	-2572
under	-2573
usual	-2574
▁bare	-2575
▁bark	-2576
▁beer	-2577
▁boat	-2578
▁body	-2579
▁carp	-2580
▁copy	-2581
▁crop	-2582
▁disp	-2583
▁earl	-2584
▁ease	-2585
▁emer	-2586
▁farm	-2587
▁flat	-2588
▁golf	-2589
▁host	-2590
▁ital	-2591
▁kate	-2592
▁loud	-2593
▁orig	-2594
▁paul	-2595
▁phot	-2596
▁prov	-2597
▁rang	-2598
▁rule	-2599
▁scar	-2600
▁soft	-2601
▁tail	-2602
▁task	-2603
▁wash	-2604
▁weak	-2605
▁whom	-2606
enture	-2607
overed	-2608
pected	-2609
rupted	-2610
stairs	-2611
▁activ	-2612
▁adapt	-2613
▁apply	-2614
▁april	-2615
▁brown	-2616
▁cheap	-2617
▁color	-2618
▁fresh	-2619
▁local	-2620
▁lying	-2621
▁miles	-2622
▁names	-2623
▁neigh	-2624
▁parts	-2625
▁rainy	-2626
▁reads	-2627
▁refer	-2628
▁rumor	-2629
▁saved	-2630
▁sched	-2631
▁shook	-2632
▁spare	-2633
▁spend	-2634
▁stood	-2635
▁teeth	-2636
▁tooth	-2637
▁total	-2638
▁troub	-2639
▁youth	-2640
▁access	-2641
▁action	-2642
▁agreed	-2643
▁appear	-2644
▁asleep	-2645
▁beside	-2646
▁compet	-2647
▁conven	-2648
▁depend	-2649
▁drinks	-2650
▁eating	-2651
▁energy	-2652
▁fellow	-2653
▁filled	-2654
▁flower	-2655
▁gather	-2656
▁guests	-2657
▁indust	-2658
▁intell	-2659
▁lately	-2660
▁lawyer	-2661
▁modern	-2662
▁movies	-2663
▁narrow	-2664
▁policy	-2665
▁resour	-2666
▁season	-2667
▁slowly	-2668
▁stolen	-2669
▁talent	-2670
▁thirty	-2671
▁toward	-2672
▁trying	-2673
▁applied	-2674
▁attempt	-2675
▁comfort	-2676
▁content	-2677
▁courage	-2678
▁delayed	-2679
▁depends	-2680
▁disappo	-2681
▁economy	-2682
▁expense	-2683
▁fortune	-2684
▁further	-2685
▁growing	-2686
▁honesty	-2687
▁increas	-2688
▁invited	-2689
▁keeping	-2690
▁kitchen	-2691
▁learned	-2692
▁lecture	-2693
▁managed	-2694
▁manager	-2695
▁matters	-2696
▁million	-2697
▁outside	-2698
▁percent	-2699
▁quarrel	-2700
▁refused	-2701
▁selfish	-2702
▁service	-2703
▁society	-2704
▁spanish	-2705
▁theater	-2706
▁typhoon	-2707
▁unusual	-2708
▁various	-2709
▁worried	-2710
▁younger	-2711
▁becoming	-2712
▁carrying	-2713
▁chairman	-2714
▁circumst	-2715
▁contains	-2716
▁crossing	-2717
▁exchange	-2718
▁hardship	-2719
▁learning	-2720
▁pleasant	-2721
▁prepared	-2722
▁valuable	-2723
▁according	-2724
▁americans	-2725
▁apartment	-2726
▁australia	-2727
▁carefully	-2728
▁christmas	-2729
▁dangerous	-2730
▁introduce	-2731
▁listening	-2732
▁satisfied	-2733
▁absolutely	-2734
▁regardless	-2735
▁reservation	-2736
▁circumstances	-2737
be	-2738
hy	-2739
ny	-2740
aur	-2741
bel	-2742
cer	-2743
ees	-2744
ges	-2745
hib	-2746
hol	-2747
how	-2748
ica	-2749
igr	-2750
iro	-2751
ith	-2752
ium	-2753
lly	-2754
men	-2755
mit	-2756
oku	-2757
omm	-2758
uge	-2759
uly	-2760
ung	-2761
val	-2762
yle	-2763
▁11	-2764
▁em	-2765
▁hy	-2766
appy	-2767
atic	-2768
ccer	-2769
eral	-2770
hold	-2771
iers	-2772
ilty	-2773
ival	-2774
look	-2775
ooth	-2776
rict	-2777
rors	-2778
sequ	-2779
vous	-2780
▁ant	-2781
▁dad	-2782
▁deb	-2783
▁deg	-2784
▁dil	-2785
▁eld	-2786
▁gor	-2787
▁haw	-2788
▁mem	-2789
▁obv	-2790
▁org	-2791
▁row	-2792
▁squ	-2793
▁tig	-2794
▁unh	-2795
▁wis	-2796
aight	-2797
aimed	-2798
apped	-2799
ceive	-2800
encil	-2801
gress	-2802
ients	-2803
ipped	-2804
istic	-2805
redit	-2806
riend	-2807
usted	-2808
▁asso	-2809
▁aver	-2810
▁beth	-2811
▁burn	-2812
▁cast	-2813
▁cere	-2814
▁coun	-2815
▁crim	-2816
▁decl	-2817
▁dogs	-2818
▁draw	-2819
▁ears	-2820
▁east	-2821
▁eggs	-2822
▁film	-2823
▁flew	-2824
▁gift	-2825
▁hadn	-2826
▁hall	-2827
▁imag	-2828
▁inse	-2829
▁join	-2830
▁kids	-2831
▁lake	-2832
▁mere	-2833
▁note	-2834
▁oper	-2835
▁pack	-2836
▁page	-2837
▁pale	-2838
▁pity	-2839
▁poll	-2840
▁quit	-2841
▁roof	-2842
▁rose	-2843
▁rude	-2844
▁sand	-2845
▁sell	-2846
▁shot	-2847
▁tend	-2848
▁tire	-2849
▁type	-2850
▁viol	-2851
▁west	-2852
▁worn	-2853
angers	-2854
ection	-2855
engers	-2856
ential	-2857
ission	-2858
mitted	-2859
omeday	-2860
ounced	-2861
perior	-2862
▁argum	-2863
▁artic	-2864
▁avoid	-2865
▁bench	-2866
▁brief	-2867
▁china	-2868
▁cover	-2869
▁dance	-2870
▁eager	-2871
▁empty	-2872
▁equal	-2873
▁event	-2874
▁feels	-2875
▁fixed	-2876
▁forty	-2877
▁frank	-2878
▁games	-2879
▁hobby	-2880
▁ident	-2881
▁ignor	-2882
▁indic	-2883
▁innoc	-2884
▁loved	-2885
▁loves	-2886
▁major	-2887
▁moved	-2888
▁named	-2889
▁north	-2890
▁offic	-2891
▁power	-2892
▁pride	-2893
▁purse	-2894
▁raise	-2895
▁rapid	-2896
▁refle	-2897
▁reply	-2898
▁round	-2899
▁schol	-2900
▁smart	-2901
▁steam	-2902
▁stick	-2903
▁terri	-2904
▁thief	-2905
▁turns	-2906
▁whose	-2907
ference	-2908
▁admire	-2909
▁advant	-2910
▁apples	-2911
▁applic	-2912
▁bottom	-2913
▁cities	-2914
▁credit	-2915
▁design	-2916
▁determ	-2917
▁dishes	-2918
▁dishon	-2919
▁errors	-2920
▁escape	-2921
▁estate	-2922
▁fought	-2923
▁guilty	-2924
▁hungry	-2925
▁intern	-2926
▁interv	-2927
▁invite	-2928
▁larger	-2929
▁meters	-2930
▁novels	-2931
▁pencil	-2932
▁places	-2933
▁princi	-2934
▁robbed	-2935
▁search	-2936
▁severe	-2937
▁shower	-2938
▁smooth	-2939
▁soccer	-2940
▁stamps	-2941
▁supply	-2942
▁tanaka	-2943
▁warmer	-2944
cription	-2945
▁advised	-2946
▁arrange	-2947
▁average	-2948
▁beating	-2949
▁century	-2950
▁consult	-2951
▁contest	-2952
▁culture	-2953
▁disease	-2954
▁dropped	-2955
▁earlier	-2956
▁exactly	-2957
▁excited	-2958
▁explain	-2959
▁foolish	-2960
▁healthy	-2961
▁meaning	-2962
▁neither	-2963
▁nervous	-2964
▁obvious	-2965
▁process	-2966
▁restaur	-2967
▁shining	-2968
▁showing	-2969
▁silence	-2970
▁someday	-2971
▁spirits	-2972
▁turning	-2973
▁wearing	-2974
▁whoever	-2975
▁accustom	-2976
▁affected	-2977
▁audience	-2978
▁birthday	-2979
▁ceremony	-2980
▁climbing	-2981
▁complain	-2982
▁consists	-2983
▁constant	-2984
▁darkness	-2985
▁electric	-2986
▁entirely	-2987
▁followed	-2988
▁informed	-2989
▁investig	-2990
▁neighbor	-2991
▁occasion	-2992
▁painting	-2993
▁products	-2994
▁property	-2995
▁remained	-2996
▁research	-2997
▁shortage	-2998
▁sleeping	-2999
▁soldiers	-3000
▁straight	-3001
▁superior	-3002
▁wherever	-3003
▁admission	-3004
▁apologize	-3005
▁classical	-3006
▁construct	-3007
▁customers	-3008
▁following	-3009
▁graduated	-3010
▁happiness	-3011
▁languages	-3012
▁political	-3013
▁resources	-3014
▁satisfact	-3015
▁shoulders	-3016
▁somewhere	-3017
▁suffering	-3018
▁acquainted	-3019
▁passengers	-3020
▁politician	-3021
▁opportunity	-3022
▁responsibility	-3023
ai	-3024
ls	-3025
me	-3026
zy	-3027
ada	-3028
ann	-3029
azz	-3030
bru	-3031
bum	-3032
has	-3033
iff	-3034
ify	-3035
irm	-3036
let	-3037
llo	-3038
mod	-3039
obe	-3040
ogn	-3041
par	-3042
ply	-3043
reg	-3044
rop	-3045
set	-3046
son	-3047
udd	-3048
uko	-3049
umi	-3050
und	-3051
unk	-3052
uri	-3053
urs	-3054
vey	-3055
▁ak	-3056
▁ge	-3057
▁lu	-3058
▁ow	-3059
▁ox	-3060
aves	-3061
book	-3062
cast	-3063
gest	-3064
ging	-3065
ideo	-3066
ilet	-3067
itch	-3068
lded	-3069
medi	-3070
ords	-3071
owed	-3072
rain	-3073
roat	-3074
rove	-3075
time	-3076
umed	-3077
uses	-3078
ware	-3079
▁ach	-3080
▁aim	-3081
▁ath	-3082
▁awk	-3083
▁bal	-3084
▁ban	-3085
▁cas	-3086
▁cru	-3087
▁dug	-3088
▁emb	-3089
▁guy	-3090
▁hen	-3091
▁iss	-3092
▁jok	-3093
▁kid	-3094
▁lay	-3095
▁mix	-3096
▁pil	-3097
▁reb	-3098
▁ren	-3099
▁sev	-3100
▁ski	-3101
▁sle	-3102
▁toy	-3103
▁unc	-3104
▁wet	-3105
acity	-3106
alled	-3107
anged	-3108
arest	-3109
ashed	-3110
astic	-3111
azing	-3112
cohol	-3113
ength	-3114
gency	-3115
hemat	-3116
inced	-3117
irmed	-3118
itive	-3119
ormal	-3120
osion	-3121
pping	-3122
rated	-3123
urday	-3124
ushed	-3125
▁ages	-3126
▁asia	-3127
▁bull	-3128
▁cher	-3129
▁cock	-3130
▁cott	-3131
▁danc	-3132
▁disg	-3133
▁drow	-3134
▁ends	-3135
▁enem	-3136
▁entr	-3137
▁feet	-3138
▁gray	-3139
▁hang	-3140
▁heat	-3141
▁hous	-3142
▁infl	-3143
▁iron	-3144
▁jeal	-3145
▁jump	-3146
▁june	-3147
▁kill	-3148
▁legs	-3149
▁lift	-3150
▁maid	-3151
▁mild	-3152
▁mile	-3153
▁mood	-3154
▁obey	-3155
▁pair	-3156
▁pond	-3157
▁prot	-3158
▁pull	-3159
▁race	-3160
▁rail	-3161
▁rele	-3162
▁ride	-3163
▁rise	-3164
▁save	-3165
▁sort	-3166
▁star	-3167
▁stri	-3168
▁susp	-3169
▁tech	-3170
▁term	-3171
▁tony	-3172
▁vain	-3173
▁wild	-3174
▁yoko	-3175
bruary	-3176
icient	-3177
mother	-3178
ommend	-3179
ousand	-3180
ulated	-3181
▁aband	-3182
▁absor	-3183
▁album	-3184
▁annoy	-3185
▁aside	-3186
▁basic	-3187
▁beach	-3188
▁bored	-3189
▁brush	-3190
▁cards	-3191
▁champ	-3192
▁cheek	-3193
▁chief	-3194
▁cloud	-3195
▁cream	-3196
▁creat	-3197
▁cried	-3198
▁depri	-3199
▁drama	-3200
▁drank	-3201
▁drove	-3202
▁elder	-3203
▁facts	-3204
▁fence	-3205
▁gives	-3206
▁gramm	-3207
▁green	-3208
▁helps	-3209
▁holds	-3210
▁homet	-3211
▁hopes	-3212
▁invit	-3213
▁italy	-3214
▁kinds	-3215
▁march	-3216
▁motor	-3217
▁organ	-3218
▁scene	-3219
▁scold	-3220
▁serve	-3221
▁shock	-3222
▁shows	-3223
▁skill	-3224
▁smile	-3225
▁smith	-3226
▁songs	-3227
▁space	-3228
▁spite	-3229
▁stars	-3230
▁stock	-3231
▁tiger	-3232
▁tower	-3233
▁trust	-3234
▁usual	-3235
▁video	-3236
▁wears	-3237
▁woods	-3238
ational	-3239
ghtened	-3240
ishment	-3241
ributed	-3242
▁acting	-3243
▁adults	-3244
▁afford	-3245
▁africa	-3246
▁altern	-3247
▁asking	-3248
▁attack	-3249
▁begins	-3250
▁bitter	-3251
▁bottle	-3252
▁butter	-3253
▁buying	-3254
▁choice	-3255
▁choose	-3256
▁crying	-3257
▁denied	-3258
▁destro	-3259
▁detail	-3260
▁emphas	-3261
▁extent	-3262
▁fairly	-3263
▁folded	-3264
▁forced	-3265
▁fortun	-3266
▁gorill	-3267
▁handle	-3268
▁highly	-3269
▁immedi	-3270
▁immigr	-3271
▁insect	-3272
▁inside	-3273
▁interp	-3274
▁jacket	-3275
▁latest	-3276
▁length	-3277
▁lights	-3278
▁likely	-3279
▁lovely	-3280
▁materi	-3281
▁months	-3282
▁moving	-3283
▁nearly	-3284
▁parcel	-3285
▁plants	-3286
▁polite	-3287
▁pounds	-3288
▁prison	-3289
▁recess	-3290
▁recogn	-3291
▁reluct	-3292
▁retire	-3293
▁salary	-3294
▁scarce	-3295
▁signal	-3296
▁slight	-3297
▁smiled	-3298
▁spoken	-3299
▁starts	-3300
▁supper	-3301
▁threat	-3302
▁throat	-3303
▁toilet	-3304
▁transl	-3305
▁unless	-3306
▁vacant	-3307
▁wallet	-3308
▁washed	-3309
▁accused	-3310
▁alcohol	-3311
▁answers	-3312
▁attract	-3313
▁awkward	-3314
▁baggage	-3315
▁burning	-3316
▁climbed	-3317
▁consequ	-3318
▁degrees	-3319
▁dentist	-3320
▁earnest	-3321
▁elected	-3322
▁entered	-3323
▁follows	-3324
▁frankly	-3325
▁general	-3326
▁germany	-3327
▁granted	-3328
▁greater	-3329
▁happens	-3330
▁helping	-3331
▁hurried	-3332
▁improve	-3333
▁jealous	-3334
▁nearest	-3335
▁observe	-3336
▁painted	-3337
▁payment	-3338
▁perfect	-3339
▁pianist	-3340
▁pressed	-3341
▁reminds	-3342
▁setting	-3343
▁shouldn	-3344
▁sweater	-3345
▁teaches	-3346
▁thunder	-3347
▁tickets	-3348
▁unhappy	-3349
▁victory	-3350
▁wedding	-3351
▁accommod	-3352
▁appeared	-3353
▁approach	-3354
▁attended	-3355
▁capacity	-3356
▁contract	-3357
▁criminal	-3358
▁demanded	-3359
▁diligent	-3360
▁discount	-3361
▁evidence	-3362
▁families	-3363
▁favorite	-3364
▁february	-3365
▁forecast	-3366
▁headache	-3367
▁hometown	-3368
▁industry	-3369
▁laughter	-3370
▁magazine	-3371
▁mathemat	-3372
▁personal	-3373
▁physical	-3374
▁pictures	-3375
▁probably	-3376
▁promises	-3377
▁reporter	-3378
▁saturday	-3379
▁schedule	-3380
▁teaching	-3381
▁terrible	-3382
▁thousand	-3383
▁visiting	-3384
▁whenever	-3385
▁abandoned	-3386
▁advantage	-3387
▁associate	-3388
▁attending	-3389
▁concerned	-3390
▁convinced	-3391
▁departure	-3392
▁emergency	-3393
▁explained	-3394
▁explosion	-3395
▁hardships	-3396
▁household	-3397
▁ourselves	-3398
▁presented	-3399
▁recommend	-3400
▁scientist	-3401
▁statement	-3402
▁strangers	-3403
▁suggested	-3404
▁accustomed	-3405
▁convenient	-3406
▁discovered	-3407
▁discussion	-3408
▁friendship	-3409
▁frightened	-3410
▁generation	-3411
▁increasing	-3412
▁restaurant	-3413
▁successful	-3414
▁accompanied	-3415
▁communicate	-3416
▁description	-3417
▁grandmother	-3418
▁immediately	-3419
▁intelligent	-3420
▁difficulties	-3421
▁expectations	-3422
▁satisfactory	-3423
fa	-3424
lc	-3425
sh	-3426
uf	-3427
ya	-3428
ym	-3429
za	-3430
aft	-3431
aii	-3432
ako	-3433
ale	-3434
ape	-3435
arm	-3436
aze	-3437
azy	-3438
cks	-3439
eed	-3440
els	-3441
erk	-3442
gic	-3443
ico	-3444
ida	-3445
iko	-3446
ipe	-3447
iqu	-3448
isy	-3449
ita	-3450
ius	-3451
yed	-3452
▁00	-3453
▁cy	-3454
▁ir	-3455
▁je	-3456
▁nu	-3457
▁sn	-3458
▁ye	-3459
abet	-3460
alog	-3461
aret	-3462
aved	-3463
bers	-3464
cher	-3465
cing	-3466
cket	-3467
cles	-3468
elve	-3469
esus	-3470
gent	-3471
head	-3472
ibly	-3473
ieve	-3474
ilar	-3475
ingu	-3476
irac	-3477
iron	-3478
ivid	-3479
ivil	-3480
lebr	-3481
lict	-3482
lies	-3483
mark	-3484
ocol	-3485
omin	-3486
ophy	-3487
oted	-3488
play	-3489
ples	-3490
reme	-3491
seas	-3492
stem	-3493
tail	-3494
uded	-3495
upid	-3496
xico	-3497
▁bro	-3498
▁cre	-3499
▁dry	-3500
▁fed	-3501
▁fog	-3502
▁fre	-3503
▁gar	-3504
▁gym	-3505
▁hyp	-3506
▁jam	-3507
▁lim	-3508
▁lit	-3509
▁mac	-3510
▁rod	-3511
▁shr	-3512
▁tor	-3513
▁tun	-3514
abled	-3515
ading	-3516
agedy	-3517
aired	-3518
anges	-3519
arent	-3520
arily	-3521
avity	-3522
berty	-3523
clear	-3524
ctual	-3525
enced	-3526
endid	-3527
epend	-3528
essed	-3529
iable	-3530
icken	-3531
ictly	-3532
ieved	-3533
ified	-3534
iment	-3535
itate	-3536
itude	-3537
iture	-3538
night	-3539
ology	-3540
onely	-3541
orses	-3542
otion	-3543
tered	-3544
uence	-3545
ufact	-3546
urred	-3547
vings	-3548
▁acts	-3549
▁adop	-3550
▁aids	-3551
▁alph	-3552
▁army	-3553
▁beat	-3554
▁bent	-3555
▁betr	-3556
▁bold	-3557
▁brit	-3558
▁cand	-3559
▁chap	-3560
▁chat	-3561
▁conn	-3562
▁cows	-3563
▁craw	-3564
▁data	-3565
▁debt	-3566
▁desp	-3567
▁diet	-3568
▁fame	-3569
▁fare	-3570
▁fest	-3571
▁forg	-3572
▁fork	-3573
▁furn	-3574
▁fuss	-3575
▁gest	-3576
▁harm	-3577
▁hook	-3578
▁idle	-3579
▁inex	-3580
▁jazz	-3581
▁kobe	-3582
▁koko	-3583
▁lack	-3584
▁lent	-3585
▁lion	-3586
▁lock	-3587
▁meas	-3588
▁murd	-3589
▁neck	-3590
▁pens	-3591
▁pets	-3592
▁pred	-3593
▁push	-3594
▁quot	-3595
▁role	-3596
▁rome	-3597
▁rout	-3598
▁sake	-3599
▁sale	-3600
▁shar	-3601
▁site	-3602
▁sofa	-3603
▁spot	-3604
▁thor	-3605
▁tune	-3606
▁unex	-3607
▁vase	-3608
▁vast	-3609
▁vice	-3610
▁wake	-3611
▁welc	-3612
cially	-3613
ffered	-3614
ically	-3615
idents	-3616
itated	-3617
ivered	-3618
lished	-3619
manent	-3620
ounded	-3621
perate	-3622
rested	-3623
terson	-3624
verest	-3625
▁acted	-3626
▁admir	-3627
▁aimed	-3628
▁airpl	-3629
▁aware	-3630
▁benef	-3631
▁blank	-3632
▁boast	-3633
▁brain	-3634
▁brave	-3635
▁calls	-3636
▁carol	-3637
▁civil	-3638
▁cliff	-3639
▁coins	-3640
▁crazy	-3641
▁crime	-3642
▁cruel	-3643
▁debts	-3644
▁depos	-3645
▁disgu	-3646
▁dried	-3647
▁drunk	-3648
▁eaten	-3649
▁enemy	-3650
▁error	-3651
▁extra	-3652
▁falls	-3653
▁fever	-3654
▁films	-3655
▁finan	-3656
▁flood	-3657
▁frost	-3658
▁funds	-3659
▁gains	-3660
▁grass	-3661
▁greet	-3662
▁guide	-3663
▁helen	-3664
▁hello	-3665
▁honor	-3666
▁horiz	-3667
▁impro	-3668
▁incre	-3669
▁jesus	-3670
▁jokes	-3671
▁leads	-3672
▁loose	-3673
▁lower	-3674
▁lucky	-3675
▁marks	-3676
▁maybe	-3677
▁noted	-3678
▁notes	-3679
▁postp	-3680
▁rates	-3681
▁recei	-3682
▁recon	-3683
▁regul	-3684
▁relig	-3685
▁rooms	-3686
▁seats	-3687
▁separ	-3688
▁shore	-3689
▁slept	-3690
▁solar	-3691
▁staff	-3692
▁style	-3693
▁super	-3694
▁thick	-3695
▁throw	-3696
▁tight	-3697
▁towel	-3698
▁trade	-3699
▁treas	-3700
▁users	-3701
▁using	-3702
▁vital	-3703
▁weeks	-3704
ocolate	-3705
▁10,000	-3706
▁active	-3707
▁admits	-3708
▁animal	-3709
▁appeal	-3710
▁argued	-3711
▁artist	-3712
▁assign	-3713
▁assist	-3714
▁barely	-3715
▁breaks	-3716
▁bullet	-3717
▁buried	-3718
▁castle	-3719
▁celebr	-3720
▁center	-3721
▁cheeks	-3722
▁cheese	-3723
▁cloudy	-3724
▁common	-3725
▁contin	-3726
▁counts	-3727
▁demand	-3728
▁democr	-3729
▁differ	-3730
▁dollar	-3731
▁factor	-3732
▁fallen	-3733
▁finger	-3734
▁fourth	-3735
▁gained	-3736
▁growth	-3737
▁handed	-3738
▁hawaii	-3739
▁horses	-3740
▁insist	-3741
▁ladies	-3742
▁lonely	-3743
▁manage	-3744
▁memory	-3745
▁mexico	-3746
▁normal	-3747
▁parked	-3748
▁photos	-3749
▁picked	-3750
▁praise	-3751
▁prohib	-3752
▁pulled	-3753
▁recent	-3754
▁refuge	-3755
▁relief	-3756
▁rights	-3757
▁scream	-3758
▁served	-3759
▁sights	-3760
▁silent	-3761
▁skiing	-3762
▁sleepy	-3763
▁social	-3764
▁solved	-3765
▁sorrow	-3766
▁sounds	-3767
▁stupid	-3768
▁system	-3769
▁taller	-3770
▁terror	-3771
▁thirst	-3772
▁twelve	-3773
▁unable	-3774
▁urgent	-3775
▁wishes	-3776
ironment	-3777
▁actions	-3778
▁actress	-3779
▁affairs	-3780
▁aggress	-3781
▁allowed	-3782
▁amounts	-3783
▁anxiety	-3784
▁arrival	-3785
▁bedroom	-3786
▁belongs	-3787
▁blowing	-3788
▁capital	-3789
▁charity	-3790
▁chicken	-3791
▁chinese	-3792
▁cleared	-3793
▁collect	-3794
▁command	-3795
▁consist	-3796
▁control	-3797
▁counter	-3798
▁customs	-3799
▁delight	-3800
▁dismiss	-3801
▁distant	-3802
▁doctors	-3803
▁drowned	-3804
▁engaged	-3805
▁extreme	-3806
▁feature	-3807
▁figures	-3808
▁finance	-3809
▁fingers	-3810
▁forever	-3811
▁gravity	-3812
▁greatly	-3813
▁holding	-3814
▁imagine	-3815
▁imposed	-3816
▁knowing	-3817
▁liberty	-3818
▁medical	-3819
▁mothers	-3820
▁mystery	-3821
▁nations	-3822
▁noticed	-3823
▁nuclear	-3824
▁opening	-3825
▁painter	-3826
▁prevent	-3827
▁protest	-3828
▁quarter	-3829
▁quietly	-3830
▁records	-3831
▁remains	-3832
▁rolling	-3833
▁savings	-3834
▁scholar	-3835
▁scolded	-3836
▁seconds	-3837
▁shaking	-3838
▁similar	-3839
▁somehow	-3840
▁speaker	-3841
▁suppose	-3842
▁tragedy	-3843
▁typical	-3844
▁version	-3845
▁warning	-3846
▁washing	-3847
▁windows	-3848
▁winning	-3849
▁absorbed	-3850
▁accounts	-3851
▁activity	-3852
▁alphabet	-3853
▁answered	-3854
▁apparent	-3855
▁argument	-3856
▁arrested	-3857
▁changing	-3858
▁charming	-3859
▁compared	-3860
▁conflict	-3861
▁critical	-3862
▁declined	-3863
▁directed	-3864
▁disaster	-3865
▁distingu	-3866
▁district	-3867
▁economic	-3868
▁entrance	-3869
▁festival	-3870
▁fluently	-3871
▁friendly	-3872
▁greatest	-3873
▁holidays	-3874
▁independ	-3875
▁innocent	-3876
▁insisted	-3877
▁location	-3878
▁manufact	-3879
▁midnight	-3880
▁national	-3881
▁novelist	-3882
▁original	-3883
▁overlook	-3884
▁overseas	-3885
▁patience	-3886
▁patients	-3887
▁politics	-3888
▁possibly	-3889
▁probable	-3890
▁punctual	-3891
▁released	-3892
▁salesman	-3893
▁scarcely	-3894
▁services	-3895
▁smoothly	-3896
▁splendid	-3897
▁strictly	-3898
▁strongly	-3899
▁suffered	-3900
▁thorough	-3901
▁tourists	-3902
▁troubles	-3903
▁unfortun	-3904
▁accidents	-3905
▁adventure	-3906
▁announced	-3907
▁appointed	-3908
▁beginning	-3909
▁childhood	-3910
▁chocolate	-3911
▁delivered	-3912
▁destroyed	-3913
▁discovery	-3914
▁essential	-3915
▁foreigner	-3916
▁influence	-3917
▁intervals	-3918
▁objection	-3919
▁paintings	-3920
▁patterson	-3921
▁performed	-3922
▁permanent	-3923
▁persuaded	-3924
▁pollution	-3925
▁professor	-3926
▁receiving	-3927
▁recession	-3928
▁regularly	-3929
▁reluctant	-3930
▁secretary	-3931
▁attractive	-3932
▁conference	-3933
▁confidence	-3934
▁downstairs	-3935
▁foreigners	-3936
▁hesitation	-3937
▁immigrants	-3938
▁importance	-3939
▁impression	-3940
▁invitation	-3941
▁newspapers	-3942
▁preferable	-3943
▁production	-3944
▁unexpected	-3945
▁application	-3946
▁comfortable	-3947
▁consequence	-3948
▁development	-3949
▁environment	-3950
▁experiences	-3951
▁interrupted	-3952
▁mathematics	-3953
▁performance	-3954
▁regulations	-3955
▁temperature	-3956
▁carelessness	-3957
▁disappointed	-3958
▁neighborhood	-3959
▁relationship	-3960
▁communication	-3961
bb	-3962
gl	-3963
go	-3964
io	-3965
my	-3966
oe	-3967
pe	-3968
ps	-3969
sy	-3970
to	-3971
wh	-3972
zz	-3973
▁x	-3974
ago	-3975
aki	-3976
ana	-3977
ano	-3978
aps	-3979
arr	-3980
awa	-3981
bon	-3982
bye	-3983
com	-3984
cut	-3985
eag	-3986
ero	-3987
gen	-3988
hew	-3989
hus	-3990
iny	-3991
iod	-3992
juk	-3993
ker	-3994
olf	-3995
olt	-3996
omp	-3997
osh	-3998
ped	-3999
por	-4000
put	-4001
rat	-4002
uff	-4003
ume	-4004
urb	-4005
wic	-4006
▁bi	-4007
▁gh	-4008
▁ms	-4009
▁od	-4010
▁ve	-4011
ales	-4012
ards	-4013
ares	-4014
asso	-4015
athy	-4016
back	-4017
bted	-4018
cean	-4019
cipl	-4020
clus	-4021
days	-4022
enth	-4023
face	-4024
geon	-4025
goti	-4026
hama	-4027
haps	-4028
husi	-4029
ials	-4030
ians	-4031
iche	-4032
idow	-4033
iles	-4034
ints	-4035
irts	-4036
itiz	-4037
itor	-4038
izza	-4039
juku	-4040
kind	-4041
like	-4042
nedy	-4043
omes	-4044
omob	-4045
ores	-4046
orge	-4047
orms	-4048
osen	-4049
oser	-4050
ouds	-4051
oyal	-4052
pens	-4053
phew	-4054
plic	-4055
rate	-4056
reng	-4057
resp	-4058
teen	-4059
tery	-4060
upil	-4061
utes	-4062
vest	-4063
▁ack	-4064
▁apt	-4065
▁aya	-4066
▁bee	-4067
▁bom	-4068
▁bow	-4069
▁bud	-4070
▁bye	-4071
▁cig	-4072
▁coo	-4073
▁cow	-4074
▁der	-4075
▁dig	-4076
▁elb	-4077
▁eth	-4078
▁fit	-4079
▁gat	-4080
▁glo	-4081
▁gri	-4082
▁hak	-4083
▁jan	-4084
▁kil	-4085
▁lic	-4086
▁lou	-4087
▁luc	-4088
▁meg	-4089
▁mos	-4090
▁mrs	-4091
▁mud	-4092
▁mum	-4093
▁net	-4094
▁non	-4095
▁nut	-4096
▁oil	-4097
▁raw	-4098
▁sam	-4099
▁sav	-4100
▁sew	-4101
▁sex	-4102
▁sou	-4103
▁tip	-4104
▁tre	-4105
▁und	-4106
▁van	-4107
▁voy	-4108
▁yam	-4109
acing	-4110
adium	-4111
aling	-4112
aries	-4113
chief	-4114
ckets	-4115
eding	-4116
eless	-4117
erful	-4118
fered	-4119
gging	-4120
icago	-4121
icing	-4122
icked	-4123
ikoku	-4124
inary	-4125
inite	-4126
irtue	-4127
istry	-4128
itals	-4129
light	-4130
mates	-4131
omach	-4132
oning	-4133
orced	-4134
orted	-4135
oston	-4136
pired	-4137
shine	-4138
stood	-4139
store	-4140
storm	-4141
ulate	-4142
ulous	-4143
using	-4144
wards	-4145
▁airs	-4146
▁ange	-4147
▁barg	-4148
▁beef	-4149
▁boil	-4150
▁boyf	-4151
▁bush	-4152
▁cage	-4153
▁calm	-4154
▁cash	-4155
▁cong	-4156
▁cool	-4157
▁crew	-4158
▁curi	-4159
▁damn	-4160
▁dare	-4161
▁dawn	-4162
▁dial	-4163
▁dust	-4164
▁eats	-4165
▁edge	-4166
▁envy	-4167
▁espe	-4168
▁excl	-4169
▁firm	-4170
▁flag	-4171
▁forb	-4172
▁frag	-4173
▁fund	-4174
▁gain	-4175
▁gang	-4176
▁goal	-4177
▁grab	-4178
▁gree	-4179
▁hasn	-4180
▁hero	-4181
▁hers	-4182
▁inch	-4183
▁july	-4184
▁keen	-4185
▁kiss	-4186
▁lazy	-4187
▁lean	-4188
▁leap	-4189
▁liqu	-4190
▁lump	-4191
▁misf	-4192
▁murm	-4193
▁nest	-4194
▁nove	-4195
▁nurs	-4196
▁obed	-4197
▁obst	-4198
▁ones	-4199
▁owns	-4200
▁pace	-4201
▁path	-4202
▁peak	-4203
▁phil	-4204
▁pipe	-4205
▁pool	-4206
▁rank	-4207
▁reck	-4208
▁rely	-4209
▁rent	-4210
▁roll	-4211
▁rope	-4212
▁sens	-4213
▁sits	-4214
▁skin	-4215
▁sons	-4216
▁sour	-4217
▁stim	-4218
▁surr	-4219
▁symp	-4220
▁thus	-4221
▁tide	-4222
▁tiny	-4223
▁tool	-4224
▁tore	-4225
▁trad	-4226
▁trif	-4227
▁tues	-4228
▁tunn	-4229
▁wage	-4230
▁ways	-4231
▁weep	-4232
▁wond	-4233
▁wore	-4234
▁yach	-4235
▁yosh	-4236
▁yumi	-4237
▁zero	-4238
aceful	-4239
action	-4240
anches	-4241
arrass	-4242
ellion	-4243
ending	-4244
entive	-4245
iments	-4246
inated	-4247
ipping	-4248
ishing	-4249
jected	-4250
lected	-4251
market	-4252
nessed	-4253
ressed	-4254
tained	-4255
tation	-4256
uction	-4257
urance	-4258
velope	-4259
wiches	-4260
▁1,000	-4261
▁abide	-4262
▁accum	-4263
▁accur	-4264
▁actor	-4265
▁adult	-4266
▁ahead	-4267
▁allot	-4268
▁ample	-4269
▁areas	-4270
▁aston	-4271
▁awake	-4272
▁awoke	-4273
▁barks	-4274
▁based	-4275
▁bears	-4276
▁begun	-4277
▁blood	-4278
▁bones	-4279
▁boots	-4280
▁broad	-4281
▁burgl	-4282
▁buses	-4283
▁cakes	-4284
▁cases	-4285
▁chall	-4286
▁charm	-4287
▁citiz	-4288
▁clerk	-4289
▁coast	-4290
▁costs	-4291
▁crash	-4292
▁crops	-4293
▁cured	-4294
▁curry	-4295
▁daily	-4296
▁deals	-4297
▁decor	-4298
▁delay	-4299
▁delic	-4300
▁deser	-4301
▁devil	-4302
▁dived	-4303
▁divis	-4304
▁estab	-4305
▁exper	-4306
▁fancy	-4307
▁folly	-4308
▁force	-4309
▁frequ	-4310
▁ghost	-4311
▁girlf	-4312
▁glory	-4313
▁grave	-4314
▁guard	-4315
▁handy	-4316
▁hates	-4317
▁hurts	-4318
▁image	-4319
▁indif	-4320
▁invol	-4321
▁issue	-4322
▁knife	-4323
▁latin	-4324
▁level	-4325
▁lions	-4326
▁loses	-4327
▁loyal	-4328
▁magic	-4329
▁meant	-4330
▁minds	-4331
▁minor	-4332
▁mirac	-4333
▁mouse	-4334
▁nancy	-4335
▁occup	-4336
▁ocean	-4337
▁pages	-4338
▁perse	-4339
▁peter	-4340
▁pilot	-4341
▁pizza	-4342
▁plain	-4343
▁prime	-4344
▁pupil	-4345
▁relax	-4346
▁roads	-4347
▁rocks	-4348
▁route	-4349
▁schem	-4350
▁screw	-4351
▁sells	-4352
▁shame	-4353
▁shape	-4354
▁shelf	-4355
▁sides	-4356
▁sings	-4357
▁sixty	-4358
▁south	-4359
▁speed	-4360
▁spell	-4361
▁steak	-4362
▁stops	-4363
▁stove	-4364
▁stret	-4365
▁subst	-4366
▁susie	-4367
▁tales	-4368
▁taste	-4369
▁taxes	-4370
▁techn	-4371
▁threw	-4372
▁track	-4373
▁trial	-4374
▁truck	-4375
▁truly	-4376
▁waves	-4377
▁widow	-4378
▁wrest	-4379
ciation	-4380
cipline	-4381
ificial	-4382
istered	-4383
ization	-4384
mentary	-4385
mission	-4386
ography	-4387
ometers	-4388
omobile	-4389
pleased	-4390
utation	-4391
▁abrupt	-4392
▁acknow	-4393
▁athlet	-4394
▁backed	-4395
▁beggar	-4396
▁behave	-4397
▁beings	-4398
▁belief	-4399
▁beware	-4400
▁bigger	-4401
▁blamed	-4402
▁boston	-4403
▁bother	-4404
▁brains	-4405
▁brings	-4406
▁budget	-4407
▁burden	-4408
▁button	-4409
▁calcul	-4410
▁canada	-4411
▁cancer	-4412
▁carpet	-4413
▁caused	-4414
▁causes	-4415
▁cheers	-4416
▁cherry	-4417
▁clouds	-4418
▁colors	-4419
▁columb	-4420
▁comics	-4421
▁commer	-4422
▁compar	-4423
▁conver	-4424
▁convey	-4425
▁corpor	-4426
▁cotton	-4427
▁coward	-4428
▁curren	-4429
▁danced	-4430
▁dancer	-4431
▁decide	-4432
▁device	-4433
▁double	-4434
▁dreams	-4435
▁ethnic	-4436
▁extend	-4437
▁faster	-4438
▁finals	-4439
▁forest	-4440
▁genius	-4441
▁george	-4442
▁harbor	-4443
▁height	-4444
▁houses	-4445
▁hypocr	-4446
▁includ	-4447
▁incomp	-4448
▁indeed	-4449
▁indian	-4450
▁insult	-4451
▁kindly	-4452
▁kitten	-4453
▁losing	-4454
▁louder	-4455
▁mainly	-4456
▁manner	-4457
▁mayuko	-4458
▁medium	-4459
▁merely	-4460
▁monkey	-4461
▁murder	-4462
▁narita	-4463
▁native	-4464
▁negoti	-4465
▁nephew	-4466
▁obtain	-4467
▁partly	-4468
▁passes	-4469
▁paying	-4470
▁period	-4471
▁pieces	-4472
▁poetry	-4473
▁prepar	-4474
▁rained	-4475
▁raised	-4476
▁rarely	-4477
▁region	-4478
▁remain	-4479
▁remove	-4480
▁repair	-4481
▁resign	-4482
▁review	-4483
▁runner	-4484
▁safely	-4485
▁sailed	-4486
▁settle	-4487
▁shared	-4488
▁simple	-4489
▁simply	-4490
▁slaves	-4491
▁smells	-4492
▁smiles	-4493
▁spends	-4494
▁spirit	-4495
▁squish	-4496
▁stairs	-4497
▁stream	-4498
▁streng	-4499
▁strike	-4500
▁summit	-4501
▁temple	-4502
▁threes	-4503
▁tricks	-4504
▁undert	-4505
▁useful	-4506
▁values	-4507
▁violin	-4508
▁virtue	-4509
▁vision	-4510
▁voyage	-4511
▁weaker	-4512
▁winner	-4513
▁worthy	-4514
▁yellow	-4515
kerchief	-4516
▁100,000	-4517
▁absence	-4518
▁accompl	-4519
▁achieve	-4520
▁admired	-4521
▁adopted	-4522
▁appears	-4523
▁article	-4524
▁balance	-4525
▁britain	-4526
▁catalog	-4527
▁chances	-4528
▁changes	-4529
▁charmed	-4530
▁chicago	-4531
▁cigaret	-4532
▁claimed	-4533
▁cleaned	-4534
▁clearly	-4535
▁colleag	-4536
▁compete	-4537
▁consent	-4538
▁crowded	-4539
▁curtain	-4540
▁devoted	-4541
▁display	-4542
▁dressed	-4543
▁enabled	-4544
▁enthusi	-4545
▁falling	-4546
▁federal	-4547
▁forgive	-4548
▁glanced	-4549
▁glasses	-4550
▁goodbye	-4551
▁grammar	-4552
▁harvest	-4553
▁helpful	-4554
▁horizon	-4555
▁hunting	-4556
▁include	-4557
▁inspect	-4558
▁jogging	-4559
▁johnson	-4560
▁judging	-4561
▁kennedy	-4562
▁knocked	-4563
▁landing	-4564
▁largest	-4565
▁leading	-4566
▁license	-4567
▁longing	-4568
▁luggage	-4569
▁mankind	-4570
▁motorcy	-4571
▁numbers	-4572
▁oranges	-4573
▁package	-4574
▁parking	-4575
▁parties	-4576
▁passion	-4577
▁perhaps	-4578
▁persons	-4579
▁picasso	-4580
▁postage	-4581
▁praised	-4582
▁prepare	-4583
▁proceed	-4584
▁provide	-4585
▁putting	-4586
▁railway	-4587
▁rapidly	-4588
▁receive	-4589
▁recover	-4590
▁reflect	-4591
▁require	-4592
▁respond	-4593
▁scenery	-4594
▁seaside	-4595
▁section	-4596
▁seventy	-4597
▁shikoku	-4598
▁shortly	-4599
▁slipped	-4600
▁solving	-4601
▁stadium	-4602
▁stepped	-4603
▁stomach	-4604
▁streets	-4605
▁sundays	-4606
▁thirsty	-4607
▁trained	-4608
▁travels	-4609
▁tuesday	-4610
▁undergo	-4611
▁variety	-4612
▁venture	-4613
▁weekend	-4614
▁welcome	-4615
▁yielded	-4616
▁accepted	-4617
▁actually	-4618
▁addition	-4619
▁adjusted	-4620
▁admitted	-4621
▁airplane	-4622
▁animated	-4623
▁arranged	-4624
▁attitude	-4625
▁bankrupt	-4626
▁borrowed	-4627
▁branches	-4628
▁breaking	-4629
▁brightly	-4630
▁cheerful	-4631
▁citizens	-4632
▁cocktail	-4633
▁contrary	-4634
▁contrast	-4635
▁deprived	-4636
▁directly	-4637
▁discover	-4638
▁dishonor	-4639
▁envelope	-4640
▁extended	-4641
▁football	-4642
▁gathered	-4643
▁gorillas	-4644
▁governor	-4645
▁graceful	-4646
▁hesitate	-4647
▁humanity	-4648
▁ignorant	-4649
▁improved	-4650
▁incident	-4651
▁inclined	-4652
▁intended	-4653
▁interpre	-4654
▁invented	-4655
▁listened	-4656
▁material	-4657
▁movement	-4658
▁notebook	-4659
▁november	-4660
▁obedient	-4661
▁opinions	-4662
▁ordinary	-4663
▁passport	-4664
▁persuade	-4665
▁planning	-4666
▁promised	-4667
▁punished	-4668
▁purposes	-4669
▁recovery	-4670
▁referred	-4671
▁rejected	-4672
▁reliable	-4673
▁relieved	-4674
▁repaired	-4675
▁reported	-4676
▁required	-4677
▁reserved	-4678
▁resulted	-4679
▁screamed	-4680
▁sentence	-4681
▁separate	-4682
▁severely	-4683
▁shinjuku	-4684
▁shoulder	-4685
▁solution	-4686
▁stealing	-4687
▁stopping	-4688
▁stranger	-4689
▁sunshine	-4690
▁thoughts	-4691
▁transfer	-4692
▁upstairs	-4693
▁yokohama	-4694
▁attempted	-4695
▁bookstore	-4696
▁boyfriend	-4697
▁buildings	-4698
▁champions	-4699
▁classroom	-4700
▁companies	-4701
▁computers	-4702
▁confirmed	-4703
▁conscious	-4704
▁criticism	-4705
▁direction	-4706
▁dishonest	-4707
▁dismissed	-4708
▁disrupted	-4709
▁economics	-4710
▁embarrass	-4711
▁employees	-4712
▁extremely	-4713
▁financial	-4714
▁finishing	-4715
▁forgotten	-4716
▁fortunate	-4717
▁furniture	-4718
▁gathering	-4719
▁gentlemen	-4720
▁hospitals	-4721
▁installed	-4722
▁interests	-4723
▁interrupt	-4724
▁magazines	-4725
▁mountains	-4726
▁obstinate	-4727
▁obviously	-4728
▁officials	-4729
▁persisted	-4730
▁practical	-4731
▁preparing	-4732
▁promotion	-4733
▁rebellion	-4734
▁recognize	-4735
▁requested	-4736
▁respected	-4737
▁seriously	-4738
▁traveling	-4739
▁treatment	-4740
▁witnessed	-4741
▁acceptable	-4742
▁activities	-4743
▁admiration	-4744
▁aggressive	-4745
▁apologized	-4746
▁apparently	-4747
▁artificial	-4748
▁automobile	-4749
▁characters	-4750
▁classmates	-4751
▁collecting	-4752
▁connection	-4753
▁democratic	-4754
▁determined	-4755
▁discipline	-4756
▁displeased	-4757
▁elementary	-4758
▁especially	-4759
▁expression	-4760
▁forgetting	-4761
▁foundation	-4762
▁girlfriend	-4763
▁impressive	-4764
▁introduced	-4765
▁investment	-4766
▁kilometers	-4767
▁management	-4768
▁opposition	-4769
▁overlooked	-4770
▁peacefully	-4771
▁permission	-4772
▁photograph	-4773
▁popularity	-4774
▁profession	-4775
▁retirement	-4776
▁sandwiches	-4777
▁sufficient	-4778
▁suggestion	-4779
▁temptation	-4780
▁thoroughly	-4781
▁alternative	-4782
▁authorities	-4783
▁disappeared	-4784
▁earthquakes	-4785
▁established	-4786
▁experienced	-4787
▁improvement	-4788
▁independent	-4789
▁investigate	-4790
▁possibility	-4791
▁translation	-4792
▁arrangements	-4793
▁considerable	-4794
▁dictionaries	-4795
▁handkerchief	-4796
▁preparations	-4797
▁reservations	-4798
▁distinguished	-4799
▁international	-4800
▁investigation	-4801
▁understanding	-4802
▁unfortunately	-4803
▁characteristic	-4804
cd	-4805
eg	-4806
ko	-4807
ks	-4808
acy	-4809
agn	-4810
ara	-4811
ems	-4812
ern	-4813
ewr	-4814
igs	-4815
lig	-4816
ney	-4817
oze	-4818
rom	-4819
ugg	-4820
uka	-4821
ups	-4822
▁ou	-4823
▁pi	-4824
▁vo	-4825
agoy	-4826
aido	-4827
aint	-4828
aked	-4829
aker	-4830
ateg	-4831
aven	-4832
azil	-4833
bies	-4834
coat	-4835
door	-4836
eals	-4837
easy	-4838
eath	-4839
egal	-4840
ereo	-4841
hess	-4842
hoku	-4843
iant	-4844
icip	-4845
icts	-4846
ifts	-4847
ique	-4848
isco	-4849
lace	-4850
laze	-4851
line	-4852
mate	-4853
nics	-4854
ocks	-4855
oked	-4856
onds	-4857
opic	-4858
orns	-4859
oven	-4860
phan	-4861
roll	-4862
sych	-4863
ties	-4864
uals	-4865
uous	-4866
vant	-4867
wise	-4868
xury	-4869
ygen	-4870
▁apr	-4871
▁ard	-4872
▁bug	-4873
▁bum	-4874
▁emm	-4875
▁enc	-4876
▁fee	-4877
▁fle	-4878
▁idl	-4879
▁lab	-4880
▁log	-4881
▁lun	-4882
▁mod	-4883
▁odd	-4884
▁pal	-4885
▁pan	-4886
▁pus	-4887
▁rub	-4888
▁scr	-4889
▁tag	-4890
▁unb	-4891
▁vol	-4892
▁wes	-4893
▁zoo	-4894
0,000	-4895
ables	-4896
agoya	-4897
akesp	-4898
alley	-4899
boy	-4900
jud	-4901
ulf	-4902
urt	-4903
alse	-4904
anqu	-4905
crib	-4906
dled	-4907
eare	-4908
fall	-4909
hern	-4910
oops	-4911
orer	-4912
quit	-4913
rily	-4914
tles	-4915
▁ast	-4916
▁cds	-4917
▁cha	-4918
▁fuk	-4919
▁hig	-4920
▁hok	-4921
▁ich	-4922
▁jul	-4923
▁jun	-4924
▁kim	-4925
▁kum	-4926
▁rib	-4927
▁shy	-4928
▁sop	-4929
▁tos	-4930
▁vot	-4931
andal	-4932
annel	-4933
apted	-4934
arant	-4935
ardon	-4936
argic	-4937
ashes	-4938
atell	-4939
atoes	-4940
ators	-4941
aving	-4942
chant	-4943
ciled	-4944
comer	-4945
endar	-4946
eness	-4947
enged	-4948
enior	-4949
essie	-4950
etary	-4951
fects	-4952
feree	-4953
hroom	-4954
iance	-4955
icist	-4956
icted	-4957
icule	-4958
idden	-4959
inton	-4960
iques	-4961
irose	-4962
itled	-4963
itors	-4964
itute	-4965
ivery	-4966
lands	-4967
lause	-4968
lines	-4969
mbled	-4970
mbles	-4971
nific	-4972
odity	-4973
oiced	-4974
oited	-4975
onven	-4976
orary	-4977
orers	-4978
orous	-4979
osite	-4980
osity	-4981
ously	-4982
pects	-4983
ribly	-4984
rical	-4985
riger	-4986
rover	-4987
tured	-4988
uated	-4989
uckle	-4990
uggle	-4991
undry	-4992
uries	-4993
vable	-4994
vator	-4995
while	-4996
works	-4997
▁adjo	-4998
▁aged	-4999
.0	-5000
awn	-5001
eds	-5002
idy	-5003
pal	-5004
sen	-5005
ura	-5006
▁uf	-5007
adem	-5008
erer	-5009
etch	-5010
illy	-5011
inch	-5012
inct	-5013
lant	-5014
tter	-5015
uros	-5016
▁doz	-5017
▁edo	-5018
▁ham	-5019
▁led	-5020
▁oly	-5021
▁pit	-5022
▁pos	-5023
▁rad	-5024
▁rom	-5025
▁rot	-5026
▁san	-5027
▁ted	-5028
▁ufo	-5029
▁unn	-5030
▁unw	-5031
ander	-5032
ossom	-5033
sters	-5034
uriko	-5035
verge	-5036
▁alib	-5037
▁alto	-5038
▁anth	-5039
▁bags	-5040
▁barn	-5041
▁bask	-5042
▁bing	-5043
▁bolt	-5044
▁bomb	-5045
▁bone	-5046
▁bong	-5047
▁bord	-5048
▁bran	-5049
▁budd	-5050
▁busk	-5051
▁cats	-5052
▁chem	-5053
▁chol	-5054
▁comb	-5055
▁cups	-5056
▁cute	-5057
▁dear	-5058
▁dece	-5059
▁defe	-5060
▁deri	-5061
▁dess	-5062
▁diam	-5063
▁dict	-5064
▁dies	-5065
▁disl	-5066
▁drag	-5067
▁dram	-5068
▁drug	-5069
▁duck	-5070
▁dues	-5071
▁elig	-5072
▁elim	-5073
▁evil	-5074
▁fits	-5075
▁glow	-5076
▁grim	-5077
▁guit	-5078
▁hate	-5079
▁hide	-5080
▁hokk	-5081
▁holm	-5082
▁hong	-5083
▁huge	-5084
▁hump	-5085
▁idly	-5086
▁inqu	-5087
▁jiro	-5088
▁jobs	-5089
▁kite	-5090
▁knob	-5091
▁kong	-5092
▁lawn	-5093
▁leop	-5094
▁lest	-5095
▁loan	-5096
▁lots	-5097
▁lucy	-5098
▁mall	-5099
na	-5100
tc	-5101
yn	-5102
ato	-5103
ims	-5104
kle	-5105
oat	-5106
ole	-5107
omy	-5108
aign	-5109
anna	-5110
cake	-5111
ette	-5112
isky	-5113
rets	-5114
sure	-5115
▁dim	-5116
▁etc	-5117
▁gap	-5118
▁hal	-5119
▁haz	-5120
▁lyn	-5121
▁mel	-5122
▁mim	-5123
▁rej	-5124
ental	-5125
esday	-5126
iting	-5127
odate	-5128
verty	-5129
▁accl	-5130
▁bees	-5131
▁buys	-5132
▁ford	-5133
▁fulf	-5134
▁lets	-5135
▁lied	-5136
▁mats	-5137
▁mess	-5138
▁mole	-5139
▁mort	-5140
▁nara	-5141
▁nons	-5142
▁nour	-5143
▁pant	-5144
▁pill	-5145
▁pins	-5146
▁port	-5147
▁purs	-5148
▁quiz	-5149
▁raft	-5150
▁rage	-5151
▁rand	-5152
▁reme	-5153
▁reve	-5154
▁rode	-5155
▁rung	-5156
▁rush	-5157
▁russ	-5158
▁sail	-5159
▁sets	-5160
▁shat	-5161
▁sigh	-5162
▁skid	-5163
▁slip	-5164
▁soul	-5165
▁surv	-5166
▁swam	-5167
▁tack	-5168
▁text	-5169
▁ther	-5170
▁thie	-5171
▁tied	-5172
▁torn	-5173
▁toss	-5174
▁trib	-5175
▁trop	-5176
▁unif	-5177
▁unit	-5178
▁wave	-5179
▁weap	-5180
▁wedn	-5181
▁wept	-5182
▁wire	-5183
▁woke	-5184
▁wolf	-5185
▁yell	-5186
00,000	-5187
ademic	-5188
asters	-5189
atical	-5190
atient	-5191
cience	-5192
employ	-5193
ensate	-5194
enteen	-5195
etable	-5196
forced	-5197
gnancy	-5198
hargic	-5199
kn	-5200
ox	-5201
alf	-5202
aro	-5203
asc	-5204
edy	-5205
uki	-5206
▁og	-5207
ites	-5208
itis	-5209
knob	-5210
▁bor	-5211
▁bun	-5212
▁ded	-5213
▁era	-5214
▁heh	-5215
▁ink	-5216
▁jew	-5217
▁joe	-5218
▁lax	-5219
▁lis	-5220
agers	-5221
ining	-5222
ishes	-5223
momet	-5224
onent	-5225
rious	-5226
▁buff	-5227
▁fasc	-5228
▁fuel	-5229
▁laws	-5230
▁nort	-5231
▁pron	-5232
▁sept	-5233
▁tank	-5234
▁tray	-5235
aughty	-5236
hrooms	-5237
icious	-5238
idency	-5239
igence	-5240
illing	-5241
imates	-5242
inking	-5243
itions	-5244
ituted	-5245
iverse	-5246
judice	-5247
nament	-5248
olated	-5249
olving	-5250
orious	-5251
osophy	-5252
oughed	-5253
prints	-5254
riages	-5255
ribute	-5256
romise	-5257
undant	-5258
urable	-5259
urally	-5260
▁abort	-5261
▁acute	-5262
▁admit	-5263
▁adver	-5264
▁alarm	-5265
▁alert	-5266
▁alibi	-5267
▁alike	-5268
▁aloud	-5269
▁ankle	-5270
▁argue	-5271
▁asian	-5272
▁attic	-5273
▁award	-5274
▁awful	-5275
▁backf	-5276
▁baker	-5277
▁banks	-5278
▁basis	-5279
▁beans	-5280
▁beard	-5281
▁betty	-5282
▁bites	-5283
▁blake	-5284
▁blaze	-5285
▁blind	-5286
▁bliss	-5287
▁blows	-5288
▁bonds	-5289
▁brand	-5290
▁brian	-5291
▁brook	-5292
▁buska	-5293
▁cance	-5294
▁chaos	-5295
▁chess	-5296
▁chest	-5297
▁chris	-5298
▁cinch	-5299
ah	-5300
ho	-5301
su	-5302
yl	-5303
bre	-5304
cil	-5305
eer	-5306
ien	-5307
ori	-5308
ota	-5309
rim	-5310
▁iq	-5311
▁oz	-5312
▁ru	-5313
amas	-5314
imum	-5315
onst	-5316
oped	-5317
uled	-5318
▁afl	-5319
▁lap	-5320
▁tra	-5321
aches	-5322
cient	-5323
leted	-5324
▁bump	-5325
▁cave	-5326
▁dorm	-5327
▁nuts	-5328
▁silk	-5329
▁sole	-5330
▁tone	-5331
▁trim	-5332
arship	-5333
culiar	-5334
ledged	-5335
▁abuse	-5336
▁added	-5337
▁bible	-5338
▁blown	-5339
▁comet	-5340
▁comic	-5341
▁conce	-5342
▁conqu	-5343
▁crack	-5344
▁craft	-5345
▁crawl	-5346
▁crept	-5347
▁cycle	-5348
▁dated	-5349
▁dedic	-5350
▁diary	-5351
▁disag	-5352
▁divor	-5353
▁docum	-5354
▁dolls	-5355
▁domin	-5356
▁doors	-5357
▁draft	-5358
▁dread	-5359
▁earns	-5360
▁exert	-5361
▁exhib	-5362
▁faded	-5363
▁false	-5364
▁fatig	-5365
▁feeds	-5366
▁final	-5367
▁fired	-5368
▁flour	-5369
▁flown	-5370
▁foods	-5371
▁forms	-5372
▁franc	-5373
▁freez	-5374
▁froze	-5375
▁fully	-5376
▁gifts	-5377
▁greek	-5378
▁grief	-5379
▁grown	-5380
▁haste	-5381
▁hated	-5382
▁heads	-5383
▁hence	-5384
▁hoped	-5385
▁horns	-5386
▁india	-5387
▁indul	-5388
▁irony	-5389
▁irreg	-5390
▁james	-5391
▁jeans	-5392
▁jimmy	-5393
▁kelly	-5394
▁knees	-5395
▁label	-5396
▁limit	-5397
▁lines	-5398
▁liter	-5399
hen	-5400
▁dealt	-5401
▁logic	-5402
▁merit	-5403
▁merry	-5404
▁mixed	-5405
▁model	-5406
▁moves	-5407
▁noble	-5408
▁noisy	-5409
▁obama	-5410
▁oblig	-5411
▁olymp	-5412
▁opera	-5413
▁orbit	-5414
▁overc	-5415
▁overw	-5416
▁owing	-5417
▁owner	-5418
▁parad	-5419
▁pause	-5420
▁prosp	-5421
▁prove	-5422
▁psych	-5423
▁purch	-5424
▁queen	-5425
▁quote	-5426
▁repet	-5427
▁rings	-5428
▁rival	-5429
▁roman	-5430
▁roses	-5431
▁rough	-5432
▁sadly	-5433
▁salad	-5434
▁scale	-5435
▁schoo	-5436
▁scope	-5437
▁score	-5438
▁scrap	-5439
▁sharp	-5440
▁shine	-5441
▁shout	-5442
▁shudd	-5443
▁silly	-5444
▁skate	-5445
▁skirt	-5446
▁slide	-5447
▁sorts	-5448
▁split	-5449
▁sport	-5450
▁stage	-5451
▁stare	-5452
▁sting	-5453
▁stole	-5454
▁straw	-5455
▁stung	-5456
▁sunny	-5457
▁susan	-5458
▁swear	-5459
▁sweep	-5460
▁swift	-5461
▁takeo	-5462
▁teams	-5463
▁teens	-5464
▁tells	-5465
▁tends	-5466
▁tenth	-5467
▁topic	-5468
▁trail	-5469
▁tries	-5470
▁twist	-5471
▁types	-5472
▁unint	-5473
▁upper	-5474
▁upset	-5475
▁utter	-5476
▁verge	-5477
▁versa	-5478
▁vivid	-5479
▁waist	-5480
▁wanna	-5481
▁wheel	-5482
▁whist	-5483
▁windy	-5484
▁wines	-5485
▁wives	-5486
▁yacht	-5487
alified	-5488
amental	-5489
ception	-5490
clusion	-5491
entions	-5492
entures	-5493
ichever	-5494
irstyle	-5495
itement	-5496
licated	-5497
mometer	-5498
ortunes	-5499
ouraged	-5500
pensive	-5501
plicity	-5502
respond	-5503
roverts	-5504
ructive	-5505
verance	-5506
▁ablaze	-5507
▁adjust	-5508
▁agents	-5509
▁amused	-5510
▁announ	-5511
▁annoys	-5512
▁anyhow	-5513
▁anyway	-5514
▁arched	-5515
▁ardent	-5516
▁assass	-5517
▁attorn	-5518
▁avoids	-5519
▁babies	-5520
▁baking	-5521
▁banana	-5522
▁barber	-5523
▁batter	-5524
▁begged	-5525
▁behalf	-5526
▁betray	-5527
▁blocks	-5528
▁blouse	-5529
▁boasts	-5530
▁boiled	-5531
▁branch	-5532
▁brazil	-5533
▁breast	-5534
▁bucket	-5535
▁cancel	-5536
▁candid	-5537
▁career	-5538
▁cattle	-5539
▁chapel	-5540
▁chosen	-5541
▁collar	-5542
▁colour	-5543
▁comedy	-5544
▁condem	-5545
▁confer	-5546
▁copies	-5547
▁covers	-5548
▁darker	-5549
▁dashed	-5550
▁defend	-5551
▁derive	-5552
▁desert	-5553
▁dining	-5554
▁disarm	-5555
▁divide	-5556
▁diving	-5557
▁drives	-5558
▁earned	-5559
▁edison	-5560
▁ensure	-5561
▁enters	-5562
▁equals	-5563
▁events	-5564
▁exceed	-5565
▁expert	-5566
▁export	-5567
▁famine	-5568
▁flames	-5569
▁forces	-5570
▁formed	-5571
▁former	-5572
▁freely	-5573
▁garage	-5574
▁gently	-5575
▁gladly	-5576
▁gloomy	-5577
▁gotten	-5578
▁guitar	-5579
▁hazard	-5580
▁heated	-5581
▁heaven	-5582
▁hiding	-5583
▁higher	-5584
▁hirose	-5585
▁histor	-5586
▁holmes	-5587
▁hunger	-5588
▁hunted	-5589
▁hunter	-5590
▁ichiro	-5591
▁ignore	-5592
▁intend	-5593
▁joined	-5594
▁juliet	-5595
▁kicked	-5596
▁kumiko	-5597
▁landed	-5598
▁lasted	-5599
▁laughs	-5600
▁leaped	-5601
▁legend	-5602
▁liquid	-5603
▁listed	-5604
▁locker	-5605
▁luxury	-5606
▁marked	-5607
▁member	-5608
▁mended	-5609
▁miller	-5610
▁misery	-5611
▁nagoya	-5612
▁needed	-5613
▁nerves	-5614
▁nether	-5615
▁newton	-5616
▁oppose	-5617
▁orders	-5618
▁origin	-5619
▁orphan	-5620
▁output	-5621
▁oxygen	-5622
▁pardon	-5623
▁parted	-5624
▁perish	-5625
▁permit	-5626
▁placed	-5627
▁pocket	-5628
▁poison	-5629
▁porter	-5630
▁posted	-5631
▁poster	-5632
▁priest	-5633
▁prince	-5634
▁prompt	-5635
▁proved	-5636
▁pupils	-5637
▁purple	-5638
▁raises	-5639
▁random	-5640
▁refers	-5641
▁refuse	-5642
▁remark	-5643
▁repent	-5644
▁reprod	-5645
▁resent	-5646
▁resist	-5647
▁reveal	-5648
▁reward	-5649
▁riding	-5650
▁rivers	-5651
▁robots	-5652
▁rocket	-5653
▁rotten	-5654
▁sadako	-5655
▁satell	-5656
▁savage	-5657
▁scenes	-5658
▁scheme	-5659
▁seated	-5660
▁senior	-5661
▁serves	-5662
▁sewing	-5663
▁sexual	-5664
▁shrank	-5665
▁silver	-5666
▁sketch	-5667
▁skills	-5668
▁snowed	-5669
▁sphere	-5670
▁stared	-5671
▁stereo	-5672
▁stores	-5673
▁stress	-5674
▁subord	-5675
▁suburb	-5676
▁suited	-5677
▁sunset	-5678
▁survey	-5679
▁switch	-5680
▁tasted	-5681
▁tohoku	-5682
▁toyota	-5683
▁tranqu	-5684
▁tribes	-5685
▁triump	-5686
▁troops	-5687
▁trophy	-5688
▁tunnel	-5689
▁turkey	-5690
▁typewr	-5691
▁uncons	-5692
▁undone	-5693
▁uneasy	-5694
▁unlike	-5695
▁upside	-5696
▁valley	-5697
▁valued	-5698
▁voices	-5699
▁warned	-5700
▁washes	-5701
▁weapon	-5702
▁whales	-5703
▁wheels	-5704
▁whisky	-5705
▁widely	-5706
▁writes	-5707
▁yamada	-5708
▁yelled	-5709
▁yields	-5710
▁yuriko	-5711
eresting	-5712
ificance	-5713
inations	-5714
iversary	-5715
nificent	-5716
ribution	-5717
standing	-5718
▁adapted	-5719
▁adhered	-5720
▁amazing	-5721
▁amusing	-5722
▁ancient	-5723
▁anticip	-5724
▁appreci	-5725
▁aspects	-5726
▁assumed	-5727
▁athlete	-5728
▁bargain	-5729
▁battles	-5730
▁becomes	-5731
▁behaved	-5732
▁beneath	-5733
▁benefit	-5734
▁besides	-5735
▁billion	-5736
▁blocked	-5737
▁blossom	-5738
▁blushed	-5739
▁boiling	-5740
▁borders	-5741
▁buckets	-5742
▁burglar	-5743
▁camping	-5744
▁candles	-5745
▁captain	-5746
▁carpets	-5747
▁carries	-5748
▁catches	-5749
▁ceiling	-5750
▁channel	-5751
▁charges	-5752
▁cheaper	-5753
▁cheered	-5754
▁clapped	-5755
▁cleaner	-5756
▁clients	-5757
▁climate	-5758
▁clinton	-5759
▁compare	-5760
▁compass	-5761
▁concent	-5762
▁concern	-5763
▁congrat	-5764
▁contact	-5765
▁cookies	-5766
▁created	-5767
▁crossed	-5768
▁current	-5769
▁dancing	-5770
▁daytime	-5771
▁deceive	-5772
▁demonst	-5773
▁deposit	-5774
▁deprive	-5775
▁deserve	-5776
▁desired	-5777
▁despair	-5778
▁dessert	-5779
▁diamond	-5780
▁differs	-5781
▁digital	-5782
▁discrim	-5783
▁divides	-5784
▁drastic	-5785
▁dreamed	-5786
▁drought	-5787
▁earning	-5788
▁eastern	-5789
▁elbowed	-5790
▁emerged	-5791
▁enterpr	-5792
▁everest	-5793
▁exports	-5794
▁eyesore	-5795
▁fainted	-5796
▁farmers	-5797
▁flashes	-5798
▁fragile	-5799
▁gesture	-5800
▁gorilla	-5801
▁greeted	-5802
▁guarant	-5803
▁hanging	-5804
▁hardest	-5805
▁hearted	-5806
▁heroine	-5807
▁highway	-5808
▁housing	-5809
▁ignored	-5810
▁illegal	-5811
▁imitate	-5812
▁implies	-5813
▁individ	-5814
▁insects	-5815
▁islands	-5816
▁italian	-5817
▁justify	-5818
▁largely	-5819
▁laundry	-5820
▁leather	-5821
▁located	-5822
▁lookout	-5823
▁manners	-5824
▁message	-5825
▁methods	-5826
▁missing	-5827
▁monster	-5828
▁mosquit	-5829
▁muscles	-5830
▁musical	-5831
▁naughty	-5832
▁needles	-5833
▁nursing	-5834
▁offered	-5835
▁omitted	-5836
▁outdoor	-5837
▁outlook	-5838
▁partner	-5839
▁pencils	-5840
▁pension	-5841
▁physics	-5842
▁picnics	-5843
▁pointed	-5844
▁postman	-5845
▁poverty	-5846
▁prefect	-5847
▁prevail	-5848
▁pricked	-5849
▁produce	-5850
▁radical	-5851
▁readers	-5852
▁readily	-5853
▁reality	-5854
▁reduced	-5855
▁referee	-5856
▁refined	-5857
▁refugee	-5858
▁regards	-5859
▁repairs	-5860
▁replied	-5861
▁reports	-5862
▁resumed	-5863
▁retired	-5864
▁revised	-5865
▁roaring	-5866
▁rumored	-5867
▁russian	-5868
▁sailing	-5869
▁scandal	-5870
▁shakesp	-5871
▁sharply	-5872
▁shocked	-5873
▁shorter	-5874
▁shuttle	-5875
▁signals	-5876
▁snowing	-5877
▁stretch	-5878
▁surface	-5879
▁surgeon	-5880
▁suspect	-5881
▁swelled	-5882
▁tallest	-5883
▁teacups	-5884
▁thanked	-5885
▁thieves	-5886
▁touched	-5887
▁touches	-5888
▁transpl	-5889
▁violent	-5890
▁visitor	-5891
▁watches	-5892
▁wealthy	-5893
▁western	-5894
▁wonders	-5895
▁yoshida	-5896
▁abundant	-5897
▁academic	-5898
▁accurate	-5899
▁actuated	-5900
▁addicted	-5901
▁advanced	-5902
▁affirmed	-5903
▁allotted	-5904
▁antiques	-5905
▁appealed	-5906
▁applause	-5907
▁approval	-5908
▁articles	-5909
▁assigned	-5910
▁athletes	-5911
▁attached	-5912
▁attempts	-5913
▁benefits	-5914
▁betrayed	-5915
▁breathed	-5916
▁brothers	-5917
▁burnable	-5918
▁bursting	-5919
▁calendar	-5920
▁campaign	-5921
▁canceled	-5922
▁carriage	-5923
▁catching	-5924
▁childish	-5925
▁choosing	-5926
▁cleaning	-5927
▁colorful	-5928
▁columbus	-5929
▁commands	-5930
▁commerce	-5931
▁composer	-5932
▁concerts	-5933
▁continue	-5934
▁counting	-5935
▁customer	-5936
▁deceived	-5937
▁definite	-5938
▁delicate	-5939
▁delivery	-5940
▁deserted	-5941
▁designed	-5942
▁destined	-5943
▁develops	-5944
▁dictator	-5945
▁director	-5946
▁disguise	-5947
▁division	-5948
▁doorknob	-5949
▁doubtful	-5950
▁dropping	-5951
▁educated	-5952
▁elevator	-5953
▁eligible	-5954
▁emphasis	-5955
▁employed	-5956
▁employee	-5957
▁engineer	-5958
▁enjoying	-5959
▁entitled	-5960
▁examined	-5961
▁examples	-5962
▁exciting	-5963
▁expanded	-5964
▁explored	-5965
▁fashions	-5966
▁fighting	-5967
▁generous	-5968
▁graduate	-5969
▁hakodate	-5970
▁handsome	-5971
▁hokkaido	-5972
▁hopeless	-5973
▁hostages	-5974
▁identify	-5975
▁identity	-5976
▁idleness	-5977
▁incompet	-5978
▁inconven	-5979
▁increase	-5980
▁indicate	-5981
▁inspired	-5982
▁internal	-5983
▁involved	-5984
▁isolated	-5985
▁laborers	-5986
▁machines	-5987
▁measures	-5988
▁memories	-5989
▁merchant	-5990
▁misunder	-5991
▁moderate	-5992
▁monetary	-5993
▁moreover	-5994
▁mornings	-5995
▁murderer	-5996
▁murmured	-5997
▁musician	-5998
▁narrowly	-5999
▁needless	-6000
▁newcomer	-6001
▁nonsense	-6002
▁northern	-6003
▁obtained	-6004
▁occurred	-6005
▁opponent	-6006
▁opposite	-6007
▁overwork	-6008
▁particip	-6009
▁peaceful	-6010
▁peculiar	-6011
▁polished	-6012
▁politely	-6013
▁polluted	-6014
▁postpone	-6015
▁precious	-6016
▁predicts	-6017
▁presents	-6018
▁preserve	-6019
▁pressure	-6020
▁previous	-6021
▁prisoner	-6022
▁produced	-6023
▁profound	-6024
▁progress	-6025
▁railroad	-6026
▁rational	-6027
▁realized	-6028
▁refriger	-6029
▁regarded	-6030
▁rejoiced	-6031
▁relation	-6032
▁religion	-6033
▁reminded	-6034
▁requires	-6035
▁restored	-6036
▁restrict	-6037
▁ridicule	-6038
▁roommate	-6039
▁selected	-6040
▁shipment	-6041
▁sickness	-6042
▁software	-6043
▁sometime	-6044
▁spending	-6045
▁sprained	-6046
▁standard	-6047
▁strength	-6048
▁stronger	-6049
▁struggle	-6050
▁supplies	-6051
▁sympathy	-6052
▁teachers	-6053
▁telegram	-6054
▁tendency	-6055
▁terribly	-6056
▁textbook	-6057
▁theories	-6058
▁thirteen	-6059
▁threaten	-6060
▁throwing	-6061
▁traveled	-6062
▁traveler	-6063
▁treasure	-6064
▁tropical	-6065
▁troubled	-6066
▁unemploy	-6067
▁vanished	-6068
▁visitors	-6069
▁weekends	-6070
▁accepting	-6071
▁acclaimed	-6072
▁addressed	-6073
▁affection	-6074
▁agreement	-6075
▁arguments	-6076
▁assistant	-6077
▁attentive	-6078
▁beginners	-6079
▁birthrate	-6080
▁certainly	-6081
▁chemistry	-6082
▁cigarette	-6083
▁commanded	-6084
▁commodity	-6085
▁complains	-6086
▁completed	-6087
▁confessed	-6088
▁consented	-6089
▁consulted	-6090
▁contented	-6091
▁cooperate	-6092
▁curiosity	-6093
▁decorated	-6094
▁delighted	-6095
▁desperate	-6096
▁directory	-6097
▁documents	-6098
▁effective	-6099
▁elections	-6100
▁eliminate	-6101
▁emphasize	-6102
▁employing	-6103
▁engineers	-6104
▁exercises	-6105
▁existence	-6106
▁exploited	-6107
▁expressed	-6108
▁factories	-6109
▁fireworks	-6110
▁forbidden	-6111
▁francisco	-6112
▁gangsters	-6113
▁geography	-6114
▁gradually	-6115
▁hairstyle	-6116
▁happening	-6117
▁hypocrisy	-6118
▁ignorance	-6119
▁impatient	-6120
▁including	-6121
▁increased	-6122
▁increases	-6123
▁indicated	-6124
▁indicates	-6125
▁innocence	-6126
▁insurance	-6127
▁intention	-6128
▁interpret	-6129
▁interview	-6130
▁irregular	-6131
▁lethargic	-6132
▁lightning	-6133
▁lunchtime	-6134
▁materials	-6135
▁mentioned	-6136
▁mushrooms	-6137
▁musicians	-6138
▁mysteries	-6139
▁naturally	-6140
▁necessity	-6141
▁operation	-6142
▁otherwise	-6143
▁perceived	-6144
▁perfectly	-6145
▁permitted	-6146
▁positions	-6147
▁potential	-6148
▁pregnancy	-6149
▁prejudice	-6150
▁pretended	-6151
▁principal	-6152
▁principle	-6153
▁processor	-6154
▁reception	-6155
▁recovered	-6156
▁reflected	-6157
▁religious	-6158
▁remembers	-6159
▁resembles	-6160
▁responded	-6161
▁revolving	-6162
▁scheduled	-6163
▁sensitive	-6164
▁sentences	-6165
▁september	-6166
▁seventeen	-6167
▁shattered	-6168
▁shuddered	-6169
▁signature	-6170
▁statesman	-6171
▁suspected	-6172
▁suspended	-6173
▁temporary	-6174
▁therefore	-6175
▁timetable	-6176
▁tradition	-6177
▁transform	-6178
▁uncertain	-6179
▁undertake	-6180
▁unwilling	-6181
▁wednesday	-6182
▁whichever	-6183
▁whistling	-6184
▁wrestling	-6185
▁accomplish	-6186
▁adventures	-6187
▁afterwards	-6188
▁altogether	-6189
▁appearance	-6190
▁applicants	-6191
▁approached	-6192
▁assignment	-6193
▁attendance	-6194
▁businesses	-6195
▁challenged	-6196
▁colleagues	-6197
▁collection	-6198
▁compensate	-6199
▁compromise	-6200
▁conclusion	-6201
▁conditions	-6202
▁conscience	-6203
▁continuous	-6204
▁correspond	-6205
▁criticized	-6206
▁department	-6207
▁developing	-6208
▁directions	-6209
▁electrical	-6210
▁excitement	-6211
▁experiment	-6212
▁frequently	-6213
▁literature	-6214
▁mysterious	-6215
▁personally	-6216
▁persuading	-6217
▁philosophy	-6218
▁prediction	-6219
▁presidency	-6220
▁principles	-6221
▁prohibited	-6222
▁protesting	-6223
▁reasonable	-6224
▁recognized	-6225
▁reconciled	-6226
▁registered	-6227
▁repetition	-6228
▁reputation	-6229
▁sentiments	-6230
▁simplicity	-6231
▁specialize	-6232
▁stimulated	-6233
▁succeeding	-6234
▁surrounded	-6235
▁suspicious	-6236
▁threatened	-6237
▁tournament	-6238
▁understood	-6239
▁worthwhile	-6240
▁accommodate	-6241
▁achievement	-6242
▁anniversary	-6243
▁approaching	-6244
▁arrangement	-6245
▁comparative	-6246
▁complaining	-6247
▁complicated	-6248
▁considerate	-6249
▁constructed	-6250
▁contributed	-6251
▁convenience	-6252
▁corporation	-6253
▁countryside	-6254
▁disarmament	-6255
▁disposition	-6256
▁distributed	-6257
▁electricity	-6258
▁embarrassed	-6259
▁expectation	-6260
▁fortunately	-6261
▁fundamental	-6262
▁grammatical	-6263
▁inexpensive	-6264
▁instructive	-6265
▁interpreted	-6266
▁investments	-6267
▁magnificent	-6268
▁misfortunes	-6269
▁motorcycles	-6270
▁necessarily	-6271
▁negotiating	-6272
▁netherlands	-6273
▁occupations	-6274
▁personality	-6275
▁punctuality	-6276
▁reluctantly	-6277
▁scholarship	-6278
▁selfishness	-6279
▁shakespeare	-6280
▁subordinate	-6281
▁supermarket	-6282
▁temperament	-6283
▁thermometer	-6284
▁transaction	-6285
▁unconscious	-6286
▁acknowledged	-6287
▁astonishment	-6288
▁championship	-6289
▁civilization	-6290
▁considerably	-6291
▁construction	-6292
▁demonstrated	-6293
▁enthusiastic	-6294
▁indifference	-6295
▁manufactures	-6296
▁newspaperman	-6297
▁perseverance	-6298
▁significance	-6299
▁congratulated	-6300
▁environmental	-6301
▁inconvenience	-6302
▁opportunities	-6303
▁relationships	-6304
▁uninteresting	-6305
▁discrimination	-6306
▁recommendation	-6307
coa	-6308
ezz	-6309
ika	-6310
iku	-6311
uzz	-6312
.0.0	-6313
ahol	-6314
ammy	-6315
anny	-6316
atsu	-6317
bels	-6318
brev	-6319
cdon	-6320
chet	-6321
cycl	-6322
gypt	-6323
hyth	-6324
ikid	-6325
meat	-6326
nium	-6327
ouls	-6328
rano	-6329
regl	-6330
robe	-6331
roph	-6332
rots	-6333
sett	-6334
sume	-6335
supp	-6336
then	-6337
tori	-6338
umsy	-6339
urai	-6340
viol	-6341
what	-6342
yika	-6343
ylum	-6344
zuki	-6345
zzed	-6346
▁aug	-6347
▁bik	-6348
▁biw	-6349
▁hyg	-6350
▁hym	-6351
▁mai	-6352
▁nyl	-6353
▁oxf	-6354
▁veh	-6355
▁vex	-6356
▁zin	-6357
.0.0.	-6358
abuki	-6359
akura	-6360
anael	-6361
ascul	-6362
asium	-6363
belie	-6364
break	-6365
brevi	-6366
cdona	-6367
chiko	-6368
chron	-6369
cribe	-6370
eases	-6371
ebted	-6372
eches	-6373
edged	-6374
ettle	-6375
hythm	-6376
ickey	-6377
ikido	-6378
iracy	-6379
irror	-6380
izuko	-6381
naire	-6382
ocrat	-6383
raphs	-6384
rocer	-6385
ropri	-6386
secut	-6387
shake	-6388
udges	-6389
uffed	-6390
uzzle	-6391
wives	-6392
▁....	-6393
▁bapt	-6394
▁biwa	-6395
▁bowl	-6396
▁coop	-6397
▁daim	-6398
▁defa	-6399
▁ze	-6400
bike	-6401
brid	-6402
empt	-6403
scap	-6404
sule	-6405
avier	-6406
chery	-6407
educe	-6408
ierce	-6409
lming	-6410
oxide	-6411
▁auto	-6412
▁bike	-6413
▁curb	-6414
▁curt	-6415
▁doub	-6416
▁dumb	-6417
▁emma	-6418
▁erad	-6419
▁eyeb	-6420
▁furs	-6421
▁fury	-6422
▁goro	-6423
▁grah	-6424
▁gunf	-6425
▁hawk	-6426
▁hens	-6427
▁hiro	-6428
▁hobb	-6429
▁janu	-6430
▁jean	-6431
▁jeep	-6432
▁jigs	-6433
▁judg	-6434
▁jumb	-6435
▁kidd	-6436
▁lips	-6437
▁lisa	-6438
▁lynd	-6439
▁mamm	-6440
▁miso	-6441
▁mosc	-6442
▁noah	-6443
▁odds	-6444
▁ogas	-6445
▁owed	-6446
▁palp	-6447
▁priv	-6448
▁pump	-6449
▁rebu	-6450
▁ribs	-6451
▁rubb	-6452
▁saza	-6453
▁slee	-6454
▁soph	-6455
▁tale	-6456
▁tidy	-6457
▁tort	-6458
▁trem	-6459
▁turk	-6460
▁urch	-6461
▁vote	-6462
▁wisd	-6463
▁zeal	-6464
▁zest	-6465
▁zone	-6466
addled	-6467
advant	-6468
archer	-6469
atitis	-6470
austed	-6471
bridge	-6472
celled	-6473
cemeat	-6474
ckoned	-6475
eering	-6476
entaro	-6477
erella	-6478
ernity	-6479
ezzled	-6480
gament	-6481
gitive	-6482
gotist	-6483
hedral	-6484
iative	-6485
ibregl	-6486
ichest	-6487
icians	-6488
icitis	-6489
ienist	-6490
incing	-6491
ispens	-6492
ithful	-6493
ituals	-6494
lantic	-6495
locked	-6496
monize	-6497
nchron	-6498
normal	-6499
egr	-6500
eys	-6501
grav	-6502
rael	-6503
▁abys	-6504
▁anne	-6505
▁benz	-6506
▁curl	-6507
▁keys	-6508
▁omit	-6509
▁toys	-6510
atural	-6511
egrity	-6512
ground	-6513
olding	-6514
olling	-6515
omfort	-6516
onesia	-6517
ooming	-6518
opedia	-6519
orsche	-6520
otives	-6521
otland	-6522
oubted	-6523
ovenly	-6524
phants	-6525
player	-6526
racted	-6527
rative	-6528
rauded	-6529
reedom	-6530
riment	-6531
rolled	-6532
ronics	-6533
ronted	-6534
rophys	-6535
ructed	-6536
rudges	-6537
scapes	-6538
scribe	-6539
supply	-6540
ternal	-6541
titude	-6542
uddles	-6543
unette	-6544
urosis	-6545
ysters	-6546
▁.....	-6547
▁abyss	-6548
▁akiko	-6549
▁aloof	-6550
▁angel	-6551
▁apron	-6552
▁arend	-6553
▁basin	-6554
▁bathe	-6555
▁belly	-6556
▁beset	-6557
▁bikin	-6558
▁buddh	-6559
▁bumpk	-6560
▁burnt	-6561
▁calif	-6562
▁camer	-6563
▁camps	-6564
▁cathy	-6565
▁cease	-6566
▁clues	-6567
▁creep	-6568
▁curfe	-6569
▁cyber	-6570
▁decks	-6571
▁derby	-6572
▁dereg	-6573
▁disgr	-6574
▁ditch	-6575
▁dozed	-6576
▁drawn	-6577
▁earli	-6578
▁eaves	-6579
▁edged	-6580
▁eggpl	-6581
▁emiss	-6582
▁emmet	-6583
▁enrap	-6584
▁enric	-6585
▁erase	-6586
▁essay	-6587
▁estim	-6588
▁facil	-6589
▁faint	-6590
▁fifth	-6591
▁filed	-6592
▁flags	-6593
▁float	-6594
▁flung	-6595
▁fouls	-6596
▁fukud	-6597
▁glows	-6598
▁grows	-6599
conv	-6600
cony	-6601
ysis	-6602
acial	-6603
arial	-6604
atisf	-6605
ovels	-6606
place	-6607
▁1000	-6608
▁argu	-6609
▁cape	-6610
▁dime	-6611
▁fauc	-6612
▁gunp	-6613
▁lynn	-6614
▁nude	-6615
▁rend	-6616
▁vacu	-6617
alysis	-6618
aneous	-6619
azzled	-6620
ercing	-6621
ifully	-6622
ockets	-6623
satisf	-6624
ultane	-6625
▁crown	-6626
▁displ	-6627
▁fleet	-6628
▁hills	-6629
▁homes	-6630
▁hooky	-6631
▁immor	-6632
▁infam	-6633
▁input	-6634
▁items	-6635
▁jewel	-6636
▁jumbo	-6637
▁kuros	-6638
▁libel	-6639
▁maids	-6640
▁mamas	-6641
▁melts	-6642
▁meyer	-6643
▁midst	-6644
▁mortg	-6645
▁motiv	-6646
▁nobel	-6647
▁nomin	-6648
▁nonet	-6649
▁ogata	-6650
▁onsen	-6651
▁osame	-6652
▁outer	-6653
▁ozaki	-6654
▁pairs	-6655
▁pants	-6656
▁patio	-6657
▁paula	-6658
▁pears	-6659
▁petro	-6660
▁picks	-6661
▁pitch	-6662
▁poems	-6663
▁proof	-6664
▁pulls	-6665
▁pushy	-6666
▁query	-6667
▁realm	-6668
▁rises	-6669
▁roger	-6670
▁roots	-6671
▁safar	-6672
▁sazae	-6673
▁scarf	-6674
▁seeds	-6675
▁settl	-6676
▁shops	-6677
▁socks	-6678
▁spont	-6679
▁spoon	-6680
▁stems	-6681
▁steve	-6682
▁sweat	-6683
▁tacky	-6684
▁tanks	-6685
▁tires	-6686
▁toolk	-6687
▁tools	-6688
▁toson	-6689
▁tremb	-6690
▁trunk	-6691
▁tuned	-6692
▁typed	-6693
▁typho	-6694
▁unbal	-6695
▁unfav	-6696
▁unreg	-6697
▁veget	-6698
▁vehic	-6699
nia	-6700
anji	-6701
bits	-6702
iale	-6703
abbed	-6704
adash	-6705
ashim	-6706
backs	-6707
etual	-6708
hesia	-6709
omnia	-6710
▁dash	-6711
▁davy	-6712
▁hats	-6713
▁hits	-6714
▁melt	-6715
▁parr	-6716
▁rash	-6717
▁taka	-6718
abbits	-6719
adashi	-6720
arched	-6721
ashimi	-6722
atures	-6723
etched	-6724
ialect	-6725
petual	-6726
▁boxes	-6727
▁cooks	-6728
▁farew	-6729
▁guilt	-6730
▁humor	-6731
▁kanji	-6732
▁lined	-6733
▁maria	-6734
▁media	-6735
▁panic	-6736
▁parag	-6737
▁paral	-6738
▁takar	-6739
▁tatsu	-6740
▁trash	-6741
▁vexes	-6742
▁views	-6743
▁weeds	-6744
▁wides	-6745
▁wield	-6746
▁wiser	-6747
▁yards	-6748
alistic	-6749
amakura	-6750
archers	-6751
ardrobe	-6752
ategies	-6753
cdonald	-6754
cedures	-6755
changed	-6756
chanted	-6757
cluster	-6758
culates	-6759
eedless	-6760
endants	-6761
entific	-6762
entured	-6763
estrain	-6764
etrated	-6765
genious	-6766
hausted	-6767
ialects	-6768
igrated	-6769
inctive	-6770
initive	-6771
iolable	-6772
itorium	-6773
lection	-6774
leeding	-6775
llously	-6776
missive	-6777
mitting	-6778
neyland	-6779
noticed	-6780
olution	-6781
racting	-6782
raelite	-6783
ralised	-6784
respass	-6785
ributes	-6786
ripture	-6787
roached	-6788
roaches	-6789
ruption	-6790
sembled	-6791
upulous	-6792
urching	-6793
uscript	-6794
ushions	-6795
violent	-6796
working	-6797
▁absorb	-6798
▁aching	-6799
voc	-6800
corn	-6801
oors	-6802
rual	-6803
rugg	-6804
▁jaw	-6805
▁paw	-6806
ecess	-6807
ivors	-6808
ocate	-6809
▁groc	-6810
▁lawy	-6811
actics	-6812
awater	-6813
ferred	-6814
istics	-6815
rugged	-6816
strual	-6817
▁accru	-6818
▁assim	-6819
▁batht	-6820
▁clung	-6821
▁desks	-6822
▁flows	-6823
▁havoc	-6824
▁kenji	-6825
▁medal	-6826
▁milit	-6827
▁milky	-6828
▁postc	-6829
▁risks	-6830
▁skies	-6831
▁teddy	-6832
▁vatic	-6833
imented	-6834
▁adjoin	-6835
▁adored	-6836
▁adores	-6837
▁afloat	-6838
▁aggrav	-6839
▁albums	-6840
▁anthon	-6841
▁arendt	-6842
▁astron	-6843
▁august	-6844
▁austri	-6845
▁barred	-6846
▁basket	-6847
▁births	-6848
▁blanks	-6849
▁bombed	-6850
▁boomed	-6851
▁border	-6852
▁bowing	-6853
▁boxing	-6854
▁briefc	-6855
▁brutes	-6856
▁budded	-6857
▁buffal	-6858
▁buffet	-6859
▁bummer	-6860
▁bumped	-6861
▁bundle	-6862
▁buzzed	-6863
▁campus	-6864
▁carbon	-6865
▁casing	-6866
▁ceased	-6867
▁choles	-6868
▁chores	-6869
▁cocked	-6870
▁column	-6871
▁cooked	-6872
▁cooler	-6873
▁costly	-6874
▁coupon	-6875
▁create	-6876
▁creeps	-6877
▁crowds	-6878
▁cultiv	-6879
▁curfew	-6880
▁dances	-6881
▁dander	-6882
▁deadly	-6883
▁deaths	-6884
▁debate	-6885
▁deceit	-6886
▁defeat	-6887
▁defens	-6888
▁degree	-6889
▁delays	-6890
▁detach	-6891
▁devast	-6892
▁dialed	-6893
▁dialog	-6894
▁diesel	-6895
▁dipped	-6896
▁dislik	-6897
▁dispel	-6898
▁dormit	-6899
▁cyl	-6900
amper	-6901
eased	-6902
inned	-6903
olize	-6904
ornia	-6905
ropol	-6906
▁damp	-6907
▁drew	-6908
▁genu	-6909
▁lamp	-6910
▁patr	-6911
▁samp	-6912
▁tamp	-6913
▁triv	-6914
ampled	-6915
icably	-6916
▁armed	-6917
▁bache	-6918
▁condu	-6919
▁dimin	-6920
▁drugs	-6921
▁honol	-6922
▁mains	-6923
▁seize	-6924
▁swims	-6925
▁terry	-6926
nically	-6927
opolize	-6928
renched	-6929
ropolit	-6930
▁aflame	-6931
▁bachel	-6932
▁chains	-6933
▁choked	-6934
▁client	-6935
▁condol	-6936
▁cylind	-6937
▁dozens	-6938
▁dragon	-6939
▁easier	-6940
▁eighte	-6941
▁eighty	-6942
▁elbows	-6943
▁embass	-6944
▁enroll	-6945
▁envied	-6946
▁eradic	-6947
▁essays	-6948
▁facial	-6949
▁facing	-6950
▁fascin	-6951
▁faucet	-6952
▁feeble	-6953
▁fields	-6954
▁fishes	-6955
▁flamed	-6956
▁flared	-6957
▁flatly	-6958
▁floods	-6959
▁fluent	-6960
▁fooled	-6961
▁formul	-6962
▁fukuda	-6963
▁garlic	-6964
▁gazing	-6965
▁glared	-6966
▁golfer	-6967
▁groups	-6968
▁gunpow	-6969
▁halted	-6970
▁halves	-6971
▁hamlet	-6972
▁headqu	-6973
▁honors	-6974
▁horror	-6975
▁hosted	-6976
▁iceber	-6977
▁infect	-6978
▁inferi	-6979
▁inquir	-6980
▁insuff	-6981
▁irises	-6982
▁jigsaw	-6983
▁joking	-6984
▁joyful	-6985
▁junior	-6986
▁kabuki	-6987
▁killer	-6988
▁kissed	-6989
▁knight	-6990
▁knives	-6991
▁ladder	-6992
▁lament	-6993
▁liquor	-6994
▁lisbon	-6995
▁litter	-6996
▁locked	-6997
▁loosen	-6998
▁lyndon	-6999
laz	-7000
bery	-7001
blaz	-7002
ella	-7003
elly	-7004
gger	-7005
obal	-7006
orde	-7007
rait	-7008
stra	-7009
▁apo	-7010
▁dup	-7011
▁kaz	-7012
▁max	-7013
cular	-7014
encer	-7015
inata	-7016
ordan	-7017
pread	-7018
▁cord	-7019
▁inso	-7020
▁maps	-7021
▁subt	-7022
▁tons	-7023
berals	-7024
blazer	-7025
onsist	-7026
orates	-7027
ulates	-7028
▁absur	-7029
▁adjac	-7030
▁apert	-7031
▁arriv	-7032
▁coord	-7033
▁incas	-7034
▁insof	-7035
▁jelly	-7036
▁locom	-7037
▁saori	-7038
▁secur	-7039
▁steps	-7040
▁stern	-7041
aptured	-7042
berries	-7043
chestra	-7044
iberals	-7045
▁absurd	-7046
▁admitt	-7047
▁apollo	-7048
▁cruise	-7049
▁cutest	-7050
▁duplic	-7051
▁global	-7052
▁groped	-7053
▁hinata	-7054
▁issued	-7055
▁jordan	-7056
▁kazuko	-7057
▁machin	-7058
▁makeup	-7059
▁manger	-7060
▁matsuk	-7061
▁matsun	-7062
▁mickey	-7063
▁mirror	-7064
▁misako	-7065
▁mistak	-7066
▁moscow	-7067
▁motion	-7068
▁neighb	-7069
▁nessie	-7070
▁nurses	-7071
▁organs	-7072
▁orient	-7073
▁palace	-7074
▁pamper	-7075
▁paraly	-7076
▁parrot	-7077
▁pastry	-7078
▁patrol	-7079
▁philan	-7080
▁phones	-7081
▁pilots	-7082
▁plural	-7083
▁points	-7084
▁potato	-7085
▁preced	-7086
▁pronun	-7087
▁punish	-7088
▁pursue	-7089
▁pushed	-7090
▁pushes	-7091
▁puzzle	-7092
▁racial	-7093
▁rankle	-7094
▁rebels	-7095
▁redist	-7096
▁refund	-7097
▁respon	-7098
▁revolt	-7099
eji	-7100
iji	-7101
oji	-7102
abor	-7103
atab	-7104
▁yog	-7105
lower	-7106
▁bypr	-7107
▁cafe	-7108
▁evap	-7109
▁fert	-7110
▁koji	-7111
▁sato	-7112
▁spec	-7113
▁sumo	-7114
▁wins	-7115
ferent	-7116
flower	-7117
▁akiji	-7118
▁datab	-7119
▁diagn	-7120
▁fails	-7121
▁incap	-7122
▁paink	-7123
▁pains	-7124
▁satan	-7125
▁slopp	-7126
ildered	-7127
ostered	-7128
section	-7129
▁ballet	-7130
▁byprod	-7131
▁clears	-7132
▁closer	-7133
▁distur	-7134
▁forete	-7135
▁himeji	-7136
▁indict	-7137
▁indign	-7138
▁ogasaw	-7139
▁reform	-7140
▁relies	-7141
▁ripped	-7142
▁roared	-7143
▁robert	-7144
▁rocked	-7145
▁rowing	-7146
▁ruined	-7147
▁rushed	-7148
▁safari	-7149
▁salmon	-7150
▁sandra	-7151
▁scared	-7152
▁sexism	-7153
▁signed	-7154
▁sleeps	-7155
▁societ	-7156
▁souven	-7157
▁spared	-7158
▁sprout	-7159
▁sticks	-7160
▁sticky	-7161
▁storms	-7162
▁stormy	-7163
▁subway	-7164
▁superv	-7165
▁suzuki	-7166
▁swayed	-7167
▁swords	-7168
▁tackle	-7169
▁takaok	-7170
▁tender	-7171
▁thinly	-7172
▁thread	-7173
▁tomato	-7174
▁topics	-7175
▁tornad	-7176
▁torped	-7177
▁trades	-7178
▁traits	-7179
▁trials	-7180
▁trunks	-7181
▁trusts	-7182
▁unconv	-7183
▁unfair	-7184
▁unhurt	-7185
▁unique	-7186
▁unsett	-7187
▁vacuum	-7188
▁vanity	-7189
▁vastly	-7190
▁versus	-7191
▁victim	-7192
▁voting	-7193
▁warped	-7194
▁whammy	-7195
▁whites	-7196
▁wholly	-7197
▁wicked	-7198
▁wisdom	-7199
azed	-7200
mail	-7201
rete	-7202
ycle	-7203
▁icy	-7204
▁nav	-7205
▁phr	-7206
althy	-7207
ancou	-7208
athon	-7209
bbing	-7210
lican	-7211
▁kara	-7212
▁koku	-7213
▁kush	-7214
▁nath	-7215
▁pals	-7216
▁slim	-7217
▁slop	-7218
▁surf	-7219
▁zinc	-7220
atured	-7221
heless	-7222
incere	-7223
▁angin	-7224
▁breed	-7225
▁delin	-7226
▁drift	-7227
▁fills	-7228
▁frail	-7229
▁gazed	-7230
▁meals	-7231
▁navig	-7232
▁pickp	-7233
▁slope	-7234
▁teles	-7235
▁towns	-7236
healthy	-7237
itories	-7238
ublican	-7239
wardess	-7240
▁angina	-7241
▁baller	-7242
▁charms	-7243
▁clumsy	-7244
▁hummed	-7245
▁mailed	-7246
▁parent	-7247
▁phrase	-7248
▁series	-7249
▁server	-7250
▁slopes	-7251
▁suppor	-7252
▁telesc	-7253
▁townsf	-7254
▁vancou	-7255
▁wooden	-7256
▁worsen	-7257
▁yachts	-7258
▁yogurt	-7259
andering	-7260
asculine	-7261
cedented	-7262
cendants	-7263
cribable	-7264
ectators	-7265
election	-7266
enditure	-7267
engrocer	-7268
entative	-7269
ercingly	-7270
esthesia	-7271
geration	-7272
hemistry	-7273
itiative	-7274
lessness	-7275
needless	-7276
onograph	-7277
oubtedly	-7278
ricating	-7279
ritories	-7280
untarily	-7281
usements	-7282
wildered	-7283
▁abashed	-7284
▁abbrevi	-7285
▁abusing	-7286
▁accrued	-7287
▁adjoins	-7288
▁adverse	-7289
▁affects	-7290
▁airmail	-7291
▁airsick	-7292
▁allergy	-7293
▁altered	-7294
▁amiable	-7295
▁angelic	-7296
▁angrily	-7297
▁anthony	-7298
▁anthrop	-7299
sub	-7300
anne	-7301
eeze	-7302
▁cub	-7303
▁ebb	-7304
▁loa	-7305
▁lob	-7306
ensus	-7307
iolet	-7308
irled	-7309
subas	-7310
uddle	-7311
unted	-7312
zanne	-7313
▁chew	-7314
▁cubs	-7315
▁dots	-7316
▁eyed	-7317
▁eyel	-7318
▁load	-7319
▁loaf	-7320
▁mars	-7321
▁sank	-7322
asions	-7323
ension	-7324
inical	-7325
ptions	-7326
subasa	-7327
utions	-7328
▁bowls	-7329
▁cared	-7330
▁gunna	-7331
▁holes	-7332
▁lover	-7333
▁marve	-7334
▁opens	-7335
▁thurs	-7336
▁winds	-7337
ections	-7338
holders	-7339
olished	-7340
▁advert	-7341
▁census	-7342
▁drains	-7343
▁eyelid	-7344
▁manual	-7345
▁motors	-7346
▁owners	-7347
▁puddle	-7348
▁struct	-7349
▁violet	-7350
▁waiter	-7351
▁wished	-7352
andished	-7353
itutions	-7354
▁appease	-7355
▁archery	-7356
▁arguing	-7357
▁arrives	-7358
▁artists	-7359
▁assimil	-7360
▁assured	-7361
▁audible	-7362
▁awarded	-7363
▁balcony	-7364
▁barbers	-7365
▁bathtub	-7366
▁bearing	-7367
▁beatles	-7368
▁biggest	-7369
▁blazing	-7370
▁blessed	-7371
▁boasted	-7372
▁bottles	-7373
▁bounced	-7374
▁bravely	-7375
▁breathe	-7376
▁bridges	-7377
▁briefly	-7378
▁british	-7379
▁bumpkin	-7380
▁capable	-7381
▁carpent	-7382
▁carrots	-7383
▁central	-7384
▁cezanne	-7385
▁chapter	-7386
▁charged	-7387
▁charles	-7388
▁chatter	-7389
▁checked	-7390
▁cherish	-7391
▁classes	-7392
▁classic	-7393
▁closely	-7394
▁closing	-7395
▁clouded	-7396
▁clubbed	-7397
▁coffees	-7398
▁coldest	-7399
hab	-7400
ipl	-7401
affe	-7402
cled	-7403
cyon	-7404
ipal	-7405
▁wip	-7406
chair	-7407
fying	-7408
inhab	-7409
iplom	-7410
leans	-7411
water	-7412
xible	-7413
▁begu	-7414
▁cels	-7415
▁cope	-7416
▁encl	-7417
▁glam	-7418
▁hint	-7419
▁secl	-7420
▁whip	-7421
ansion	-7422
atible	-7423
hesion	-7424
iality	-7425
igious	-7426
iploma	-7427
ircled	-7428
nasium	-7429
rossed	-7430
▁candy	-7431
▁chron	-7432
▁coals	-7433
▁concl	-7434
▁discl	-7435
▁finds	-7436
▁glare	-7437
▁laura	-7438
▁wiped	-7439
ategory	-7440
athized	-7441
entious	-7442
hearing	-7443
ivering	-7444
▁blends	-7445
▁chairs	-7446
▁craved	-7447
▁devote	-7448
▁enclos	-7449
▁hollow	-7450
▁marily	-7451
▁nightm	-7452
▁preset	-7453
▁repres	-7454
iousness	-7455
stigious	-7456
structed	-7457
unicipal	-7458
▁celsius	-7459
▁chronic	-7460
▁commute	-7461
▁concept	-7462
▁confirm	-7463
▁conform	-7464
▁consume	-7465
▁consump	-7466
▁corners	-7467
▁council	-7468
▁cracked	-7469
▁crimson	-7470
▁crosser	-7471
▁crushed	-7472
▁cupcake	-7473
▁curious	-7474
▁curtail	-7475
▁damaged	-7476
▁dangers	-7477
▁dealing	-7478
▁debated	-7479
▁decayed	-7480
▁defects	-7481
▁defense	-7482
▁defiant	-7483
▁defined	-7484
▁designs	-7485
▁desires	-7486
▁despite	-7487
▁devices	-7488
▁dioxide	-7489
▁diploma	-7490
▁disgust	-7491
▁dispute	-7492
▁disturb	-7493
▁diverse	-7494
▁divided	-7495
▁divorce	-7496
▁dragons	-7497
▁drained	-7498
▁drawing	-7499
ips	-7500
fumi	-7501
▁diz	-7502
▁foc	-7503
▁fox	-7504
▁miz	-7505
▁mob	-7506
actor	-7507
amoto	-7508
rends	-7509
ulips	-7510
▁ache	-7511
▁bioc	-7512
▁buoy	-7513
▁caut	-7514
▁fuku	-7515
▁moch	-7516
▁mold	-7517
▁solo	-7518
▁troy	-7519
ellant	-7520
ignity	-7521
ocking	-7522
omatic	-7523
▁adopt	-7524
▁beeth	-7525
▁belts	-7526
▁dizzy	-7527
▁eased	-7528
▁famed	-7529
▁focus	-7530
▁fukui	-7531
▁mizut	-7532
▁moist	-7533
▁monit	-7534
▁monot	-7535
▁recur	-7536
▁reign	-7537
▁villa	-7538
herited	-7539
iomatic	-7540
itioner	-7541
▁atopic	-7542
▁bounds	-7543
▁crunch	-7544
▁impact	-7545
▁mizuta	-7546
▁mobile	-7547
▁profit	-7548
▁relied	-7549
▁shined	-7550
▁stakes	-7551
▁summed	-7552
▁trends	-7553
▁tulips	-7554
▁visits	-7555
▁cameram	-7556
▁caution	-7557
▁compact	-7558
▁dignity	-7559
▁drunken	-7560
▁dumbest	-7561
▁durable	-7562
▁edition	-7563
▁embassy	-7564
▁emotion	-7565
▁enables	-7566
▁endowed	-7567
▁enemies	-7568
▁exclude	-7569
▁excuses	-7570
▁explore	-7571
▁eyebrow	-7572
▁faction	-7573
▁factors	-7574
▁failing	-7575
▁fatigue	-7576
▁fibregl	-7577
▁fifties	-7578
▁filling	-7579
▁flapped	-7580
▁footnot	-7581
▁forbear	-7582
▁forests	-7583
▁formula	-7584
▁freedom	-7585
▁freeing	-7586
▁freight	-7587
▁fulfill	-7588
▁funeral	-7589
▁gardens	-7590
▁gathers	-7591
▁genuine	-7592
▁giraffe	-7593
▁grinned	-7594
▁grocery	-7595
▁guessed	-7596
▁haircut	-7597
▁halfway	-7598
▁handled	-7599
ixt	-7600
mbi	-7601
mbr	-7602
roc	-7603
icha	-7604
ifty	-7605
lets	-7606
onde	-7607
proc	-7608
▁paj	-7609
▁tab	-7610
ainty	-7611
mbark	-7612
mbiot	-7613
▁cris	-7614
▁file	-7615
▁fixt	-7616
▁kond	-7617
▁loit	-7618
▁mond	-7619
▁pole	-7620
▁polo	-7621
▁swap	-7622
acific	-7623
ciproc	-7624
embark	-7625
iantly	-7626
ichael	-7627
mbrand	-7628
▁backb	-7629
▁effic	-7630
▁enorm	-7631
▁firew	-7632
▁hasty	-7633
▁impud	-7634
▁impul	-7635
▁kondo	-7636
▁nifty	-7637
▁polic	-7638
▁polis	-7639
▁swine	-7640
▁tense	-7641
▁unbro	-7642
▁wages	-7643
▁waved	-7644
ceptive	-7645
mbiotic	-7646
mbrandt	-7647
umbling	-7648
▁backse	-7649
▁blonde	-7650
▁busied	-7651
▁crisis	-7652
▁dainty	-7653
▁effici	-7654
▁finest	-7655
▁glance	-7656
▁handic	-7657
▁images	-7658
▁talker	-7659
▁unbrok	-7660
▁walker	-7661
vulation	-7662
▁apology	-7663
▁dazzled	-7664
▁fixture	-7665
▁handles	-7666
▁handout	-7667
▁happily	-7668
▁harmony	-7669
▁hatchet	-7670
▁hateful	-7671
▁heading	-7672
▁heaters	-7673
▁hirosey	-7674
▁honolul	-7675
▁hostess	-7676
▁hurting	-7677
▁hurtled	-7678
▁immense	-7679
▁immoral	-7680
▁implant	-7681
▁impulse	-7682
▁indoors	-7683
▁inquiry	-7684
▁insepar	-7685
▁insight	-7686
▁instill	-7687
▁intense	-7688
▁involve	-7689
▁ironing	-7690
▁january	-7691
▁jeweler	-7692
▁joining	-7693
▁joneses	-7694
▁karaoke	-7695
▁kicking	-7696
▁kidding	-7697
▁kindred	-7698
▁knuckle	-7699
uci	-7700
rift	-7701
alogy	-7702
angan	-7703
angar	-7704
cling	-7705
erang	-7706
ucian	-7707
▁earr	-7708
▁flor	-7709
▁judy	-7710
▁prec	-7711
▁sums	-7712
▁waka	-7713
idings	-7714
itable	-7715
▁bless	-7716
▁coats	-7717
▁mealt	-7718
▁wakah	-7719
angaroo	-7720
omerang	-7721
redient	-7722
vitable	-7723
▁abomin	-7724
▁assets	-7725
▁callas	-7726
▁chased	-7727
▁consum	-7728
▁empire	-7729
▁explod	-7730
▁issues	-7731
▁lovers	-7732
▁mature	-7733
▁online	-7734
▁smokes	-7735
▁stable	-7736
▁stated	-7737
▁strain	-7738
▁strove	-7739
▁surren	-7740
▁tangan	-7741
▁teller	-7742
▁thrift	-7743
▁thrust	-7744
evitable	-7745
gredient	-7746
▁agitate	-7747
▁analogy	-7748
▁conside	-7749
▁crawled	-7750
▁cutting	-7751
▁denying	-7752
▁earring	-7753
▁florida	-7754
▁flowing	-7755
▁infract	-7756
▁justice	-7757
▁kushiro	-7758
▁laborat	-7759
▁latecom	-7760
▁leaning	-7761
▁lending	-7762
▁lengths	-7763
▁leopard	-7764
▁lessons	-7765
▁leveler	-7766
▁limited	-7767
▁listens	-7768
▁literal	-7769
▁lobster	-7770
▁locking	-7771
▁lottery	-7772
▁lovable	-7773
▁lunches	-7774
▁madness	-7775
▁majored	-7776
▁mammals	-7777
▁marilyn	-7778
▁marking	-7779
▁masters	-7780
▁matched	-7781
▁maximum	-7782
▁measure	-7783
▁meddled	-7784
▁mileage	-7785
▁mineral	-7786
▁minimum	-7787
▁misfort	-7788
▁mission	-7789
▁mistook	-7790
▁moments	-7791
▁monarch	-7792
▁mondays	-7793
▁monthly	-7794
▁murders	-7795
▁notions	-7796
▁obliged	-7797
▁offense	-7798
▁olympic	-7799
ags	-7800
eue	-7801
ague	-7802
rave	-7803
vary	-7804
▁jag	-7805
aging	-7806
bling	-7807
icide	-7808
imary	-7809
isely	-7810
ravel	-7811
vency	-7812
▁dave	-7813
▁fled	-7814
▁fuse	-7815
▁grac	-7816
▁laun	-7817
aguely	-7818
ishman	-7819
reaved	-7820
rition	-7821
▁brags	-7822
▁bride	-7823
▁crows	-7824
▁fairy	-7825
▁forks	-7826
▁grade	-7827
▁grant	-7828
▁grind	-7829
▁gross	-7830
▁lasts	-7831
▁mixer	-7832
▁monro	-7833
▁perfe	-7834
▁punch	-7835
▁queue	-7836
▁tempo	-7837
ambling	-7838
ificant	-7839
ression	-7840
tention	-7841
varying	-7842
▁centre	-7843
▁crafts	-7844
▁gloves	-7845
▁humans	-7846
▁jagged	-7847
▁millen	-7848
▁monroe	-7849
▁stored	-7850
▁theirs	-7851
▁tigers	-7852
ustrated	-7853
▁beforeh	-7854
▁chipped	-7855
▁conquer	-7856
▁effects	-7857
▁fertile	-7858
▁kentaro	-7859
▁milkman	-7860
▁operate	-7861
▁options	-7862
▁orleans	-7863
▁outlets	-7864
▁oysters	-7865
▁pacific	-7866
▁paddled	-7867
▁painful	-7868
▁panting	-7869
▁paralyz	-7870
▁partial	-7871
▁passing	-7872
▁pastime	-7873
▁peoples	-7874
▁petrole	-7875
▁phoning	-7876
▁pilings	-7877
▁pitcher	-7878
▁plainer	-7879
▁plainly	-7880
▁planned	-7881
▁planted	-7882
▁plastic	-7883
▁playboy	-7884
▁pledged	-7885
▁popcorn	-7886
▁porsche	-7887
▁possess	-7888
▁preface	-7889
▁pricing	-7890
▁primary	-7891
▁private	-7892
▁profits	-7893
▁promote	-7894
▁provoke	-7895
▁pushing	-7896
▁rabbits	-7897
▁reaches	-7898
▁rebuilt	-7899
oda	-7900
isod	-7901
osek	-7902
uchi	-7903
zech	-7904
▁joc	-7905
alies	-7906
ariff	-7907
erved	-7908
isode	-7909
oseki	-7910
▁clue	-7911
▁lick	-7912
▁maya	-7913
▁moss	-7914
▁nose	-7915
▁ripe	-7916
▁trod	-7917
enches	-7918
pisode	-7919
▁akita	-7920
▁alien	-7921
▁arise	-7922
▁cocoa	-7923
▁curve	-7924
▁czech	-7925
▁downt	-7926
▁egypt	-7927
▁honey	-7928
▁isoda	-7929
▁mayor	-7930
▁nowad	-7931
▁olden	-7932
▁overl	-7933
▁smear	-7934
▁stein	-7935
ailable	-7936
artment	-7937
earance	-7938
omalies	-7939
▁accent	-7940
▁behavi	-7941
▁boring	-7942
▁counse	-7943
▁doubts	-7944
▁engage	-7945
▁handsh	-7946
▁hypoth	-7947
▁insane	-7948
▁jockey	-7949
▁noises	-7950
▁proves	-7951
▁reduce	-7952
▁soseki	-7953
▁stance	-7954
▁stella	-7955
▁tariff	-7956
▁benches	-7957
▁coached	-7958
▁comment	-7959
▁	-7960
e	-7961
t	-7962
o	-7963
a	-7964
i	-7965
s	-7966
h	-7967
n	-7968
r	-7969
l	-7970
d	-7971
u	-7972
.	-7973
m	-7974
y	-7975
c	-7976
w	-7977
p	-7978
f	-7979
g	-7980
b	-7981
k	-7982
v	-7983
;	-7984
&	-7985
,	-7986
?	-7987
j	-7988
x	-7989
q	-7990
@	-7991
z	-7992
-	-7993
!	-7994
0	-7995
1	-7996
